{
	"layers": {
		"layers": [
			{ "type": "input", "sx": 1, "sy": 1, "sz": 112 },
			{
				"type": "dense",
				"filters": 256,
				"_biases": "4WGibPwV/BhDih1IrEbqpbm9Zdsnrw/uE1QDMnp5I0l16ixjaf2SuNBigW5TN2N2bth1smjwEXckA1VZRkhE+mJn+gCtxU3efc+KTOnty49TIc0e9kFM95OP1OhWaRTLjwE3IzEdBgO4FPyvo0v4C9qi+VB4mND60P8KpLFH+mlBno03weEZDGcmynw3crmapPQlRlLZLvELcvaAebp3cIgrOPakArK5aRQoASzhVehPVDUYlXbg+CVhQe+WZQDNxC+QX6r6NP6NeYk2ppppWl69s4EXjMxp0k7QUu53p8E8Gsvg9WyXQLk69aMzsRC4wTGxn5GNmTX20oACImeCkOa+F9WeqxPdh5IA22RZ5Hr07WEdl43KFwDsA9NW8kqn7ZzPLLJ2o6yZT/EmHNWEhla6Q+fXv2YvN46WkXcUo016rW6876F7yegmmjiQ7nvBB9dozbVCFFqJTjv+dzAweLWjr+1WlUfR+vhAMDZnPt+jwx3NH83VathAHIFxPyoOd8L8S4nSuw+RMZv5TIDcQQyxGRsgO1/aQ8uSUirkz4/ou3s0qeWdhaAEvAIaZt92+t9Vp1i/53kU5B+QaQRCGGiYDC/GLs9vSNgLnixHe6NcEH0wl0FBqSUAgMwVl2Y9rt2mVBW3/XkXFOs4wddtOZoLv3uj7FatK3TQB/FKrUSiXY0yMJ0sM0FFET4UkMl9jDZWFozTnnCf8ANWNYYmFiym+PbZWXw0YGJFULzopwAFdH4SUINURUA/wj6pj+1urT8MRKLYz0ywvjEPepbm5PghlNZ6PK1sI5MFQ81WAGICyRGLlW4WpLIsZ7dWP7Q4l1ZDygwGQ8GcvipI61fUcPklXf0wWnu8r+e5NEm7TLSKagVcM0o5spwcO4lA8ixubjr53khAjC+ctyQCRCvrO9AJW5YwV1uBGrve5nIYKTo8ylPBdQUYNQ4AcLqyC00dGCpNThyJ51ua1bXrPa15dnCuAhhAKivN20+W/7aECNFoZ6o2r++gvzrJ+Cg5og/uhvLw8PT08PTw9PD09PD08Pbs8Pbw9PD09OgA8PTw8Pbw8PD26uzw9PT09PT28PLs9PD09vLw9vTw9PD08PDw9PD08O7s8PTw9PTw9PD08PD28PTw9PT09PTu7PLw9vDw7PDw9vDw8PDw8Pbu7Ojs9PLw9PD08PDs8PTw8PLk6PT08PD09PDy8PTw8PT09Ozw7O7y8PTw8Obg9PD28uzw8vDs8PDw8PD27PTwAPT08uzy9PTs9PDw8O7w8PLw8Pbs9PTy7Pbw9PT08uD08PDw9vD26Pby8PTw8PDw8PDs8PDw9PD08PDs8PDw8ujy6Pbw8PDo9ujw8O7o8Oby9Pbw8PA==",
				"_filters": [
					"4Xc1tpuvYtUHPFuW7UYrC5P8DeZAEqhzYvX61p3vmrFjREIlBnSKkpOR23DJu9fsO/y5mjCaVOSTBY9qtlxwTw9F5X45dg4YC9Ey24XEl3dtxm0s77y+AhS3zcHPhBz08Y/uPAuyM6wisS9dP6RCOvwlNtq2DGezMmhwk1Ge33nxBpHwOqNMbRja+5TWslSOoYjF0IYAZQSBAb3C4H1SzhEiRXs4zl9Pg4vseFcxWgDQjjkTPnBwe8kubdKZXduMV4X7eq8RZ4LJ9i3ofe1o06j9SGOgAZnJnTqmv25ab/TGr4ZdpGGkEy+moCIs+H8hbnoQoqgA2dYQBGY6ur3PHrKMXEK6965w2L5cSOqgmd98OuGLuCYulwN+sxWc/s+WUJkeemH8qLZzMzJhCyLZ3W0kSbUWxpybfICoWwhWqkZMIiz2GByKmC9M1z9SvNt/HvL29vb68vbw7PL0+vT09Pb29Pbo+u7y8Pb09uz09Pb27Pb29vTy9Pr69Pry9vbs9Pj29vD49Pb29vL08PTy8vD27vLw9u748vb08Pr09ur29vL0+vL29O76+PL09vL29Pby9vT4+PT69Pjs7PTm9PQ==",
					"4486TwWlBIo6IZOjMhVyTYVLfJEi0pPB1vM8ouc/oL1CbreH/F88zM4O1A3bDGndH106PEVVFvgRA33cwpqifsoNdGgmOv3+KfSZdYfOQWQPJA1rcWZ+mgXJss5TZcBLxyvIWFcNOVy9qdEte452dV0RqLTV5xLjEPif3p6OyMq+Zm7Vfs1Wc40VJkK/k/RW4QplVRwZrUc8kz0Z+BT5HygNg5o40WRG4KYQu5PxpG+mXS6rkcaO2b4WLEsAtpR7ynaHLvDHjZy/CeYZLe4tDJOclm0vtVt4V4rx1dwFjKlhA0O6BFtuzkobxDOKb3qK/pDdBy/ZDHbE72oeq7FQUj/q8FsmUxJ6/m6oIaKrHiggcRe/ls27I2aZgilcERXmeIEZTdblipT4aJrOEnZ1R1ISx7ZtsH59MExdkie4GvaaLa95pvJPJqIalGA/6eG8mPb09Ozy8vDw8O728PD28Pb08vj28vb08Pb29PT07Pj05vb29vb08vby9vTu9vb09Pj08vT09vD29PT09Oru8Ob09Pb69vTw9vjy6vTy9ub29vDw8vb28PT6+vD29vby9vTy9vby8uzy9vL2+vT29vQ==",
					"4QTlDy8RWilGPLTqiu5u0ap6YG4Y6a0J1tG7InOKiRpdlhlZUvtfY2ym0syXkFqvdi8yA2bXBemmXOJsffdmA6HzUPzGMxDk2iqNxrWiSTI8zhW5AiSb+uY3TUR2X/TSLyXoWLxqC1HuaUCsya9YTECwZ9WcJUzG1DcEIPu7cMp4LRY8BYf6m0jwUtS4FDr0OufuuLl+/Zt530Eaoe7jEk3ChV/8beRvVhRk32PIUpVD8KRtpbkl78ZQi7kyLSLXWWm8PkdVBWcR8aOa909ks+dMzFcqJk5Grq/DeYGjLrSaysS2/im5doBSk5RMxN5Xm69l1q6L8aAPkKfvSfwyBWqYv1oinaDct8rwq2y/eQDIqgnVrY4ffDBtBoHsNzic81jhvGdcU7obCEV/xjGQyi1cZDAf7+5w5trYYKkXWC5sStdmWMbZceCVZJSV6q+PdvL29PL09vr28u728PL68vb08Pb06vL27PT68Ozw+vD09vby8vT28Prw8vjw9u729vbw9uz09PT4+u7w9vr28vby+vb28vbw8vT69PD29vb29Pjy9PL09u708PT29PT49vLw9PT47vTw9vb69vb08PQ==",
					"4u+MxnshBN46T8Iz8H2wVyIkHCjc1q7Okl3PF5LWNXJr727amc6QvI41G3KRtrFz3wU+4+IY2OuqNfAIsLkBevZgLRFQ/GJ6u4irVVCCekA6AsXsz6U5VdeSSIjfxxgZZPYTrzPQsf+HpCsVpf67E1KWIvdkxrfOmOvKVyYwkaGVCeC718UkF9M48Q349vRymSa1SNtCv2S2uA7U1+3A8mR816i3x3SW5NrnlClN3K1yl9PjX3bWLDwc4V/GIbwZHQiegg0TYk3AkCU8QFDfNm6a0FxisIZul3YquR+5bprjkQdcVfo08GW0WEyuy2CNCkJn1SwqWbjAWAm0HOoWy3iAMru65C6edj+5sJJ6AxpqiqDRKt4SfUJSA6QfJ6nSs1J/9rQhlmMT0UovU2gMjh/LySQzwzxxEYNsnLKODqLbc6dXZ7MQpMaVrvnFY8KyEPDy9vT49PD49PT49vT29vb29Pbw8Pb27vb09Pr29Pb28PT08vb09Pby8vL09vTy9PTw9Oz09PD29vLw+vL09PL09vL0+vT09vTw9Pb0+vLy9vTy+PL09Pju7vj29PL29vby9vD29PL29vr29Pjw9vQ==",
					"4ea/O55A8Sr/8FKsVCBaH2p4qfs/bGKI30+o7VmLNw/EEse8xGJDvJHcOKmg7c7IoRbsdzR77J1k3ZoNyOykGaMNniJh5LgxTBOuPdnJ0hpW0NMxnH0xNYluFnwSlpYZWaqIG5xXVh3Ob1tcDI9eCop8A0nqpZDHGk+LMWIakt837E+prTO3sOIrbojz87Trep3EE7I2I96FPbYTRMcA3H4TkEm7k8Djt1B3/fkSsLYJKkfXoEKh25+M4JUGbNoLzUVUhRz5riiFED1n2JE5P4ilP0itwfUZi+TKraBaDAMousu8nVYtWC8rPn0sYfMmsAYcPelI6sSEPKWEgAOV2JBe7HWSEmXHTQGyGLAHJKh8tcEd4S4QyXwoK19X8BBk7wUOO5fJu1o6PGuRM8xczr0TAAlikTRDaApQTjSZvyGX9ldehYIKb9wDXXEl5SLpHPT09vj49vL09PD09vDy9vb29vT29vDy+Pb49vL47vTs9uz09vb09vL28vT09PL27PLy8Pb29vjy9vDw8Oz09PD29vrw9vDy9PD29Pby8vL2+PD48vb09PLu9vr0+vT08vb29vT09vb29vb29vj09vA==",
					"43eKptAi1m8bnbAduTLTm4U94xhW6TFKeSnK7BZatV8FLtiLnligdARlLbj2QXiS4gu3tmPP71Z64cm+miw90Ks4xBpcJYP6Aztmmb4oCmN8TTrbLE7l9OZcCbDMmyTc05t52f6k8BmYUcQUUsuExukPxjbumEdEFbZXKtSrRTOif2di1mJFTdCa9KNtzvwL6mddXdlWMzPyHuo1voC+pixsYx3nf7FBQPc5dePrlUYjjzecdIWskMOgCzuM8nr/F0n9cuylrTRtkFgExX0BFGy/48JErgOj87l6AL7RCC7Qg7xyAF1hnYYA5/4+8LriaB15qHADTVYj60JT6ZGUzLCAZeVqR1FoJKqJ3YAcGiPlGjVDLmoAN9vEEFb6IbhfuITyqFG+xj4WXmQosRkefcRhuM7OnqQeqhjzsIjBc378NkbNYeaZBW0oNM4MGlCtLvD0+vb49Pbs9vj27PT29PL08vb0+Pb08vLq9Oj0+Pb49vj09PT28PLw9PT08vj28vru+vT09Pry9vD49vr09Oz49vL49vbw9PDw+O72+vby9vb09Pb2+Oz08vb09Pbw9vr29vbw9PT09vT49vj0+PQ==",
					"46i6S/RA/J4iC4ErNykLbDxOiPjbA6lu+4VtgvmRBqiiCXSnMgg/QtaaU6Me8jfU022TzeLkOv5y1D6GZd/7CrG1wlInbRvDql64g1H+X3NjFdVttxKsLTzlWahKqhrPaBLoumhUhJ1X6DQhl3szLhA9AOh6Ti9LY7sOPmGscSNnJjk0c3sZ7KPgq9a4LRrsUw7iVQOnoj2LK5suy1GN9JcPLGk+y8NPZehGAorSX60jtWZLNr6/9FJc3+Oi9vnoemYrV+iCc4YIVAjWtP2LRR0JFFLOAnfQP76+i0d9RETU6XkUq3//eXQrGtPNknZQELUJCCb2UIkTPigEPnc2kR7qi+FVoeSeWCu6Qiph0WIi2XIFyJNlGD/OIoGeh4zdmXwSzLzbLMdKMo4yE1Arhj5HyLiro3RbeRwkYRoEBFduyB71eMWpouNeRAzZ1Q/0MPD67vr09PD06Pb08vTu7vT0+PTy9PT28O709PT28PD69PTw9PTu9PT07vb09vbu9PL09Pb68vr29vL2+PTw9vT0+vDy9Pbu6PT29vTw+PT29vb49O7w8PL0+vjs9Pj69PL09Pr49PL28vr48PD08Pg==",
					"40mPEHmZ3xJ5uA2KGqrrALv03k/tIDIIXyNS9yjMBbo6/sT8PSGcy2UdLVvOd+dnx2/MRQHOr6THLFCpZ+Q8uW+hq7JXbTZZRpSaVXZpKlJyMnoTa7pRlOdteXwNFJ/ai7D9+2BBXTgzq87t8HtevpAvtTf1AqcPD1Ob/hOuhNgbF+Oesr9kO7bllErQPkP5s3/Hs+JjoNe6F7Jb1kBT/O9VyF1vo35oVRFXZqk4DPu3JF6FadAxRzcRm9Y9v+nsTRs9yKvaoZAe53ELOyyzgbYBrDBU4d17nprlBbIKhVjR+CnyQk66GU3lYq+opDH8DRhxsbPyeqSCpLvAY9IFQdGK57bZnnxEMrFNQ4bO+cQc7yPyHVpl6QF2gPIVdiJ0j8hsrTwQJsgoCfQc+kAf40tu4p0lVgTJuA2CJ5kwiuBzOigD/kZkQ3vYNcI9UblYovT09vb08vb09Pjw9Oz47Pr09Pj09vL29PL49Pby8PT29Pb27vTs8vT2+Pbw7PTs+vT08PTy8vT09Pb29vb09vb2+Pbw9vTu9vT2+u70+vb09Oj09PDu+Oz49vTw9Pj09vT2+vbo9vr09PT09vbw+Pg==",
					"4hUQfTtSMprGhurgwqYrxoUmvUmULzOV+22zR24MHhneH6oSLJiglSw5X4c6s3cwDOAcPN59BP2uw/Jd30KH3MqvrxXNh0PDdb/W7OjkX8m+4snUrEbKx8sKxJdpQqsTL37+/qX7bEQMp67kNqdqJsqYGtqlvkgMK0c6SWrONzo3/Z0mNCRY8In7optDopKoWoniNtxLOZYm8qmQf94WIvgpvA6tledGYw5pj5KqvW2gKVuXhOCOZxdA/omclfg9O+mYKdSY0jBZavn4FZXD0T3OW2GHMB4YzZfHgloIu/nX4ecYG1wkAb0ZNkbRDDSw+FSwwM8EepXWcYw9bhdeaH86TK3N7o7sw6FshAJREhDplIhJjOIrJhfFQTza4lHZ1ehYNpGSHuIsQ/KyQ5uGIo0tITYWONy81M9lNb+xerULk+AfnCKa3An9lGPr1uAHiPT69PTu+Pj09PT08vT09vb69PT09vL09vT2+vbw9PD09vT48PTu7vj28PTy9Pbu+Pb0+PT09vL29PL29vby9vD09Prw9vT08PTw9vTu9PT09vb09vb08vbo8PT08vbw9PLw+PD69Pb09vb49vb2+vQ==",
					"4uvACQUv7odp/gAU3ZrBkjaOyN1vzaKStmZAIuJc9j13c2HTjR9BLngnvM2MIi1BO9IiPfB/60X6orqUFHBoky18QfctwRsb2VQG5QCklkpeBRz4kS13S2NKzao/WsnyhJFQNWSH0YSw8qrFtPnQ7RC2ywF1zimp0Z1nxGlubcYdUUKeO6oQrdpksE4eIENBuXl1nu7KuBrhyMfRgxuybJh9kgh0DheJXiyEdaHuildz2jroQhQSTdz4jbGidyUeBCPNQgitahUAa6V5xy2H3QV1fjho8r4lJT1/SRdcWvBf38QqFqqesNVYVhrIW8NVgIaJebqfPrH2A/Sh5yLHt4x32TlzKZC6ko690iAH+GyhbtArclQjR4bfmITVkXdatFFsGAA6eXtzJ1mNTKyYxvRa4URM+bBeJBBuXnGi+k80ptYWyB12fcAKOLt8FeT6fvb09vDs9Pbu9Pj09vjw9vb69PT29vL29vLu9vTw7Pb09vTo8vb2+ubw8vT29Pb29vT29vLy9vb29vD68vT29PTw9Pr49vb09Pb29PT49vry+vD0+vT2+vT27vL09PTw9vLu9Pb69vT2+Pb49vr29Pg==",
					"4Z97giAh1fPGd7d247JLCUEH1bTIJ4XI7eo57jXXyewMbQVRcPuc3D29LqZMTi3w37OCt8KNCU47WHOadRcm0ejwo+ged6qVLGmWX1DcyxBQlLx416RxeaMDD24cvb0PhSQnb6fY8tvPmicAwHLQpfixcuCQAnt8gVurgko68ltsZNrctPzR1FKk1D+DBe595/fi34UfvRO1SyjmvKmcK8lA9QKiTzx0P/RZkNWau2Eek4KpSzlWFC+b4a+mHTASjb38fuw2068d3AZocjqrcZdYz/Qv2sZN2sd/+gWndzIpFWnsV2bcNPkIcmB7PzTugyMD38feIMKcprjZPg+ybVu4R1a0qF+z0yKysHOxq73pshAjdQ46llK1JCCqNtnxLGJjYV5mGpj8MQ0zpagEFNE22rv5aGpHNkm1FxNKueXYTJGigIYAhG73eEfEXvWCBvr68Pj28Pj69vj29ur09PTs9vLw9vL29vT09vb28Pb68Pb29Pb08Pb08Pb27Pbu9vD09vb08Pbu8vb49Pb28PTy9vD08vby9Pjy9vL2+PLu9PT28Pr28vbs9vL26PLy8Pjy9PT69vL69Oz48PL26PA==",
					"4P5AX9lI4VXYSailL+PCHgSTe4eLwBy966jM8DpdoU/dXLKxuyjh2nz4scv9RLewsOI4ZpOBJKEP6pAEThZ9ApS6TCQmNyqVNkVZIm2aDzUFtY2JdAuB0u93vFdR2dIB7dKa+Nd5BmVbiT2o4G845f/tjTQkhRJOjVISPFqa6n7UEXIa80XM18ZHn89/JWkTmB9aP+sev3vDXFYIfFEsFAXGgBKD5ehq0DLM1XM5SJyYQBXUBkxA+4+NneIO2GROmRFeLAdet+iQSGxso0UVl/9Z1vqooFYob15F0sDbh5clJWrDGUJDN7NBnoniqBWqkPbarCiK1/k6NCyZTwQoWwoCK+LR0E14XFAVBHwbScnSs8Q6hK5ehHwkGpJehgwoJmwcNip9uuqqzLhE05pHgpugKi0CQhQvWGqiftWDSYMOFzDrxIMX/QqWanOQ8F8Qzvbw8vD28PLy9PT29vbw8Pb09PD29vT29Oj0+vb09PT27uj09vL09Pr29vb4+vT29vT29vT29vT09vr09vT09Pjw9vr09Pby9vb49vj28vLy9vDq9vby9vb29vT09Pbw9PL28vT48vL28vr29PTw9Pg==",
					"4Q7/jzO+J6yWyf1Q1P6RME+WKOikPwwPFH6REBOWctXjjPBjNfkvUfGwQVXMDbYuJ+9YpkRa05urigXlBLDIaBmn+O18s2HPZ8KluKEDUip1o3Cz/kJSp6u+VW7zW9273OaAWegGPg7c4xEQSsa2nqNwcQ8/i55z8OmOzlK1x/nzewZhAIzpsE+XLBjjk7lz9vDjXL+Y5JjaBKeJsH2mO71wSbNNHXBWAPVAZOerXqsfqf8oXR4iSRo//VT1uUv2jK+5CnkR+IGqByy5YuibSSmKHPv6cJ028NvHIzW+vBgfSaII944KUtsMzHHuPg78D6gi9gWoDMjfrddfa8KaWU9QEW5j9MLTu1AqIo1c1YTU3frHM71oyEgrYZGaRwL2+C4msOcLUDzZGVHTIFxT4AoaPne4oJc31JhwDuBRPnceLRY74qgMIDoBDxKVy+BdjPb09Pbu9vL09Pb0+Pb08vTw9vT09vr48PT28vb29Pb08vj29PLw5Pby9Pb08uz29vD29vL29PT48PT09PTw9Pb29PT08Pb6+vb09Pb49vT69Pb09PTu5vL6+vrw9Pj08PL69PDw+Pr69vj08Pb0+vQ==",
					"4upMI+51yWRIcJMuz5HuI16XXdmQe4GO9PPp2L2jccElEc/qVyxJdFT2UEBALuRlroHdmIOSivRygWQm9jkJQ2M0Nlb22mfTlmQjMLNLrHzxoZPMdJYdCkawb5aFI8ochWrFYRIZWuBwdm/n06chqvrFBvme/Sf9eNXK0T66bUK2I913J7W6iwNjm8zbVYPL83V3c3Oo0PQ6EYZVpXSmyN50V9pNJdCltXW+NgpFdZPwJ8gDFneiWuWF+wVI2n0xDl3bQk4tMk/WxbtXrWi9/LhT8hLHC+s6Tpa7hGKm98Z0WUUnmPH7bRLt1/IjfvsVHkPJVxAJ7gcW9nQgbgq0ihqXDFS2TA1XtV30fjDWokAobjNAmrFYZljhLx/I0Gg8Ut2fhsD+lBNW3wZzOmgk0pb3v1qbLJ1kn6ZSTILASDe87E3vAsyYio9YNVwpWLmVPPT6+PT09vLy9PT09Pb09O7u9vbu9vT29Pb09PT09Pb09vDs8PD28PT28Pry9u729Pb08vro9Pr27vT09vT0+Pj07vD29PT69vTu7vTw+vT08Pb09vT69vby9vT69vr09Pj49PT0+PLw5vj0+vT69vg==",
					"4Qi7o/eueGzPyVivRxgs8QKqnc111c260jBmavgDZuayJEyXNwYrochxZcn4fflN9i6UqoYuIZ/uXjhKZxDzi79iJhnHObO5rCwQfySCnE3NdvRKS8BTuE6zYJLlywpHP4zgePj/Rkw9qm+40pOG3aeKBtOc7UOf2/GV086oQYxqVhliz261y1zhjWt+VfUg3cu9izuIjLg8IT+z54faSQZKf3kQuX7yuszhOzGXHBd/8sv2ccejnL8z3B/IDdcpZon4oNouOYHmPrsReGXQw3tNbLqY2JPOjB4LK/Ta+wy4bZBdXn3W/b9DQsu2HGqZFOJYeZww4CDJFEYTm6EA8nD0S6QQNs0ZlU0sr3ztCg2fGMgPqCIERiDUExhEOJgVpQqTnjBiPI9nPB8WH3lAYKOvxPDas3CS+oQVKJRuv11NFKkLQp8Blyvpq1Vp2AoeZvj08vTw9Ozy9vLw9vT27vb09vj29PL29PT67Oz28vr29PTy8PTy8vby9Pbs9PT28PT29Pby8Pr09Pr29Pj0+Pby8PL09vTw8vLu8Pby+vb08vT48vb29vb0+PTy+vLy9PL49vb09PTw9Pb28Pby9vQ==",
					"4x2FkOF4+mKHLUa4qXOrCstjLPxPjVFPOF7f8qmiEw1Xrn53ZXh93oQJIyP6apttZLzx7dAXa1R27eDi2JyU4V7AFKiLe2Qj72UytyJo2H7rj/I/W/1x5UGM0BtBD3s9HbJQrzAZ9fe6KBzFj0aPnEBntleZ0q+b7YuKU1QOlrzQUIyyIAYOlTx3rpy6TXJVIaSWLnz03gWQvVKeklDc7hOtmAMpi9JPHcgPMOh6H+fH7Iaajnlrp/d0MzLG1/v5qUwnBf6lyNhSit8FPWBjp/mKJWtYNV4N7LFBk0KPasyvUE1HOGLs8xQELE0xhkyr7w8hCdH+pMAANCuV7BgmOiLWxAimMPDIuHH0jopKLLReCgKSX6IJVJOjHrI16JYyvnN+fYnuKFz6hMIzgYta9AuMHBMCVYQaWuAKFeQ9yyxwI3JKLx5Sp7oGUAz1CHInvPL2+PT49vb2+vj4+PT29vb28vT29vT0+vbq7PT27vT08uz0+Or0+PL07vr08PT28PT09PTw9Pb68PT07vb67vT09vb49PT49uj28vTs9vbw9vj68PT09O72+PTw7PTu9vbu9vTy7Pby9vb2+vj48PQ==",
					"4n7YUfogO+5w21vEgBPLl97ehA8yu8eOOhmfdpEUd6cCZVh1QFJKLbBCpT0mPrYHy+GOgTlCc8hoB+SQ28aVaiunlZSgMsC+sugDKygKcCn/06nkJLBhJc0vJb13fsPMvHs6UzjNOYTwM63w5lnJjk4uK8ntWFOGf/kCF9j7p9YlbRKH6VrRbKhQHCxxr7KtZMTtuVG/h32HXoHcntP8Ca6N8tYMA/NhJnZiPZxYtV14o1GjyJ+D2PoTptWZjtAzws5nVuiJetGQ0PgCeqU51X9gwTTrK9lthajayYQTVee4fvvvOrA9HiW+NsKfHKgm4yK6aovfZBJTAh+mCkpHej6+MQxRBGaignhGJMDYtAg77/0iDT402Tc2MkD4iA1F1pgVT8mudl9Wxi02hK7an3VAZBK6Y3Hty8L+rB0G7ujghbIbUFKrwFTQk5leKVtegvL09vD09vL2+Pj08vb69vbw9vTw8vb08vL08PT29Pb08Oz09PL28Pb0+Pb69Pb49PTs9vb09vry9vb29vr09vrw7PT28vDy8vD29vT08vry9Pb49Pb29vTu8PL26PT2+vr29vD49vT29vby+vb09Pg==",
					"495iLRRVOJDf3MqU/7ANUzmYhYw0Ti8eMi8ZmC1YRVLILLws0rHiqoKFR3w4x7ZWGiiCd+HofEW3lpmbmRaU9ew4LqOKAGctxl0jeqg72OxZGrr/9pJakXYmxTERnNdKoJ537vGmlGWP9NyF5dY2aVtUj1yIUKqCzzhtXYK7+e3Zy/Xj700OJP2uFQrvd6gpOvubvMKP5sHFDqL2HRIOwrwMB+rdASClwOoOUW+effCdlrQJnH9nUWdmJ+8ZJu4PbPRLEDNmlYhFMJQka8HOvNjnpQXeE25enOIpSaCvBsJMQIpawhguq12mgGau6jfbKiFLcV3GvqWtuS7pmQ7kO60d4BK2KgjR926LIi7w2Oj/OHJQ4H6gLCoSgBDK+SJ6GPqSIzWRacdNWRz79B0oaAoZkf5E+2BAIqg2e9BPd/iO9oMiuKDu1kag1AHWtuh4Vvj29PT09PL29vT69PTw8PTk9uD29vb29Pb29vj09PT26PL67Pbu8Pbw8vL29PTy9vT27vb49PL69PT0+PLw8vb49vTu9Pb29Pb0+Oz69vb27vby9vL09PT09PL0+Pb09vb25Ob6+Pb28Pr49vT09vQ==",
					"4Sars/wR3zFsDqVPavZMcle0hZhVnXitpqUmY6N4rOIxgAk59BPaqF8NdaUHXFyS1L3JT3a+e8vyGtlLtvZ8lxe9cY8p46b2BFjIxYKfEJT1MDr6pXwlAvLPyLCxg3ooX1a+A5umc1eeeircvlHg7ghSzKTLpUiaR9P+v3o/SUqLoHbuBoQTPpGu8JWKgGCV2weZjzsye7KvxKdnX33ZryvYc6xEpUXtt433DsRUlS2imFUp5BVmxke4kkPadt5TrzJAt7qF3DjjZLY5LyFYs11tjGacW8RgCa6szFBUVtokvcRprt/QB+N5CAtPIo7KmNPwTaN02PVXIYYDCQ8MkjYSFR3czkKSDPVgOUFoHtru9h0Ke6+QgX+ZpWsCqG7e6X30W8fQUL5djxCQ8HANc0kuEGsXRdmKOIcerrZMvlWAHFXsGvs/WA+IpPb+hNeO3vbw+vLy9Pjy9vby8PD28O728vT29Pb49ur29Pb27vbs9PT09vr09vL69vjw8vj08PT29PD09vT08vb08PT09vDy9vj29vbw7O72+vjw+vL27PL29vbq+PL08PD09vLw9vb68vjy9PL29PT48vb49Pg==",
					"4N6ohegdguaJ0Fey6ph4u+oHQ0DP0Y+8sSnoIF13tMuSxxNRIf4Q3XZVk5M9jsM0BtRC3dKDTT2JzPhBnPQDTkMaYUjUWZcKaXV/UNNMO4tnpH+kKe5hBmbv+8TArr8aqv/6mGPlFPru5L8TfdPejKsOntybBEi3oZkhJNlZYREFy275ZYRbqga0wnVB7XtFgxRc1gTvjPk4kVbILtMAAaUkr7Q4x9dR+CBhXNmnLi+q/FE5kTdZZtgjb4oHCqo0++st66yXi5GHtheTOnsftOivotCapCrV8NInuGe3uqABQpvBnKnufbU5RxSq7e5MkaNtazu8HGa1zl3AInZmBUAsloJ3GjAdRo898xfIGCR+rCZ4cGmaRuJxmV3aYoBDx937Sv1JXMLIkqoHLCHzklwiEWfWdoZ+7gEZA8qJXHxiOpxeK9LLGo45/J/hvyT/avbw8vb08PL29Pj09PL29PT29vb29Pr09Pb29Pb09vD09vbs9Pb0+vD08vb29vD29vb49uj29PDu9PT26vD0+Pbw9vDy9Ozy8vb09PDy9vLw+vT29vb29vb29vTw8Pb29vb2+vL29vLw9Pb48Pb2+vA==",
					"43O5kEPb6JKibTK1h28U1vzyYGh5RJE3VlYNhM4C8c07ywctD6hOw8olTINtsKK3EW3qUFjIqv4YTIJemY+mRUIbaV7JmfEp4sFVs1kEvX/UPBBMOSDFYdLjaepDEh/49pjggk6p73wT3r3wNu0bkx+s4IqPEJOG+qXH+UmXczXRl3bw3CR5YxEV3yyOUJHA22BGmxxDbM6b0YkIQAPOG1EX5uWjDp+m7NJGhkOKqCGS6BqbAWx4YOSV3KcjLhYpI9een5GZ4R8NViHLjZ3lpAqctgbVxMKFFxQleMzSko10TpFWrL6kn1s4WmIkLkJLxfUhQxOfxsXYBBb1RnMsgQGUoR4O0XZeLPztxTgvLE4wY4CUv2EEHDe25c4wC8xiISDkCdhALE9gw5ALwI2ul7tMA6iP/ggnlzQGVC5idMAfO4IE6SgIMBd0fl4wCCPhTvT0+PDy9vTw9vTy8PT08PLy+PT28vD28PT28Ob28PT4+vb69vD28vbw9PDy7vL69Pj0+PDw9Pb48Pb09Pbw9PT09Pj2+PD28PL09vT28vL28vjy9vT2+vb09vb29PT4+Pb29vr0+vb49vb29PL09PA==",
					"4ayyNd8zlUq3hnJRDuKmmbngQDKwtuAzp6wlyB4vjsVIUcKV8nVg6ucJ3kMX6KriIuvnH8M2qlpT3/nPIJl5LBgoHuqdp324JJeK8WhfIL68pbilA2JuTuqGbAo/IFQIOfAT0gLJrgDqYTRT/0yulDF+H/uv0zWZ4Liz1eY4WpvHoKusxxp7JENZVb+YDOT5WxY323AsxdvoS/p1pWdrTK0h5nqK39ipdMdN9rGu+MvSxRnKSI5wU9WlTLF7pUy1iBO4j1K7W2SaNTJxgBs+TWEtD8NuIol77qjAB/+9M9na08D5LsCPlOVBzLofzwdqIAGAGPw2RUoWLYG74FEEwk0a5pgjDBtq+jKLBfqOvvwNqIS2vuaf41rsxBxjf5vC5QhoL7sZPtESIglcCBvWsFYy+pwU41PkwCFs2wBagpmj3kHzpbXLfOSgT25wiFl8rvb29Pj29vD68Pb29PL29PT69Pb49vLy9Pb29vD29vj08Pb08Pb29vT08PD29PDw8vL49vbw9vDw9vT2+vD09uz49PD29vbs+vb0+vry7PT68PT0+vbw9vTw9vj0+PT49vb29Pb69vb0+vr08vT09PA==",
					"4nMEIpPwRBbZfIRDdoPkDFRU9T0dnT0CqppUHtqp8tO/h7vMtV6BXPhRS8O5YU+yPf3u3sgaS/bK/H1h91lygBBGpTT0qiXv7yO7d3OhL82rptT1DE7/ATtMbct766WMWqU6i5WDQZPch1k2c/fkRNHVjAF5I2RM5SvKdfWq0WSiNj+7TrbfXLCGoras9aT+bxAgeUwnoctrLTD8/CUeprcR4g/V1EBhWiwmIRaSIXzFhh6Jry+OAkFRgm+ZGn/ZqOoZFcB+8LVyfKG9Y7iu5WIGqV0OTnJO+N4hlkLD4GIW+3yFErqcfMm3gR3p4MK76E6vJ6IhNK24czy0+xSL0Hor9nXqQ4+fbN4YA5mf0Jy8VdumltFIp9UyKcr6bFZMaqOnTTqQ/5UJcxza7Rjj3ATKQugEwCEZDOcn0Hva4pOISJlAv3ZRMRtQnOqaIrrgEPTw9vb09vT08PT08vb28vbw8vL09vT29PT0+PD2+vD29PLy9PT08vDq9Pby9PL29vD29PT09PT29vT29Pb49Pr08PTw9PTw+vT28vbu9PL69Pby+vT49vb67Pb69PD08Pb69vr28ur48vr69PTw8vg==",
					"4Fl7SGY+e5LxGcwrr8MPUNYmxS/JYm6qL4+v94PZQhhFqhYKYlAbmrj8ei9O4VQQp2D8vw+/2joeVvZWk3Hc9QOIiqaJ1Mj90rZyzJTBByMbNabd+/pS3OpHmezgzPMnDJ6Nofc6kvTkZcDM54ibYcx1I6OWE4sZEW82d1TyAfeuf+SPVVNVOD1zhhvJmJuYX7xXDogxO4+3E6TSF27BOzZ2wP/rj3YIIrioOXtTwel69Q01igNBQs1piVqPzCuFoyST7UYLj/xm1MQI8mNliH01f9+ai+nDLiXMo4PVgAVUOLwxTCP0TT1GwMsaOLLFCzytSGQ5IK7ekeQBGZPj6ot+xYB8Bt4prKF8GAw33E7PIA/Rsxpqk0WVl+TAh9NYNp7wMUzV/yM6dhRq6+wFMnC4vSGyoI9P28mASZiYCKOVsA8BRJwADjtAUvq8ChxXmvT69Pj68vT0+vbw8O7w8PT29vTw9vb08vT2+Pbu9PDy9vL2+vby7vb29Pj49vTw9uzy8PT08vT09vTy9vD09vT29Pr0+vT08Pb0+vDy+vD0+vj26PTw9PD0+vT09PT48PT68vb0+Pj28vb09Pr29vQ==",
					"4ImbWI72TtWa0dK5oT2zuMm+6sYB8Zp34HnLjjPD3Bt/o9IWvcG1MtqCE1k2epQaiOI63G7d9gN7QPKOwhZrITLh25DLC0Tj5cvpysufxJQqxRsvfUs0R6qecXffBMTXZP1E03HZ++fhptov6bo6os7c0xeWvOisL/miBK7TJ8TrMRuIieS+DQhOWLMkEKZDdaSDYj0T36OX/6dxN5+d7n0Sy8j8YKrR+V7yTmEjc5yvMOTYPGDV2ceCcZKL90nBTh4dHEDheSJUgI2WVOYr38uK2kQwhH47OsE3ULw/pny7bDpJQ4NF9DAA74e7HoxwARKIrEj9NIBzErE33gOH5G7Cf1AopEp4UEFzShGzHbYJy3bvv0yTYGAhz1S6XGpdQVJBh/W4A8ZWTa4GFTUwRNw/T0sLr4gO9oWKHYjhmG+yXzmU+49NVcsYDiR2w4qaFvT69vb09vbm9vL29vb27vD29vD29O767vT29vLu7Pb29Pbw9vL67vL09PD09Pb29vTy8vT0+Pb0+vT09vT29vb05PT09Pjw9vb28Ozy9PT2+vTs9vLq9vb09vb0+vT29Pb28PT28vTw7vr69PLm7vQ==",
					"439r4agDgIsAJzR8Q2b/FGsOGftsWxe2jBTvT9YDNTCbutOPb3Wm8Es3pSK5nsoqzvyPrMBaKCWvYP2Tcu+6AOGEz6hPCYUUCNsaj6X7vgfigbcIX9jufZbXCmjIQL5m4Yw94Yg7zutVq0mtiCQ9HHOjUE0eN06lwqDMC9Jtjxsgnc1G1VCOwqxLi2fpcJSRKGM/5nn09SM4nXZ0RfmTTzXUV46YXXyLfP8ht/wQJd5hSFGUpUXJVIjD3qgtC6QD7DSLCfxT+UxOcS6SlePLucQtl/QKqyiuzhc70vV5/Ux/rA7OFndWb66ccTHQKvJqZf93vGi07w6x5QEIu0F6qHoN1t4OAYeJGu+0jueNM0sbPeLCcEKQtxmkAKCKFn8kL8MKEXq8NhsQ2kJOnk82KmoWb+coERVkfwkX1WPifuNVF1hteZN0k8Sfh6hcA1rkPPD28Pby7vby9vb29vjw9PT09vb0+PDw9Pj08vb29vby9Pbw9vT29vT08Pb09Pb29vD29PT29PTw8vT6+PT09vj28PT29vb29Pbw9vb09Pb09vb29Pr09Pb29vL29PL29Pbw8vby8PTy+Pb2+vr29vQ==",
					"45ijQfD8bwgdTCkaWvDLdr3vTAMJqUpYq1s9UbxMMDcv1k7w1SZvXtlag9mCTP2XxBclCxa1PpM8jFwfIsnyKT1Yz/ltJAlTHYkO9iDTpah4BrXUWKsrdsTqQKGLrQJCKmPtRMNa+/FPYxUtGqg1BkIlHI5r88qsWeCY3GbDlyAtYUnQqsVYMglhrm0WPuoNgCDwteKItBg/Xzm8ochDkoALWZZW2Fm1EGuTpHWcdlBaSTmtsqtU82sdigpbLspJJt6GWx2XxjU1rdFiCZzwqFbl4VaGu3yZ7MSIZJX1oTNxaewGeUqbOIHkObZfArKgNbBXbdHf7o0mMAqEy2+EdASZUa5g3i8vz/aO72b8acYaZA7qRBooj0Aqkj0f1rZ2BVomMKWgRi2/CdfxnjXAjhqvHH+BQAU7c7SJ89ZXsARLL4ZHkUhCRFg2UlgRPPCJRPr0+vTu8vD29PLy7vb29vry9PD08PLw9Pb49PT29vbs9Pb27vbw6PTy9vL28vr27PL29PD09PT09vT09PTy8vD09PTy9vLu9Pbw9PDy8vT69PL09Pbs9PLw+vb28vb2+PL08Pb27vL4+Pr2+PT0+Pg==",
					"4yjR1SO1Wko8567L2HUtD09NUuW40//2cDE6FcnDKXT1a8KZzPUqIu985JUEH61lUbxMh+3RPdFVholqZssG9gZC47EIpuwttL2Ybcub3krtF+b5jy67TNtECaOxew+rFCOiVjopCHtsV8kqr0ktPSzR7RSR/UnJgc37kCL7EfKGdeGSbtSGM8hdIus+QJ/5obZkLd5KNcnFEjw+esy4ELh/dbcd637d5WC+qhGM920S4rUwc+u++DNpmpKVlqGJqe1xZyf/gHOZUC0tirTo2CqUmB+JkeBMWHnmKhNAveTg87U9YAxdWVBy1tlkJX8+1v9lS/S0Y9XpkLdmLYMgat8WbUmFi0pyhIr6LknYfa+P2rtudm6VN9v/UG4EGBhFbdUT1NaXbCheWku5XHQJk6AwnKqtrMMojQw14pfwudhPd40jw3CbE1ROUSciOBJekvDy9PD69Pbe+PT09vj09PT28vT28Prw7PD09vTw9Pb29Pb27vb09PL49PL29PT29PLy7vD09PT29vL09PL0+Pby9PD68vb48PLy9PD0+Pby9PT68vr09u7y+vT29Pj4+u7y9vTg8PL2+vr48vT09PQ==",
					"4mSoHfU/Y21wzHhmSY4xx09jVHJewORqFOn8n0IFb7ZZuFzeNw/lMjRtg8mUqw85kPvx0tzBk6UbYf31cB7GAwQB0sSYVzKOcBUrr5ZGzqb0YyLUT+EpyKXH5CPGjSEs3xNv4tYctU0Mnw7C6WVpzPnaRB60JKspdtjN7ttQxBcHWtDw1IY1OG3nNSK159IsWHcyLOl0+8f1G+Us+NtLWkHdv8xFYox+xOdT/ViEXkDOMrLDXa7P/65BVshk8hHamd69wyD52klqTJrs140dkmKhcGXBM8tY27szlQLt/r3vWlkGeXXJf9yeXG8nPi33XNg4JAAivp9POiaYfQCKYuPYN2C5qGZ+0I74hU2JhfgQNazJGIpzTHxiSKwcgySYLb3UDLnACb/v7uBId/sdE7/QAuAK6jXWbvOi6hY6ODEINs5fo4wKMv4r5jB6UjTWBPD29PT29vTy+Pb29u709vTw7Pb29PT28ur29Prw8Pb28vr2+vbs8vD09Pr09u72+vT29vb69PD6+Pb09PTw+Pr09vj69vLw9vbw8u7y8Pb08vj29PT29vTw8vT29vT65Pjs9vT2+vT29vTs+Pb0+vQ==",
					"4pk90iWLzSBIvHkxmBuFBd3AR11Gy6ov6ODaS0AxHCPmW3M39kVjBPmhZ+c0kcNCwD8d8V650S6pXaKiY8JUa4gEjRPo3VMmBjk6+5WTquvlICBl+zQeiUi36MakKrgQlOmw2IgemyL/EPwcVxh82+xVT8IRlW0RKVMd0yVc+C53Vt3+tUr2L3NJtEAzEEuzTeQiFJ4jw4p1HBCbcPK2yRq5x1CEo7iufJZchOmWHZ6U1drVf+QLBJFEevxZK11B6bZAGjkjlbXb9geG4c3u0uoMoSIaP/PiMYiaPpV/9KWn1Ha8pWvxSajYjBPpbkbcWS43HM9/4+a7WM5djiKADgJZsgMb5qea1jfvZZhTDmxs0d9EhwpvtKnCqgav1u96JMrBxEFqqiCS2dTpBF+SvJ8bAY08m7e2rpQYzu8gk4siYTlMA+pASKh4Sz7a//3sqvT49vjy8vT29vj69Pbs9uj49PT28Ozw7vb08vTy7PTw9PT28vbw9vTw8vT29PL28uzw8vbw9PD68vb08PTs9vL09PTw8vby8PT29Pb68Pb09vTw+vD28vT29PT29Pjy9PDy9Pjy9vb49PT09vby9vA==",
					"4BQBRYa+vX2wmRfBCtP7OTbJ7Ta9zaVx+82sIjVLvsgEwuu8VtiyKUV7g/ZV+hzuP+a35OLqxGCFJ9SYodluQuDc7spJVpbVurXoda2+hUnaGREQkeCgYiCTNjAVaKckZXUI68PkyN4H6qaQoLu91D3cVGu+HBy2+LJABauyjPGPJm+U+h+5Cno9BWTy4VO49MYNVQwnaoN3bvLAYFS4zzX5e1OI5pR79jzU9KcR/FcswBe8Uj6Inz6A0zQFJRuZHieMu62nXVIEz16tfLrf0ECj9zgLzZyAT/vO8gvGRIsu8NplsisM+xp7Nm+05iZIdmW2mMK++4V83mb6rCMsfFAx9QhvypOCRL+aL8nr3pVLCv+8fV66oosG6b34B8jPDWQgGg5K2HhyGi304oYy46qX+rsEur9NJuzIQ+SDXhgzCfi2DKGKIM1hBhmQLGkqiPb09Pbw9PTy9PD07Pb09PT09PTy9vTy8PT29vLw9vb09PTy9uTw9Ozs9vb09vL28ur09PTy9vb29vb29Pj09O707vb28vL27Pb09vT29vD29Pb28Pj29PL09vT0+Pb09vT27vT09PL69vr2+PTs+vA==",
					"4fgMkzKsgwIxDBLwOOFa/hV5Et0ASnw+oZfkWsl5197u+Yp3Z8F/XAWXcSa66OS5rbY0XWvZ6PyGGkdA5j1JUXyQlX9LEJooezAa0FXdP/0y1Wq5F182yWowenu5c5+Z2LG/m9qqbPcvlTs3RXJmAH2MAuEPIAcpISHb57NQgTF3h5ksJ7sBSVrG+KPmO5Av2Ns21+yDtawwyVjbN7Z30oTNXGi8XaobNQnRBPhVHKjJckklwIjGnM7bF7f43wP74wY3JADGz2Dw5JPEgnLwi56H47LBti+IPQIDU50TlFN2KeHkpzMfCTsfM4M4YAvxSCbG+gquJMLhqwQ8nFHbHP9A4DIREE/3WiA5rj0Og/xfe4+PH3PKIaTLCH4C5CGZ7jMzoZ47Vgv/Vi9gyvQejxLm3M3DNoFHDNk0DrYA5uj8KRP0Wn3SWeEwvgVnmiNWKvTw+Pr29PD29PT08vr09vD29vDy8vD25PTw8vDw9Pb29vT09Pb68vT0+Pry9vb29Pby8vbw9vTw9uz28vb48Pbw9vD09vT09vby9Pjw9O708vD48PT09Pb2+Pj07Pb28vr08vrw9uT29Pj09PLw7PQ==",
					"48ugBv4p+SIvA7qxBBN/KVD/SO0J1mYoc3fwM+AcaQM7TpyhH6RDKTRoBquzlWUv7PRrv6TvxR/p0+uywhNMy3SZp5gG/26Acc/U+79NQ8RD27KUgmon67AHF5q8lA22I3WAMBm8OJONLhGuvS0pKIQDMSVzaARRcWgvvXhLs7h1NkHXINSSQWIDL7l2M3UqvmyUWUKLADn0pxcH2dBQ0lHNjWGEmJ9qc2oRzG8esG22UIj6CgiXrrigyqWtUf8urxbg25XmD5YO7khSkRGg9wicK3cAzEIx0sOtAePUovB19xdiNZReU6/yZACa6zb6HlYemgMhtWlSv4rbV0+CuCFuuZp2I7NlaEK6d+2XvtkKCgl4BDapyfaIXkiCgOEybqgeWB2scPtzEjivijajMKo8y8JTg73N16JeIDoX7vDczM40bvreIzsksPt+dXWQ6PTw8vbw9vL29vT69ur09PLw9vT28Pb27vTy9PT29uzy9vL09uz08Oj29vL07vL2+Pb27vr29PT28vr0+Pb28PL09vD49Pr29vTw9PL29vL69vb29vby7Pbw9PLu7vL29vj29PTs8vT09vby8Pby9Pg==",
					"4pLAEiiacYF6h7S3rY0KkCkFgHvx4o10YNky7eFsuSCVUb3W1QD6O92dkV6JZdt+A0MIEEES2kRGiRrL3Kr0CvNb2xQuA6msdz7cJwIkvLQS+7VQK0SjwTGVA4rEeyfViX8LiSSPoaSjwH3yzcCRM/5b7klsqgubhnu9F+8uQyoRxig/e5YWUFXfVWqYLBW1FeDOZGISO3CUWU2vLhXD10R2XswZoNMjP+D4KolKMJyONmmI8E3hvOZRIRJGWpXoBr8FbiLjyQLJijEPYNPgiy8HkeoD4FzbJuFu6p2CCLvfu9os9Chk96xcEVfHUsgSUV4r8D2ZOCJXlxhCiTh9ftR4nprMzG8UqIrW9G6znLcQ4icwKky8ghDqt4sJfUQR03KQYyss9BZXNTFIZiSDNbJcaAqOIf6ImTaYdroyNVDFMRQaEMfSXYpZHCLzfNFxlPD09vb07vbu8PL49Pb08vTy8Pb08Ozq9vL08vD2+vb28vb07vT49vjy9u768PD28PTw8PD09Pb0+Oj29Pb28Pbw9Pb09vL09vbw+PT0+PLw9Pj49PLs9vb46Pjs9PD2+Pj4+Pj09PT69Pb49vb09vg==",
					"4DL7dR2w2v/coNgv4+v7srSn8ImJdu22/r8GnT2kPN/J5iO1WntJ1A1pvVGvOmGb726f1mxE1nuRwksunVnH7hOckvf/wVxQxxx8760S3moxj2XNvhjPzXviOyDjVPaOJ/Vsz4pqLn7y8qxn5z68wfjD1m1fB9fIM4b/D8Tp94w7m1xcllFehLTK14/yHnuuV/Nz9LuouGNC0xWLi0rACdrgC7XJtGswIqc+1J2Fbm7c5EIiyMwx/8NQeY0v/iy+QcCu5AE3qV6VJjUZdnCCvHuuvd4g+EoGKCwkkgmlBHJ/0V/qTDljcvhsf38fyDbTdBtSqz2rHOpWwEqQTSGoVeeXdxmCRIAXg8FAmjcIMr1VPgZaOkxJL9xyQTlIR85GQtjQIJ7g1UxKeWOHOqxCKMYndrHF2wiP4RyRPIsLMFm41ix2H3dMvkqOzuOB7sN6Qvb28vb69vTw9Pr09PD09vT29Ozw9vT29vb08Pbu9Prw8Pb29vL0+vDm9Pj29Pry9Pbq8vDy+vby9vb28Pbs9Pb08vj09vT29Pb27PTy9vby9vD07vT09vDw7vb29PTy7vby9vTy8vr29vr29Pb29PQ==",
					"43r8gBZkY6AzLsRNDJJwLAbMMT2awXIA4Ownl81RyOyjpBtIrvjf8Cxfur++tFYbK+LdTy5FTy6wZHLhfVxy/nYvz9NQiUmmR5iKrrRJnmAstFclFGMWD6vumy/Z6vaCyH3szKIPeX7eH0ROEeoWpufWO3LX7+XSAjw/7LUKvlpXKO9ZyOsaC689ZrHcsc4Im/GYZb0oY8onuktN5XIgaP2of7sSNLwUa0pSGubOcPG19i1tz7CWLJ/impi5uJz68UBuLEkjMtpSOAvMq2TtLFEKMKYWylv8Z7tXnEKz9XzPFNVuoBbL61HCE38lg5IHGsU6RNQ1RPgHzmwcfmaPPJPWgSp0FWYrFh5VNgtOlGPCiJ8gOZwnRU7dTBJVKZSwoiw812isVRVyDRB92ghJbjBoDwxXutH+eCF4HkA1V2wW+UPLHlCA6YLTYGe+oG72kPL29vb68vL29Pbw7PT09vD29Pb49PT29vDy8vb09PL08vT49PTy9vT29u729PT28vb29vry+PT49vTw8vT0+Pb09vT2+vTw8vDo+vT09vL4+vjy9vb29vb07Pj49Oz09vT09PT2+Pb29vT09vbw9PQ==",
					"4elnhWJxwJEtyjX3CIxS2ipqPJSSZAoQ/L7D2tgf0jfsETjtdj3Uw8Bq2epskFEXIJLRQ1QiFMnkia/UD3yKZ98cheGDdPY6MeByJMs42Kg60KlzTTDivHhvDjnAxdGYV8BKLnvWutz0Q74AwrENYHmGFe40m1HU7uajyefWpThJbuNieTpKVptanCJZP5reYaNrFDp19poR/f+848idS9Y9+IdU2nWJ/hrarc/jnbtm9ON2iBxbMyWts3GTQXAlm0lc4vMv1ApJroRdKTAgBOGXrQSV8s1pyxkk2fH8BLjUzXxJPa3d5504WoYFoOo8Gvroz6n8TIIVeuqmCNL5qiI8H0JQJfcH8MpLorKOonkKOFpaERjLkrC6lucjBSI+JWyB3wJ45jy98jtk1aUOL2ziJDQQ8CAapYRlPCEU4MTbVi7atXZECmKsfC6sVbjEGPj47PD47vTy7vbs9vb09Pbu8PD08vj69Pb08vby8vDw9PTw8PT08vT09PDw8Pb28PT49PT09vL28Pby8PL09vT2+Pb09vr29Pb26Pj09vD09PD0+PT49vD6+Ob29Pry9vT69uz27vr09PT29vLs8vg==",
					"4Y6RbcTQrKb96VBwigCIKTVcjz2ZQ0u+9XdjfnDHxEH7aUiiW/N1LR1z8BYkA4MrCKWPTXYYOqL02rhxJWQDq3Tl+iFDd9T1PjT11KyLVfNwD5SUdzBouf012olbNLhevrPka8bttEq58NP//YCDpnkTtQ9XeaNm0DQHEyjGN7A/pY/wqKkRias+9j/0tEBHm32g9HpdX8coeQ4QeD1TIpvrDnA0nQ3k1vhJ/OnvsJJfz/Fflk1VB5LAroMEFQc0LL3lvelGEuAAIvisoNZ0JnJRE2CmKXMPIFNV3v8MJvoiPkA/wyJiDWDrQqXXK27PALXFDv/MLuSoNFc12Q7ub5PVtIMS1m8MFFpqdAJw3Rg7HDUfRUbbop+p2GecAuxOM78yCgk75D70znqkT2UNYCUDVBMtNBnx7TEmDTo41u4CihQoJVe26Cja3md2/h1+jvb0+Pb08vbw+PT09vb29vD28Oz06vr29PT28Pbu8vTw9vD29PTs9Pj28vT28vb28O729PT09vbu9PT68vr27vT08PL29PL68vT08PTw9vb6+PD28vj49PLs9vT27Pjy9vb69vj08Pbw+PT08vTo+PQ==",
					"45Gs1FHmajQ1dXesftvyUqXBpjBM4oqPjyg+WT6QdAtcQeT76ob8f//xyWCGSr5Zv6eIMX3tYYs075QkCSlKqyCCGYZXR8YLlWkzDlTFMp9vC9Hrm/pC8HGqVm4oiFtCZWvK3rScdELmabjlKl/7f9nvwJ0ZqkaF+3XVRGnhJ5G10sefK/QpfHCUju17czuK8Nx0DUwAsgFNg/rSEOR3XSTpRMpHVOSF8f6YRMg1445Yr5Rv2sULN3YpqRD+P0Ni7LeZavsyGzqcHJ6pZXjRneF3wpdRKj1W5sqvREai0rAHZuQ6nJq4y85EjlJuPLuizA+zwEzmWqzJMvqDdDI5JbFxRSH1VowB+GZq7Et8xhBqpNxrRcMuQRDECCTHDvbmIrgP9q5gdhVZTYIu/mImah1nfFBReBL8iIYAQN4xcgwVidzgm9Swd8LExAyMnjt0NPTs9vT69vr28Pb09vby8PD69u7y9PT28PLy9PT69vD29PLw8PD09vT28vb28vjy9PT0+ur29Pb29Pj49vb29vT0+vL09vD09Pb09vD28PL07PT4+PT69Pr48Oz29vj0+Oj0+vj2+vD09Prw+Pj29vg==",
					"4TNLRN6+yxEe8DVuqa+EW/vQH3UiSFPYfqrLh5YSfwI8WzcSI5b+0FO1nPEXPaR7ZWz5Jnwox3z9b/GQGv2oVw8WIvFH8d9QcFs2a7mqvboGTXFSGlobG6IIqZmD8SfU2RVFqwTGHS88e4mlfbcw/lJgzc7Rnnex/Z92szabNSE83yY3/O9Y8gKUuiIZDUKynBWHKpzrfspCJw+vwy/AJA0/dByJsZ6K+UWZx3RS8GenUk5ljXF2t4OaOMHhjpWssls/l94eUPdmyB14OllX8w2h2S2PxVqs9mMxXO4hJu0LDLA6UkL275tx6FMj2BgenmAKe1rmzEKWTOO0uxyxoHgspSSgBVeCaHAzPw/sMbifxIJkOVoSjhbHVDI/Rt+HQrwuCLgad7unOCDdXYgoKQOsD1bDdCVDkg3ailsrWOqmBPvaooujUA/lZlXVpUQAAvT67vTw8vTw9Or29uz49PDm+vT29vT28vT09PT29PDy+vT27vj49Pb0+Pb28PL0+vL29Pj29PTs8vDy8PDw7Pb28PL0+PL28vT09vb2+Pj49Pb29vb08vT08Pbw8vT29vD67PT28Pb29Pj29vb2+vg==",
					"4krRkNpbDgXsN7nNv4LhaXzxchRIoqfk7Za9A5Yx3wr1EcOWhPBQc7wXLBlOphqbuyBGzcMi6E9UsAqSAhF3xd/pwSP4VqEpzH9L/wuTiAS9+Gc8MyDl1Oj5aPEuHzPD/o/wqU1sdOb4YC5WyEqc+Fk70ejeZ0pQyCRqjOmRAJetNRr2VD5/tZn4uYhyW1rTWyi5CLnyEllJA07Rcc41hdnjqqYshIwbSRBSv5o94Lfg0EFXSyZKd4SymBhzPdDPHuz4c03Xp7veps7py2n+1BByq8YvrL/Kys08GQUwE8/saBZiqGoyiVWm/PnHScRAFoOgSsE0GDxT5qQKvstEP+iMoPpqM++rHn2NxWGLDyHigUwq+56U7tgPsKYsgf5mkjaOJo8vdYEpyaBBMrBbYAJ0TKSguvQ1uMGeSkbA5Bhyf0CSQBewbuCebGfNq6BgTvT09vb28PT29Pb29PTw9vb29vb29vj09PD0+Ob09Pb09PT09PT08vTw8vb09vb07Oz28Oz27PL29vTs8vT09vDy9PLw9PTy9Pb09uzy8u749PT69vL08vL29PT69vr49PL2+Pb48vbs+Pj49vr0+Pg==",
					"4L+8hzEOrGtx8GSMAUOIODCYYo8h3kr3WPfca4jZmdIdBrY1GlnB3Q8ZGUfyBAjCIMSLkbsVO/fJIwzh5jxD8C8mqBJo0siBXHubFbONIWkAFknz51ODypGr3sKYaOJ3axOheBI9WukXi7x1FrKUBwbHC1nh6BJY7MPpFWPH+q1vbgvHgB2bzFCIUn82Xwb8dcpTETYvXdHApqy5WOvgw94ZQcITWqs9UrHykaqXezXrnJDulAliSauG7ygzBg5N2ssW5x8PG6Qrbfz1W1kEk98L2TQWOWk9GLy70JmVbCqwTVJSO+SgnZ80npDkXZol0RrEJp4sIaqXb8BlUhDMweRAVdEMtjMmJC0mjwaimaxad3NyHx4YDGbgzGlATzvCgXUyAhlhYiohjRU42X6Y0TKrzuWiCPM6N1wszP4QmH2YMqIMUwh5fXwCVSqdudElsvbu9Pb09Pj09PLq9vj28PD29Pb29vT09Pby9vT2+vL08vj29vrw8vT29PTy8PT09uz08PT09vr28Pb49vj29Pb08Pb07u7y9O769PTw9PTw9PD09PT28vT0+PT69Pb48Pju9Pj0+Pr0+Pj69vT28vQ==",
					"4HATe28+2Rbx6sv41KZkmie0oWWXfOptiFVRnzfgX8s6JDNETZEy7i1SuOJvuSoubprleJfW6Bfpj/FHs2OA5BF03vM+3D/9l2OpHR5VWKyxFOyrZZi8ay00pZ4KhSmjDV9DIWDk0v8mLAjJlscZIoSP+weAD/oUzzdx4Sc/UWbO0XL33cdskRfgVFPz+L7TwXJWm2fpB4S2FXRhbO/ci4CEOy3WJanhQ3jATmye7fsozu62bBMYGTSk1fnZnviFbD1q62R3IPL5qHrxQMzs2y3lVIHUynDLRvPRLapJp0BA61AeIINheBZ/yFzAi76a39DMPmAUL2jYsPAsOjL9sxvIwOIvG4LrRWSjmwVuRg1Cip3+Yt9OvjJdLbzQvkLDP4Jt5n6f0q4sCxtD9lBQo0MadUouS1MWUpocavxgXNWmkGBF71Dgehg65ZI6iH2mnvT0+PT28vT49PL29vj08vTy+vT29Pb28vL0+vT09vT29vb28PL29PL2+vby9vb28vT07vby9Oj08PT08O707PT29vT29Or29vr28PDy9PD29vby9vbw9vb09vrw+Pj69vb69vL0+vjy7vT29vbo+Pg==",
					"4Nb5QZBjL9cZDLN5WXymp3ywwKOFnrrNpy5OFyB4kFQfVGTdM2mCz5n3bnii6jfBypUXB9OJFHJ51rP7veqnpWlJa3fruaIfCtMah+PzURy7xlLWSENbtNFAODkLeCce65lJiS0iWibQ1/C2DDyJ8OK8r9AuoSruqpXOjiSyUxr/mcppLHZPFjnucguEnO6eyNZIi5Kr8c4mdVc1WKiuQS6CQYZB8MoSvpvBbvMezgCO5LN/N9yTz01NijoBO+FkWk0SyPjBBYHvTOXqF7yN+JFGTk4KdDGYmF7MZR4qIyOIIjAaUCkykqrAD+ZoQKEC19TnDzcDrySNDhRtEMeSd2s+XB1j2eE6jNgOSBX67vbtdsqXI2O+wLbrElaK8hzgpjHIjZoIZwhWhI89Nc3KtpQ88zqVawX9QiCf1mdyP5IIKL/ptGDDVGASDdsshU6bwPj0+PL69vT07vb08PT69PL2+PD29PD08PT2+Pb28vDw8Pb27Oze9PD48PT48PT09uzy9PLs7vb29vD08Pby8PT27vTy9Pb2+vT09Pj28PT09vTw9vb29Pb09PL29vb09vLs9PT0+PL0+Pj49vr48PA==",
					"4lwyfo2diHZ0DFgwPB0TeEEt2gMs0hcnZ2wUnAEeJGFLY65PEN4juGCz9x9S5QHHsrs2mObP7iqQvt2w11FuriAFSk+bE9tLEFoEjN6TGF/nKnnFt6K1XdtrKFXVI36gf1Bv15td8T+pT6GKmkb8XZm3DP2xCJ1BiC5TP92mseyJWQfWMkVw8fHrgBcMkJmhsTxXk+fU3eCt3hdIZju93gc9AZn4EqHJoP8RzbUyAui0QLZLJ+ak561+anV2K4F/6RzQPF5BZkyz+bAGE59NJThEQudEGn+mE/ZUoYRm3sXTag5YOnIu1YmQTxBmuvxkKeYrgtduQEYm4guIt4pxLdvYrkoU8BgFMrsjr8VI9zTGKIgeqqYSPDMaPv8VsHtJKkiVRGG+A0YgxbjLqIyPH36dai4g4fNsJKL8G2t7PZmWf2xLxLM0PUZSxo4/1a6qGPb28Pb29PT09vb09PT2+vT29PD09Pbs9PT28Pry9PD29Pb09vD09Prw8PLw9vT29PT0+PDy9vb09PD29vT69Pb29vT69PTw8PD09Pb08uj06Pb29PLo8vb09Pr29PL29vT29PL09PTs9u7y9uD09PQ==",
					"4JK3B9PQ9DjksCOAFG7j543xFfyAOSb4t/GSUq16hSFN7dTKcxDGbbYdVzHH9qa9rIJBBcsfqbOqBx2NgBKUsMR1UMZ1i0G/YHrCCRGOwWl8+PrezrQWzlHlAsRJ6m2IWUWYtIC796SvZIJ6nuZ2ZDSk3d5Xcs9BhGxZuPZdJSFigpEBKi29aY1LFJtdVdO6fTNpNsMK2p23XLXg6QZz6nFUff7TsV+tfQOGrrorXJ/eRGer0nRhnlLa21oLnPlDgL5oHtHZl8+8diu0Y+bg2XelA9pGtCgPKSrJu00HCRIe+uoXr/+qOmcVo8ShghrogMdyVk42o0jh4ztMVXp31jS3RrIgds6SPIku3fQcyGaOpme0rmBk0iuJs8xo4XJUalCCqBKuoBrm7kHofJ4ih9arZsKtjdWjK2ewkZhuleNkAXAl+GPaV1/UTuBANo/UKur08PDs8vT28O729PTy9uz68PT27vby9vT08Pb09PT0+Pbu8PT28vT0+Pb09PTw9vL09uj28Pb29Pj29vTy8Pb08vb07vb08vby9Pru9vL28PL29vb29vTu7vr4+PTu8vj09vb48vbs8vr29vL29Pg==",
					"4vGZrPFR7do0Cz273bYulgKrKf2AWsguQKs4wwPB5HFYhXqoC1zgTXc8MTzofNNGpClYm34gkwpokqlqYyDhX6QFY/8X8Clzuv3IRuCnsflcn7YAOeI0ZpMEHN25SLjTZBNZB/hEW0yacVwxdlt3Ie30felJCYvhA+BzqvlzpnPAXw7Fafhlxk267blcYNu35DBNO/MXkLFyWyJmMrK7J5puGBwV7C06n45mh7H0Q9AMqnqasLY9Wy3VVg/sDsoiD3DoPmDLTis3+A90mTqWiezH5HEKl2DjtwEKDY0qHdbUdgZ5UMgYm8DIlvA7Xj0COeihRENKJwUixNCuDoMVnBCc0FgFttAG1laa1qGiWluyxUUj/mlXJnwrHEJU1CN6o4+cjAdP5YQzv1h+BtERjCVvG+ZrxQqvku9wUA5lhi14uxpiYnQFjt9D9OlqiLB0vvD29Pj29vT09Pr0+Pb2+PT0+vr09vT08Pb29PT26PT07Pb09PTw9PL09vL0+PL08PT29vTy9vD28vD29vb46PTw8vb27vb0+vTy9Pbw+vT6+PL29PT29vb09PT08vb2+Pb08Pb29vT07PT6+Pb6+Pg==",
					"4WRXqWqBVxZxw19fGY6rtOEPTMAiH27Ew6vLpwGzqyP5SGCIJ4rwxO3ctIvznl27lr8oDOK8/gWxx/XgUg+tKbzElpewYZXwLYTnj4hbvFhJwcbB2ePCOb4KszH0zi3RN6VtiYaRTj2T5kttlCjcmSKJuE3p1gQwkGvLzBKc+OZXM5WHEABtpJXtokr/WKpS1jzEMg11V5WGGYb61mn2JN5j/CadXBV9aBs0UDbYPPjicP4K24CimPo5Cdro0c5QRDYQZTNfISuLtpPsibnN9fkr3HwRVNWbd98Ij6GIFTr6zLDK2Nz0oofeO1Kq4U4wEx31HhZ0ZA8nyzozu3BRCSymhARFP/xGEATcHoCpZAD+mIccsNYY4WgWyAny5vd0hRQNAV8PcUuo72EnM9APb50gitQCjFwgegwzZQqGIwFBco0f0iEM4E0qDQHY+UNtuvT69PLs8vT09PT09PL09Pb08vLy9Pb09vDs9PL09Pbw9vL29Pbs9PT48vru+vb08Pb29PT68Pb0+vT49Pby8Pb2+vTw8Pbs8PLu9vbs8vL09Pry+vTw+vTu+PL69vb29vb29PTy9Pj49Pjy8PD49vA==",
					"4IZVEp63QZKLsnKaFF0I24V1I+P7kdC5QZ096Mzw5MflEaa8sFSsRbGPC3R8xcjYe2Z2L5ltdpLISOz2G1c+KFi0t3zu6/lDheACWj8zt8RFHGalN5wQf89FThl3vyjam9ppV9gqgqIh2CzX9Z7dtgR2BpBU2a+JvG/u2ZNQ/HjOUkZG0ADbNPQ4Bn/J2Uf2wNeyZhQM5eWyy5KswhflApjH/fp3ZGKS9muSK28qFZwTW9W/HBqXyJK/HyY1oAUblEWqeof3ZpXkyLmWfwHHA2amE9NMU585LMPDZR9wgOAOz/8zsmpWboK86gwcBx400x5ttn9JQ5Fl7veS6CTAMBK3AkYMv7Ujv/A6w1C5WTuCqQIQAG/OOUjpSEysL28aMQI0HrS9Fek5yqYSICCRtLhIFs1c9MDwYhUfppOEANQSG4bGAWjOcEKFaU10obp06Pb29Pbw8vT29PL0+PT28vbu9Pb29PD09Pb28vT28PTw9Pbw9PL09vTu+PDw+vT28vT09Pr48PT29vT29Pb27vb29vb0+vby9PDy9Pb6+PL09vr2+vby+vj28vb28Pj0+vry8PT09vTw9vb29u709PQ==",
					"4BdG2RfgGPcsZbTZAecunA9KilO+t0StobNSDSH+rH+znmKuRVbPikRgi/+86XQ0w9vXcGkVJkl34uriThe+uBvdVzafVDQVrflk1M5QnVShR6LVef+LBgE+s/x6JxSSUigJ2YTbKvlkawI4LAS1RdIYiXPZdnQSPnJn9ZhM5C0ddyZy7nYIBgm90HbUbsXgiAyHBSo1/HBIs3A70YxrXEqhLf6lSsfHZBuSZL5vwg2qlJ3fQ2NLSSycV2QaHEtNKo5OSFbhSryrn0rrSjwZeDGVSy3SIR5RqbISHB4A+kH23AFFE1AcrIStuJaQbpK3aJZaeS5b8txmDVcNxew/VUFxqB7JTmY3gk7L2u/QxXM4MF3S/GiZzmwlfRyVGb1TFB26tUbUWu7vls7ePVI8JVZyr+aVUWqmzVjDLq+uJz5UXviOmGgVZLKsKPfqxn0lGvD6+vTy9PL2+vT49vb09Pb09vT09PL09PT29vb29vL0+Pb09Pr29vT09vT29vb09Pr68vL28Pbw9vTm+vb28PTk8uT08vb28PDu9u706PT09PTy8PT48PT4+PD09PL09PT29vT4+vb28vjo9PL29vg==",
					"4B4LKcoUT1xa5GN7wFcltlDAl3MnfrY7nzaOiwCvcethdc5Jl54Fm/Dufsnb/joP2RRRV2dr70wWDkxmG48ru1rfanK724hXabJyr8p6swgOyXrzzLbZD8MH8hyhwmn6/mCCCJVa87KZ75JLyHY/su94vSADROyHjzAkIH5aDjbIQKtHMPE6NTejw7hkRxAOga7cOErukPHhZ3ps4RiqRYncHW/v+miMhPbiLBfIC1yvj7ivJ1dgxfJB0YI6S/KlfyYj0Bl/1dA3wTk4JK0L5C1wnxjbYPrtMUK4PN9mONpbVc5fMRzmplKi1/clXFKizMTfr4oMEXVjry26KlwkooFinl+JN7SaHCwg2tqiaAvQh5qlRKrTvurM3YyIhH+LQ77uwII/a/BrySegfVCB8iUyTmxpEV+mwOOs8txU8NqIL0FZCdQ+zyHFRBxPrJy36PT69PT4+PT07vDw9vD08vb09vLw9vL29PTw9Pbs9Pj27vTw9vDs+u72+vT28Pb48PTs9Pby5Pb09uzu9Prw9O709O769vL28vD08PT28vT06PTw+PD28PL29Pjw6Pb25vT29Pr0+vTy9vT49PT29vQ==",
					"4C4uNfBHv26LG93FMvdC6KpdMYWwyiWYjapZhSqWYCX/4XyXahfVYhRerWzlQVuDHFZ3Q3dTGzhJ70VLrurK+y+o9I+jiuLsV67FCcm34NUmwO44Wh9VpLFsc3n1ZbLovdPOOyXdUfraMlNFJ4pq2ZQ4Fr3efvSqRAlXBbDXYHOidIxcKYoeZp8W4L/PlQKGaNT0mCoUxH6KlluDb5jdATa2ngUwNNRWJNNnomICjVu6ZdQ8OKXQwPdGCOZiZ0F7v/dPYBY3Fqq23Sho3WMGmVVNy9xrqgcoTX+kl+VrPt1XKZIegP0JbGkoPQ5oHDiKGV/42I/DxcEcLkPep14uXANEYoAqT8cu2wEDtHmjYLnKbD8KAF1FFGv57xw30FCe4qIdLsxuBep2eCrLLiEcaFEj1xV+ZvXyIG7wRzEo95dSHO5qXA8+FdpqWB3eUrq7ovT4+PD69vb09Pjy9vT29vT29PT09PD09Pjy7PLw9O749vr09vD29vb09vT29Pb09O708vb09Pb08vby+Pb69PD09PTw+Pb09PT68vDy8PL09vTq9Pb08uz08vj29vD09vL49PD29Pb29vT69Pb28PA==",
					"46WUyjc5cANR4KIXqExSFCvfMgi56cxYVgMl3SDXY2+OCe3KR/2ilmE7umkFYb+ZxOfo5ifKSXhmjfepYf4LYVX71e9O/lJpfD99Ow0UyJmWYtpjpWJEu7aGF6vJZqDZrvj0a3glzZS/QJ++v/pFnXIyj2rTaHB1mxTz28ieVS0za4Bxe08fJZVkPvC8FhIL2jfaGqITxfmiA20SO8EUmsaHd6ScGCF7EYTQEutL3QmVdQKuSWqBJGfT/n+SjKPvCfJn20BLsfQTjU0ZONuKlWCs7nZb0CbdIr/oYKuV6pgarh8EzymKtpATKEAxNdgcm0bwPCtiYRYWsHe+ZLbc3YhbBoDr/wi3rArW8jBChu40sxW1HUBIKYDEpFDbl0pZHXyXsC84cyJ/9KZh5zqkHJSIM6TK8YfeIKiGd4FPeLl/a0yJ+JQ2zTZiKkc9IoAxCPD09Pr29vb0+PT08vLw9Pj29PT27Pb29vb29vbw8PT67Pb29vb29PD29PT2+vb08Pb29vj49vb09PT68PLw9PD0+vDw7PT29vL28vLy7Pbo9Pjw8vDy9PTw9PTu9Pb28PT09vb0+vL69PT29PDw+PQ==",
					"4t5bt3ybuLyBMrdQNyM0VxBhYT9reUGPYsaL4lQyM5kKXVMLGMAPqtAGr74gbKQkLRhhuQ6XsSK6+EzmAZ0fQRiOCJzpySLa6t3L1rh2dO7oDp7T/yEshlwyi+fwWySjT+rcLVa4G+MrgstNWn433HugqPw/eWPTKEP/v+0neqC7et4RcpkwDnGAr6HcUA5VbsNzhNtwcdNka2EctOhzS0Ad1NtSfca+TpfOWuGClzZvHot/FpUUwimsMvCsMUZo2GXRYdFmQeraMuvb4XIVe7P/T4trtPkMYpUNUjflJi5jJIGZWE5uAkoarGcZm6MiUl3HafYbsp8pycBoh++aft7+uk5SNEtgcjp4fxchxDgACdUF2NBSLpjOl1/M8SDqgBUehd9fWhA/dBfLvvDism2gyijQVUEZwCqBIkg3JRdyBa1KO5CvrdgUOpsyEKmKGPb4+vT49vT09vD29Pju9vT08vT09PT09PL28vb29Pb29Pb09PLy7PT08vTy8vb09Pr07Oz0+u728vDw6vD09ur49vbu7PL2+vb29vDw9vT28PT28PL09vb49vr08PT28vby+vb09uz09Prs9vb0+Pg==",
					"4I3geizYzmVYDeOxTh9AyrF2bKJKHA2AD/ouTDF26MHUz79owmUpwK9g4JpN7Ak3kItlldfOCRgAaY6B2yAoIov58NNoU6wUqz/OP77FM/35oSVRJpJUG6liCCGX+XtKqzuCnUgrPdXUmikqr0eTo4OpWwgWTOVhKDikbiel9lscU+yaicISIub3J+f0gS0jeEateVy8uVK9ZY+T4H7V/E2OooElHlS4kThNg+YJJHbngWN2Q7ilihwIVqkD1YkM4V7RHduiVvVtHe54NhyPQOLs9JwVYm1jPv153TXbcxXamBieLoE33CjADJR1/5Yva6wtNRg7ZwBLBmVR1MaIgAhXyq07VHaSRj6d6aOCjrKLs0pmZ6YK8pGo8xtebdma9RZAgR3F3L6bXC7aT1zcAIzcKOPHwG2qRvD9tsyjjNWNLlIuflMrcLp3jL4EFodZrvT29Pb09Oz4+PT0+vTy9PD08PLy+vb28PL29Pbw9PL09PL29uj08vL08PT08vT29PL09Pby9O7w9Pr09PLs9Pbw9vT29Pb48vL29vbw9vrw9vj27PL49vbs9vb0+vb08vD0+vT29vL49Pb49vrs9Pg==",
					"4SthIVb5/ZMsXzl4qHRH0pcl177qaOw+k7kDLuXY7NnsqFcUQfwUWVsGVV79TVJFv5Z48mKNRXFpg8vH3DXTb72SlbM7ORPaSXR5FcHB2yB7pdvY1A1juCVfDwR/r7RC8rMJRSSge5texCPNWujjU3sATt+dVMWGBRjmZeZe7MLQpCwx1CHuwQ9C+mxhjvQ26wCrfJCBuZM/V9JaXqz33TnSEdmUlBBvhyYafGJ31OfVN149qCFmGDfu/RTjzVrZvtv/0e15GRXO2hoS6E2IVZ0vnjXKRUQmk7R0SWQMVFJd9zSMZYAP1DLN0aCQdl5fojvub2GPIx/wPWc1tRfhSyJKJSPrskKFQFTwSTJZnt7AQm/9mBQ8/sKIc6eShgA+6FTpykAUxLFIM/+oE4lhEDqOJTCF/vVmHDG92qAF2ZQH4IIGAKY/dq4oaZaESMko0PD08vL09vb08PL28vr29vT28PL08vbw9vL28Pb25Pb08vLs8vb27vTy9vT09PDw8vjw8vLw9PT06Pb28PT29PD29PT28PD09PT09vjw9vbw9PD69vb0+vb68vb2+vb2+vL69Pb09vD29vTq8PL0+PQ==",
					"4uyXLfY9UPdO37FsYgiQajQS+PAdPZozkPeFBzcavwRcz3FB3NkNXMTq+2OaJcXa7pwM8YCHmGG3f8S90niqYr2GCFZuCGnUxdS6wPZG9GEB7IPJi4UbTAUHyLOVX7FfgLXHkQnmilgauqMGtkfc0jyJvt1Y+2SpOIKK7tLw+4GmweLcch6Y8qPNWwhCQTY8bgmDd7hJMY+BTi8fNvangH1hJiXYCf68zKnzrRHyJesfEnyyrkPJ+B4fmycVm67TP33YjoYzZToRv3z7sN2QyGYFI0oOzs+ovL3B5yXbe5i2eT4wiiVjKiLeDKpRYAssFQcO/2IIFAWtVnb47sNhOrY9AgQgbZxAThgE7QrZRMdejwdUfQxkx4tjZMEJt/OWViKBWDpXPEcF8zRwEoM5n2pLgGz1l34iGkkVNlvJe8Et7gAMfnrjf/9AGbrsFhYPLPDw+Pr09vb29vb29vL48vL09PD29vj29PTy8PTw9vbw6vL2+vr28Pb0+Pb28Oz28PL09Oz29PD08O708Pb29Pb09Pby9PL49vTw9Pry8vb27PT69Pb08vb0+vb08Ozy9PT2+vj29vb09vj09vb09vQ==",
					"4FLFW7JrJq6/gE9l3Zmv1a2VT6+RnGJe6Utez6RrwLa6H+ywif4Xa3yhkvAqUOOZarv4SY4Pj05vVVqyl9KwCRCQm7QomR+I0IL40Vqw+tc6+2n0+sz8hQfgQWj9W6s3qMfSK6wfGTISDuZ4XwjQZtahXOd9KueTbEIqr0hLQHe55mnkkT+zHYQYpbflFalVXZj1Rb5NKME1A8s9XFGTcPjoTaPDarntt6zzIphgEMB83A7snGEThVVUUD8wA/XWzkj0QcprlAG9dN8MS7Y7VKn3zFXkafr+FtEDmNKB+b3ZML4z58i8LXZbrjd3SrxoBm9I915gTofnILpcLhKJC12cOizibOcCwp3bKo0zX1BA/bJmM1IQK6A0hm6Nx/vH6m+wgmrmG/NKbjNkVnhharQrdtuQREMtWvCrI9ivjFhm5IIB61V0GmMc9csRqEptlPb4+vL29vL09PL09PT2+Pj09PTy9vT29Or29vLw9vDw9vr08vD29u727vb29PLw+vbw9vbs9vj29Pju9vDy9u7w8Pb29vT28vb28Pr2+Pby+PL29vb69Pby+vT29Pbs9PL09PL07vr09PL09vTw9Pg==",
					"4gHXiPrFqfKzF/hWhHzcmbdNpD3o1jtqEXvQXIGAwmbZ6MISXieoG1cbJ6deshUz0l7Hw8JXal/amv9qCfkEPzCIJnygPVdjgSS225LnryxfhpQuokUrq5ClTqLB0JGRkYUYKkOBE1Ad5wkWku8sIncwD+ICBYLmhDBnVrqXJZi9tdXOeyaH57S1EihAMt7zzKzrAJU235kXMByiDnkm9Kgunao3NiDpYd/ysENsAifwtRrJftmTkSWOl5f7hPQI0IhhIHATMs39rQDXvZdaTodtsCyfx/ULiu4hZbhX6n4Jq9FJuI18jmJXYF63Ks5nujO1K7EV8ftHq0BVXw0dZWQK7sYKfU3yrk54S8hbOB6LjinujsYvZ0pcpndsqT/ISijE+Tp2Wjspheajls/tIxoYoKonkg4QwwKuesoYYIucvGOQ3Pm+7zGIJoYxZ/zeJPbw+vb09vT29Pb28vb28vLw8vT29Pb08Pby+vb28PT09vL08Pb08Oj08Pbw9vL29vb29vb28vb07vj29urs7PT2+PT28uT09vb09vT05PT29uz08PLw8vTy8PLk9vb28Pb29vry+PL2+vr29vL09Pg==",
					"428lI2f1qFBNkDrDLNHD1zjk3ry6OfUxl/I6r5HbGuNt7VQsjDqeKwQtYXgo/ULbPwdDalvNWTV3pv2mBJ7MMYQ1/VGRfDnkvzqyFzH4BLYlDTyR+BzXhSPXXCDBow/XiDRG32Cc9XMqHcvMmrpQ86HAGIwqxrgDeje7CYR9teifKYexpnOQoLVCd+yFljaF4d5zScBhj5pvPWK5qdIgboLKRy+iI31KzfIj76jOrpO6Kv6tG9DqpuyXJilGXoRGr/glonTc1YRDPtGQktS94/4cBz+MKIcUMGcLHDc3lrK7xipe8SVeMSdq+Mj/xAbjT25E3YSkDlcCfvDmrqvcRH5MaLMiHk9lxjOvRJRXuWkxxJdFEjXxBCUzJteYnrpi/lRMniCltI56aBw656aAICT21SK9KDIyjwdBziu3Y3ZnRJzqKv1OkQz+TPEME9O65Pb0+vb09vb28vLy+vT27vD09PD09Pr29vTw+uz28Pj29Pb28vb29Pb08u729Pbw+PT25u729vb09u728vj09PDu9vr08vb48Pb2+vb29PT0+vDw9vLw9Pb09vT28vT29PL0+vbu9PD0+vb69Pj27vQ==",
					"4PUYVHzyz6BpF4yLT9l70bpcIvbZVqDnmxj32uYQq8/Zuq83pSXWBk+SWy2n8FEmJew+dNWeWCF9QDhv84Nl7efj5vj6C+1+hf1asmGTbsEFIVJqRd9yCc0hYqy4w4eE3zcjqpdnbUlZUE5Z3Cvs+44vPzP8+T1auc4ljt34ce+3c3nbz4gf2vAPD9Z0etL9uR6QnXmEnXEeNo8e5vR8SYTisZZ8mC9TM7dS87b8F0IyOz9BPNMTBGkm4Cy1DSB6DOmLa7ZDtHT1Jn1C2lc/ORjdkZFTeV74sln99Bg58A8c2W0B1a8SchpktOAvkra1LG4tyw3XVVJiyAwZ6/fqF/5ySmg6a8SM5nROp7xJOyCgUCYXHhIzbPkejjs71r6MeB9ebja4mdhOZLfQFhBEHcxT0QdnyBr89MYVq6yT9Uz1EQwaJRbvCBG2QOKP/tRjjPb28uz08PD09vb09Pb09uz29Pbw9vT08vTu+vL29PTs8Pby9Pb29Pb06PL28Pr29vT08vT28vb29PD49Pb29vb69vT09vL0+Pb29vL28vDu9Oj29Pb28vb09Pby9PL67vT4+Pbw9vL4+PT49vDs9vQ==",
					"4Jg9YsUhaGWcaTWnoexCm2Kf9cI1MCabTiPpontoMBcezDyACe3qa/9Rb/hXWDtNuJ/yZATwKcQ8cLSrrQi3qa+rFud6apNGqOZcvGre5YN0irAFA4ZqfbdB/3LSqGiMo2wOQcG6q3guLPJCnE8Q4DgVZWuMZIqfpX5oNH9FmB8ohvqHUJ663HrL16vVMiVVcLk/MEgiUVphLJQLjYtfHZ1rfNa4LWSevbXpuPvPaCwI19rXETXUDxgRbazGj1VCn+K+jWctWWDFKUAIrtNWuat+jO5RpKZOru+C78edp57WcoAmXfM2K5AA2EKuemD+cJLX81H+P5nDWvlcQrBYUvCtT55uj5wtxyhcCwIPilMilgnAxxO6djIwD5alIBxp4BGKEnNnEMtR7hA/+/9wesoaoizYKN6zG0ov6iifGWOujEpTrsb/KWt3mxR/SwpwAPL28O7w9vTy+Pb09vLy8PD08PLy8PD09vD29Pjy8vT29vDs6PTy9Pby+PTw7vT29Pb29vT07PLy9vj28Pj2+PT05PT09vb09PT0+vT27Ozw9vb2+PT09vD09vbs9Pb69vTw9PL08Pby9vb2+PD29vg==",
					"4J8nzCgG4bn/MYnTkPayO80syuxJnf30NIaKyXJbcHOSI0AbcIuUr1QOFxAAn/nu+Tf0S3l6Ek1Iot1bcMD6npqxRegeK8SxKd+tMICpZm4vn+5mF94674QtwlYFFKSPqVQiUqqR7ifvtMCs/YtN4uktWYfa8+nKHgLqekKmN32hsqpAISGclCelGrf8RZa7fVu2efHg4F8DQprsCpPW6JDSWUagXv7Mw4NIZGz0xS7miVSJGZD8BBnbPKd4E7LWBxGgUPGIZKPQpGUuLOK4wUImaQX/1hEBxgrTws+uiIrAWt1KUno0UBLFhtOAnFsojvyqZX4Yf3j/nI+0B9AesB4kky6wGwhbBh3YEB0mWgZcXg0iuYr/qHoAcpVHRtuJBhamBmzkSts2uDxn43R+Sb9AAe8PEKIkAMbxyWLEfGlgWFRYRtMoU1SGzTymoU2h5vr09vb08vT29vDy8vD28vLs9vT07Pb08PL49PDy8Oz28vLw8Ozw9Pb09Oz69vT08vr29vb09Pb69Pb29Pb29PT09vb29vbw9vb2+vL2+PDw9vb29Pb29vr28vTs9PT09Pr6+Pb29vb09Pb09PTw+Pg==",
					"4h3vv/H4NeH8P44MpFjqAHMleNwfK1T60VtDhJ+7GUa4XXE39gqxMBzze2GI9E09VNNNDQb5ad56QyZh+hNmtNDJMzYPU0NbGByBD5iIYkNLxQpxHrmvvUbNl/A2Pc1qG7YX9SmvOGpZumEmCIEHu5zccDD+2k7KZXWq1RRM6uUSCsJfq0YhN7DN3pVANUzMMNEBApB0yCDn5oPPkgdD9nB4Q2DJXL3TMmLoHWUUoBh0uIxkmlYu6TekfhKwQUMugupO1Lwj0b142vYYyGU8gIqBLWFx4A2fz83FUWTGYH5gUokmWlIw1XKk559RIjEi2g2cwTYj0zJtElzEBoyY0CZnFBpWZS758LFduawpZ11q/VBp5KWael6YJ5okVzaXjEyCTBKRpdzqIFKUdv1KXqCU6cSVLjxnTavswBUs5N/joRE64kWqXegqjH0oUF8NGu70+vb29vbe6PT09vby9PD09Pjy8O7w7u7s+Oz29PT49Pb09Pb08PD29Pb09Pby9PD09PD09vT09vDw9vbs9u7w8Pb49vT09vbw8PTy8Pbw+Or2+Pbw9vD09Pr68Pj46vb69vTy9Pb29Ojy+vr07Pg==",
					"4jhMIq8j8tkKpa9a7pelekaK6Q6hQ03e2QP+IPZqFKDbzRPjQr55U+8v3BQNB6N7S7T2/b4blZ01j6N7PsR5yaIGOiuSLs/Hjw8l49b9kUQ39gAsF5qiF7TewsZq+gAzvY8GXlUI0KEgH+2dn/MbuD8RflK9Ho+imGOSWyCjNuRWTkZHuhlLe4vgtbPCXyxa7rkUP2ZzFnTbsAfjhyY/R7D8PzUNsc7BNjOC7wjLOhqLXsA5MsE4pB+wYZoIDQ9OnE88UjWbkvASaCK/+id7rEkneqk2LHO30tnn+1MifP18FFbH6FopssTrVio3eJChrdkfxn5LlCePU/aDMt37FkPpZqdHhtW4m7NQGBJYMv4STAkAar+gIQGBGrDMDKic8Gi4kNQRnKQxCDCelj9N+K52E95vb0A6Nob0lDQGoZjoDbfrDOROBrwSjScGkIpKuuz08PD49Pbs9PT09vb49vb29Pb29vb29Pbs9vLy9Pb08Oru9vT28vT08Pr47PT29vD4+PDy8vj2+Pb29Pr09vbu9PTy9ujw9vL6+PT27PL09PD29PLy+Pb09u74+Pbw8PTw8vb09vr2+vL29vT49vQ==",
					"45GwQG7PjKhKKXAUNkCLszhdVHt94+Pe7F1XLanQKM3e6JOZHehT8AYbVxx7g4Cx3bj404DQB1PSlmndXXCq+NhwXY59KsNb246SeunSK9z9F3dcqYpN+QPvsAuN1bsOPeEqk1EJlT9Sh2uSjR2P5Nf6doUqrluGM0bF97MwXapFENz3I58ET5K2HSxEPwm5Hs/FeWsLGtqQlgVbJDnebagCgE8O14seag6MSwiZJ9uKebEqQk816wG2Wl/F3ENx4lPf0m4SN2LkJHPobW5SzfEkwosItpOs19QyS/YWfoLlNmIiJoZ/HubsiIbod6DfJjwkFsh12Esf/8r8YLRrs3odnqyPKYdhCG4eQAxJikwVz476Ayqrt+rkYj4oZE/usIJs88BCR4wAcS5O0BHNuxMIBz7P76aYqewCqHkEetHjODyFpZ0IiHYWwTTWN5iAPPr29vL08vT08PT48PTw8vb0+Pj09vT69PL29Pr28vby9Pb09PD28vDw8Pb29vL2+PD04vb07vbw6PLw9vTw8vb69Ozw9O7w+Pb09vT49vb29PL08vT09uj29vb69vjw8vb4+Oj4+Pb28PTw+vT0+vQ==",
					"4XFwkwlNr3DFE3lrYcPlxYMc2UlQoagNC5qskvYNN2UTSLRjcJwiCQiSlieo8CrNAoE0a834OS+ExYgUTQlzEJuXGhcF/C7QMK2ShSgMhDrvQiuyn4jf+KztVZzfc2VZIDaVP15tTqMEVKlyN6h4zD8my8EVM7XQxWybwf0npuofJST7pKdfWTyifqVvPqzC9Okw6tXEaDOY48y8/zirnNykPmygiXxsTnRQf1Zi19AL9h8zQy201en/v2nTeSyAEVrafDIh5dXXIk2C/aHn0i5XJJPR12ldmHR1mDRmheORxeDRdaz/OT4kkdZwOqCCNPcMH1D+SuuTinUT3K244AHUIo00OsE1HcyQMk1SXIjRj7aoBKUVFWoKR3rv0jpIfdR7x2RA6w4j2xI6F17GnX4OCHA078itPCxRdhL3C7VKlHEQQt3c+CTQfRkQ/WN9ivb2+vb29vTy9Pr09vb05vD28PD28uz29PT08vLu9Pr27PT29vb29vj68PT09vb27Pby9Pr49vL09PDy8Oj08vj09Oj09vTw9u708vb28vTs9vb28vr08vb6+Pb28Pb0+O76+Pbu8vT29PL2+vb09Pg==",
					"4gg1XR2bRlVB+7ux40rh0krJnG/+GW4Buma1sf3ThRsbLreW0S7Br/3484ybojNgrX+ZK0F2NNYFEsyz1QRYc/IXZ6v9cnIQ94S+Ht0tURDoa6Jvdev5j6rfIXvIbxTWawdA/b/7BVmi4HRWhr2NZFELeDd7u3gghkdL1WIOEfti7imiWRo+Zqv4l+sXMgKhoPZpIPYVsxEGv/ISQMCx6Eg7tN+dxK3YeDlVKSwGoP05xsKHdmz2hbaPfU76r4kB39k24AEgtq48Kzqyw0i1akXKl28SuzkcfRIuva56M6KghQmwNG9WN1wr6EO7iLmqEDwGI4IqQwSK2EDqdaoFSDw9OveJIp+oe3uGDzriP0dfGPmyH5C+8/QD3Fdjw7DuxgdF+lBrug4ExEleh0f5iEfThh4q3P5bPySUL7HQ3iErd2Vdi7poavHoBSAKhz+ntPT49Pr29vTo7Oz07PDy9PT08Pbw8PLy8vb69Pb28vb2+vL08Pbu9Pry8vLy9uz29PT28vby7PDy7vb29PDw+O707Pb0+vb09Pr68PLw9vT08O7u+vD49PT09Prw+Pj29PT09vT07vbu9PDu9PT28vA==",
					"4KEHydef8NX6NtaY6puuNgO5qa8ihFl95f/hgA99cq1G6JBnldhoyfLHLtgcYsuETSQy7tlUL+huIo7/xQuKcqsgcijaHAYCwcW9Sy2W895+U8URIGoTA80ochH+J1KFl1sXuBUNrt/B01ZZPE43BqTeT7FbSEvmBaN9hxJRV/R9fwJXUqSWBvu+mlfeJr+vdfIH6g8Evnw4Cyeyx4JKH+8WNVRPDoY6E3EWjXMTC4bNdL5b7czyk79yQgBBimN+JkQypq0jp7/sNpaJCiNyADz8um9qfX0uO2vbohVhEnmyljxISCKyopEMz/w7XLlMwtWcoCq8YeAcc+ivVTxsVQhgRUa0udCqjjs/yvlaDKws7P0SyKZorJgrAc9lyaB+b4zaCYIeFm+DZm5Cmp8gskDNbj+nYlCegKrTo7ilpzy+bGMGr6KSRKQaP7vZli/ACPT2+vT49Pby9vT09vb29vr06PT68Pb29vb09vb0+PDm9vr08vT29PTw9Ozy9vT29vb29vTw9vj28PL28vTy9uz29PT29PTy8Pb08PL29Pj25vb09PTy9vb29PD09Pb29PT08PTs9PT49Pby9Pr29vQ==",
					"48LFL1Hmw94XNzkuQbcDMKV/qx2l8mDeibGM702BB7gqecDd9WmUxEfhs1Lw3XcTumiHD6m/ncDU/suEgzpJokih/kbvbrcsqN3q1f3lbnlcCbRhah4WFPGREuDhIsQ5qnB0RBU+SjJ6v6txVASUEu0BkFt9U+S5s6cw1VVRcAFoS3rXkHEOnzEZxF/GIat/wU8oe/3PzOPDPfasV27O6c+wpjzaBT7CdZaSS63Z13Wp538zPa0zx92Pwzie7KVDYRebRN39vjCbuWRtE2CwGoMY7E3G5W0QmsNm/ww/xvq5iN0FPG605OiPADSa0ybfFD2nRxLG+qUfBfSAnFBl2OYMD9XyVUfF0l2rmmQ+Kxz6nGCzuonBPE6sQUiaF6EU2IosNiNa304tnWOIntKL9p8oWcaqJPAa9p1YBHpokjx89ixEc8Lm7i5POJAeKnqoivb67vb49Prw9Pby+Pby7PD49Pb08vT29vLy+PT67vb09Pro9vb08PL29PD09Pby9vD29vT28vb09PD28vDq8vr69vT09PT28vj29vj28Pb29vr28PT0+vD29vb49Pj4+vb08vT29Pb29Pb69PT08Pg==",
					"4AGt6YEX47PYACmy1rnNRilHr2Kz/hpOfS1Qx525IXlVJTWlJDYG0u8REYxQHaOvTk29ZkA49zG6aw370Wun31kRO79MjMQUuqk6lVUsTZ/ZsGAW5rPStXh7ac7bPp2ewjTZNELT3Qyol8NIHqvLZJaeoWXiqK3bgHgpwkNknDTqjW+3O52mpM3Dwx90PfVPMDl+8YrlONFAzCIFk5YVU66ELL/4FCZF+Fvzp1nqa4XFPtRZQ5ajq/s5YcsplCbSegOAY7CSrRUKwhIjdzc84+/LX2ZadH/hzrmRmOrp7J10EFHcPzdxk603iW7u2PzujrLL0y6iQUzOzIdrplD3Z2X2PLQnNDuLJA6CAZo4/C46JHq+/4TcShYk/e7VboWlhRZsF0osac5/OACCDIEJNHfojXgSi2etcQFiHx6hLRN9ZAyjLUacuQeGS+Mpbv+Mvvj29u728PTs9PT67vT69vb29vD09PLs+uzy9vT08vbw6vT0+vD29vT49PTy9vro8Or28PLw9Prw9PDw8Pb09PDs8Pj28vj09ur6+vb09vL28Pj4+PT09vT49vb29PT28uz69Pb28Pj49Pjy7vbs9vg==",
					"4xdyRUctfvCTRBYq6mLpb94iSWiF4gGh3R1/D97GhD34Xb0Os6c4gzawo91wNG1BhyGu0XtE09BGOvJDlF5mBWUPA4nDg+PDNKbYfdup9c6MoO/Z6lBhG6r+gZsdEXKUDTXvI+0P3eJ4yLMtOfQcPlE0Kejiy0LvJFD3PvxLacLg4muDDxNeG3WcaD3Itf8AMThsLufHslzCVHZ57V3MD3UHKOm6kQn8G9GhlXvsK8kwa+sTQ68QhuWQGDAA0q/MLHm3jOp/EpawykbNQAHr0XNWmLFg/9WZDpkwd2qzLgpupAlF5AMTd2lcF+Wv+r4AIiTNkFyD7HOeqSpTp+Yjk7JS1VJyELGTqBFTX2UerYoWcP4hxpI1g3Pk+IFp6ioMu8uHbad6a4BIQVUYXZLUi0eNV5H/woDHUChx3NeRM4powjMGIQgYQ5kPy4Zh7JKr+vDw+vD46PLy9Pj29vb29Pjw9vb29PD29vb29O7y8vbw9PLy8O709PLy8PTy9O709PL28PT09vby8vTy9vb09vT08vLo9PL28Pr29vj28vL29vTw9vL29vb09vb29Pb08vru9vT2+vL29PT29PD69vQ==",
					"4Ma28AbQaNQXMWMWuFlzG31Lu05AuN/9DZ2FC4kwHIt6d9oavscdhGOZi3VuUJ4ieznf8WyUAmY/U1qPR5mHyofz/UjqC45/rMHzMbI/zce6BWPz6iZ6NRZgb4qKjIJgR/vF17Vrc0xFcagCCeAoc4TPjPjz7P4IKB4k2FzIawQTRLXpnaiwwwuWeWFbr0w9MVzc3hjgeuzyGFr/VltECHmOijTu9J2l7W0TqpGL+uSE63a1ywtAkAVvlIS7+xZq21fAncbN9tPY2vFzc3BgFEDA7uZ7aveTilmueDzcBX8B7PO5+ujSDpFezm/FnjbF+LLKnF/O9BWg4cQSoCEaGNAOEHSMTznt8JJj01i1RhcntfaNO4EDo+yJZM6ctthNzqzPsQqtm7gjBsZEKAry2Gp0tKEW23Ahxzy+AQoflnsYrHYrGAAy4phLGnYXTHSL1vT47vTy8vTu9PTw9PT09vL07PD09Pb08vLw9vT09vD0+vD69vL09vT49vTy9PTy8vD29uro9Pbw+PT29Pj29PL2+uzw6u7y+vDq9PT69vT28vTs9vb08vb29vTs+vD09Pj48vT4+PL2+vb29vL2+PQ==",
					"4bGxQ3VWJh3bv1rt+IzkOrYbIzwVykfEU8IfiJATqa5feAfd5xoO9gu+ZDrlnDU6tJAf/TWo3a1NFa/hZI+69fAx2mc9jV09yL0RCRlcKATG4XzumUw95TBH1C87bGCtti4dXY373VGWiROhuVgdzVCDc4PdoF6V59tj9yGccFjofTvB6IC64dqAe3vMe2yHQgAoBBmtfNnlhge6vc/of5BBHVDvynqtdc2zV/4xQuflpX7fP6ndT2+Q2LCjgPuhHx0F+7A1MkkjYSsTUiFlWUyoYqQ3bMerRLqO3/33ks2lrVLef9jwOuuij6YHXc/X/tNyWxHIjY45QORD12D2KWSDTBIz2jV3+eCuS8i1bGC5PDS8sz9zxzAnmGCpnTZ3GkNMeRLNKZeS+IPvtvGGNSaH3qdjGlS73fk6pvyuMFjJUxuSOyNMBqzse1cS66b4vPT08vT09Pr09vbw+O708u729Pby9vby9vT2+vLy9Pb2+Nz28vD29vL0+PT08vT29Pb48vDs9Pb09PL0+vb25vby8Pj09PTy8vLu9PT29O728PL29vb0+PLy9Pby9vb49Pr29vb29Pjw+Pbw8Pbu9PQ==",
					"4T/5+UiW8k8TrNttc+9SRbV4ns40XKBA6e5WSOzUw7nKSDdzuy+nJC+xxcDdzPgoHluoZLAQwJYQIDbl/ZI+C64n+XQelOYaLwcGjBNOFjbi9ps2HHeSdtZIi54/oyFoXyPU4FfS7OpQwVxPm6R1nIZ6oKvxkQMLr7KncPKFsC9Quln/6k6cbq9bjAM3erg9PqF5+hZtvzEeTkZmuLLIHbbcFJyEbvymyqEsFwPg4B1weSqFMCCdQXBvteDVM69Zu8alP2Mac2FM8P/z/YAqeNn6uQTK0RTLCBULpVdFDf8VbBw+39A8p14GpAMe7sFyO1guwgCuMUk+EIlFblFRulJOIcavNLo6cvw6WHcoSELkNpQ+gVwAsHYSpl+BQhWIUUf0DxAlnF5TtswdFtPntqgkalioyAZWEhfPFNGqBI/XzsMcOb/7BHUkre4KiUOa8vL69vD09vTw9Pb48Pb0+vb29PT09vLw8PL28PLy9vTy9Pb07Oz08Pb09vT09vr69PT29ur0+Pj28PT09vT29Pr09vb0+PTu9PT27Prw9uzu+PT28Pby9vD29Pby+vL49PL09vb29PT49PT27vb49ug==",
					"4NyVYbCCPGdsXrKqwWzQJXNTz4pyOKwKhPRTjTklh2q2pCpxfkNcdN3RaVBmsaSDgnRd4ioRLMAfQKweSpOlzkeJqaUMU2jSAgdRmOGDzHSkPepiWBaiUwukQVk4DNGehVDjxxps8wk/h/IJZuj38bzcq2Waog62D3J0rSLxqSLswK5WRjoreYVhrQRSg+py9nKMoyQLVhVu6zmYzsau16G9DEs7GO/oZWn7j0VGrNcEYYHr7FGs7zkca45VaNzhYzvBUXbUPIyQ8Imk+gvjrZE6gj6l4IuNghKbLBuiwHYPaGea4DXhVAwUV2G9wVJTVsZik6a7y9BQFXK3LgAMHU55k4SE7nk6GiZDW11Mb0GKnhyhivlOlN04I/CBYg2SwpznKSxGKlZeCB4aRylLys9e611XxFP+KN6CJuC0AqyORV/MFp8OYJ0Hq/yR7+41Ivb29vD08vT69vb09vb29Pb29PD09vTy+Pr09PTw9Pb49vb09vTy9vLw9PDw9Pj08vT28PT28PDy9vbw9vT09vb09PTw9u708vb09PT0+PTw8vby9Pb69vb09PD09Pb09Pb48vjw9vb27PT2+PDw9PA==",
					"4Atl3O8r7LN3L6TQMvvbCKD5QEZAyYPvubxgCWi9jNJhR8vyyLQ8GVUgLh8TC9YD7Ph8um6mlLRPxxue/ysmElu2kGczExqlbk0QzbKWu34ZED//4IMDprFnBaggYp5z+bjKD62aMgZ0220P+9bNkJSE+74HmBzjbdIdsS9ovl8xGtw87Gp9MtSm/Fs8bNq3cWOzaDhXOJpRro3SdrAQZrSnSBGVWLg9tASL+/xBAUqJ+vzpwcP8cHsvPBLHC3xjZ86odmmUOH2tSE7kX8Vj//OVGkU2qjqHhFcfEaAgSWmyOqzwQq7l0LpyEiZaQ5lsFPRhn00htKrqu7CFXcI+7EQzZHZ/icogWWsFNBIPN/GNEGI2SMDo4Xv6AILf3l1T5kyo48/usvLgVjqPmJPzACeFSMa1dp9P0X5PV4S5r+GQbkdqv5EuBJ+NNzcwQhl+iuj09Pj28Pb09vDs9vTy+vD0+PT09vL49PLw8vT09vT29vTy7PD08PD29PT08Pb07PT07PD69Pbw9vb67uzw9OD09Pjw8PT09Pb09Pb28vD69vL49vD07PT29PTy+Pb08vr09PT0+vbw9Pj09vb29vQ==",
					"46Y5g1SUYsVGciILGe9yKVDdpICquy8z6/K6QwqlIcHlVkjKx43nCjQlzYsz4EEHNp1seF+SNWVdRKVYLZNvPZUJvRxr47Q+vEvpnxTnt+sDKWWVioNvm4joc0i4uSTnDOr45qAvB/FbDpBHzloIWfhnAfKymcjBFtQ1naikm7EkMHS9PN9q327LKEZTeiZ8klR/EHbtZKwgLoNE8vBWnzet3gRv2qSyOB5yV7+pkps9HkIDW2+1QdHjlJMIru0G5qh3Z0MjM3AUxgoKOWImHd4ZXRs+C59f97GTz0rE26UONbObTxcdeQHiLtrTaJpTeja8dhqeetHTSCgwW2fzmjF+wtkOkI9oPCrajqSO5d48uiwByf68XBc2zjy8tuMCbhAkHgVZr4YcQBHnKBVutW2DsFysMZ6iaHc7lAkdOoMA7HejMAa3rNJrW5AFrA5bUPb29PT29vb28vT29vbu8Pb08vbw7vT28Pb4+vjy9vL09vLo8vT47vL27PT27Oz07vT07vby9vTy9Pb09vj28PT0+Pj08vbw9vT09vL09PL09PL29vT29vT07vL69vDy9ujy9PL49vT07PT2+vb69vQ==",
					"4JBCW0Clx/+UcW7Nho9MXDG0tmpY7T93eU9dixk+ksTFXDxvCR6sI6G536RjFkicsSRU4gZ1S0ClCXnWmcvCaEj6NnSMOmK/ql5CBp0C4k6i/nBeYIMZtVlDrBk/Hq7dxwJ+1fosIW8pJ4SYD7u7bMIB/odqUGbYB7ihDFZteb2bCejy9R80P45IYbpRLZBAgsZYby36iBrlm3CbKcoT5FV3S1u53ZqTnBMEpudiKZ1OQq2nw0yBNlz0vZAZQRmq3qcgabkgC9Qe8uwe9QDfcBfoUxxExK8eEVVtPgmXVRq9snryhMesKG9PoSbabpmej6RUytnEzaCY+C7jjibmPIaolUr6BdeOQLaaNH8sTbvDR99wBr7GNmFm5757VW4it98ZqpztuAdecnCx9/agiN/nmnPyKe6CZBiXBdzaIKDB+BRG99neSZasn8IQKBFDxPTy9PD49vb09PT09Pb09vT09PTy9vr28Pb09Pb09vb09vD28vby7uL29vb09vb09vTy8Pr29Pb09PDw9vb29vLw9vbs9PL28PT27vb26PL28vT29Pb29vD49vb29vT49vL49PD08vT29vjw9vT69PA==",
					"4lrqqNbHa/dfrMoe5Qvt+xhT20tXuB+TtAM0PvcirHrmhIzS9z4i1GCmH5Y7bSjxIX5EnCjo1vmywiEZx739qaZLiyY86XtDGUuc+nVNOjUbh6UmCQJzuol6DpKASt4AygC6Z3ZJjM9jVDIDySNCTuXomfnYq1zVGFIsYP6ZfUzqZyiGsocJQacL+jK1grIZdsURzZDUgs8sc+LzB1Og3hqzT7RI3AHItOfsF7eKSqLsID2lP5WeJD8JbRmGh8zjHpGrmjOXSfFbGRAhvAuwn+F/9G76aNBmgfyPtKoasaP71UrEsiJ0vKtgozAdoDQHrT+dbNQSr3cn7D79SrgY3aS/zHZuKpWVNOACVveVFwEGi8YePg1p938w7+esSZmnzCfrGmCOPzxNHLriDt5Q1BhIPCsDxRMaJsXLZCkj9B5YEL9kluRHroH0V3KYHnqpovb08vby8Pb69vby+vb49uzy9PT0+PD29vL49vjy+PDw9Pb09vTw9vL09u709vTy9PDw9Pb09PTs8Pb09vb29Oz07Pby+Oz29PL29PT29vro9Pb49PL49PTs9vL09O729vT29vj2+PDw9Pjs+vr29vA==",
					"4wruwgyamKWLa2ipBHr9EBQN+T7s44QLmIh4NpSCIQYQzlSANg4Y6ZuHfUs42pvYxvb65FXS5fJ1vdptG2xK0FAkHDWTwM2n8Tb44pi/eYIl/KnKQDmfichalTFplOKcB9j5fUGD3QYZiU3ficIPObZMY+Okp1bSWcO6fwC88CwHco4UtOWazfuwwdntaGD85GtIFB0fYVm6FQkKItirbaoGvF0WCjfh8tmT61P6sA3pdNsbrSmVz1OEl48HoRHtVlqZ6poocA1e4//2M3FocBgZxO9lgeMT8Kpi7ABT6a6qCkqfyM1s+Z4IbAlVbj2FsW4DxFIvIml9P6cuTYi463DPRA0OMOS8+zwZenqYXpHeyBrCF1lHfIJ67ai6fkJi2IZ7nuw2AjSBEnbTJNTtM28gDBo8TowZOuB6FlTEQxD6A5GVxn7qKDJPuLYoqQfhoPby9vb69vT09vr09vT08PT29vT69Ozy9Pb09vbw9Pbw9vb09vT09u709PDy8vb26PL69urw9Pbw9PDq9Pbw8uz69Pb29vTw8vT08PL49vT29vD49Pr2+vb29vb29Pjy+vbo9PT29Pb69O769vL09Pg==",
					"4mnfJYEdDdKtVCFTU59pZThMOBs74FDPBhIz5Wp91OQ9Le/NpWxYux/SbCFaH5REqp/qXmso3hzVA3t0Ay/xP4tjxQEzbwAL91CWUterZGlUmP26Z9jPiYrc7VRzL1BG1lp/q0K0L7IJqv/ydT3kZrYsvRRdSqpSPtvXWZX5RZVSF/vhd8yAHRzsQgikS7FYwbHz0OGcaGvM8D6RexigMxHZyfLlibBW3RLjCX3HWYsjZASIptzYoPU3H1ZhOXj5V/AGmg3tU+CH9dRQcDHsCsyRaZWoDaybgzfFVA1U3BG7iFrkCjkUhG4bKxHFC9GXsK1CxM0itYs7IytKikQtw6EDipV2Y4xrxKl8H5fRfrwKxjDytfPOclug6oJWZPVLeTzMdZ1HkK+iSEez2mCGGbUVpRi05hUgUYhdZLqul2GPv1JonscWOlry7dYuehCO0uT69PT29vb28PD09vL29Pb27u7s9vby9PT29Pb09vD2+O709u7q+vT49PTw9Pby+vb25vT29PTy9Pb29Pb28vL08Pr09Oz09PD08vTy9vT28PL49PT0+vT4+vD28Pb28PTu9PTw9vDw8vb69Pby+vQ==",
					"43jKv/Kdg4lTPEg4pingPpMS7bfLz5rhKi/Jv/PlJ26BcFZcuKSPjTIU2gZ7plnSaEQVCJbZ/IS/VO33ScojoYhyXuwSMBtxrsMPNFfuAtyS4kE+hOu6MgciaEvpKxGX3IkNRUWt+vuHV3UqV9Pwob44RIBpJo0vdiNioaEwvXDJJNDNb0vaAOT82GgRTP86esprrJCo/8+ORzjSrOeAS+tpnOqk/cc3/pWwf2Tase8H9b2ZalKMjkcbMjFrOTWNGme3ZgewmPEngkczq24sCgfhn+mQxgGuiHc4V5i986ezWxbo/IYQ0LQF7X54R1p0FeoUxohMZgnnosATMpqxGZTN8iR1wH0SHlz3SxGDIEAiDnwCcE+4wa7QWmLrprX0g7N2RA3rQi9/BtEGosdsoFRBqFANGE+0CLc7ZJY3Bjxo0nUqbrfLcCNuHSP+H9ku7Pb29Pj49PT68PT48vj29vD09vb08Prw9vT2+PTw9Pb0+vT29PL26PD0+vby9uzu9PTs9PT69vby9vD29vbw8Pr09Pbw8vT08Oz09vDw9vj48vT09Pjw9PT29Oz29PDu+Pj0+vD28Oz68vT46vby9vA==",
					"4T9ydvLTR41fkJrj7zI2JWUzF4/+PvXEFvbI+Y8TBiO8YClEQ2SRttpyC+y8KPAWSGhgVzRp0cUCn78B5ftoRsomy9x5S5Ekfe6ORJT+1UsaLh8c1Cc9LnnlQqRMyxjTUbX4TXXnznf7MChgOyDMx6KAXdpO2VO2gpTwmV62cQmjzyYAzn3s1Z8GYdRh5NigFmn/r4MeEOCQudDyR35lpqX2pCqMHknHLi1nIbxCzw7PgJtpUt+gbocB8x8yKbznu7n+94HnVWYLvnuBzaeE9ZOMR+F5jFWmRiD1nZk3ecqopH4ZSOyOcCwkoSIDGmI8zob8I5RV5gwgv+5ERAQwvoOEwrTaLxC2L5ra4UukRtJiqiBtsv1Rvw9aYOGLLUyy10ICCwai8/vUT/9fUTq/6PspSPcLwPh1MBkVeDdkARRnhJ9CQ9wTRHQ6FeDWb3Qr2vj29PT48PD2+vT09vD29Pb29vbw+vT28vbu9vLy9PL28Pb08Pb29vT09Pb29vTu7vTu9vTw9Pb08PL29vbw9uj27vb09Pby8vbw8vTu9PL28vT29PT49PD48PT68vr0+vT28O70+vb2+vb09PTu+vQ==",
					"46lNxvQChCkjIQVBNyZ96kRKpDgt5Xw2oRygWfC/i2V89BTjU4mjY9CK6qx7uK1gNs+yXxI36sTK3eUou8m0ORYGVtN//k8nx+mKPsmSe8JOJKKzfp9tOhcqY/E6+g8B8hD3u9WLHtjwSer8cA6Qhul2Igd7fCPEv4WN2xTPfmc4Q7LhDAo5TLAtcxKSct6E2udyBgjFwAQFHWQlQIcVZczjytKN2MrRgtDDanCKhdDAiqjyuIwGII0yHhRDxxdPLM7fK0scqJMXUXQTYhdudXAt/D17MMtZRF6t2deV+YbZVuT6yJwoTzapnaaFFPQziNCufhhchoazIBXWXp0fYJs3Cx74vnrEAjteiR+jB28CThQvnsnGdWs8fQFWW5qyuHaGJHg+kyRTfUX6P63SJqn6VROmfOeg8DqoMYQ2GOIo+S6DVcWFwGEgChlDJS/vCvr0+vT27vj09vT08vjy9vbu9PL28vTw8PT49vT29vL69Oz09vT09PT27ur49PT29Pb0+vTy6Oz29PT29Pb08vTw9PD2+PTw8vD28vDy9vb29vbw8vD28vLy8vj2+PL27vD09vb48Pb49Pj28PTw9PQ==",
					"4XfOjLtEZzi45XpJtoGLH1BB0qB1xPdHkxFHWEHzQ4EyGLSCGj5sAlbqdy2rIBzebTA63zUnoBjnijolOTen3EN7nwrxxwESVyj7il0DzwqcCdksHARl8a/bM7cRQlQkBcZwuj7ik3G1v4T6kQruzAbVQPE4W96uCK9fyz/Yd+pPLzijZHAx6jD6TXHZIuOFMWpsIb0hUkMx6oMgsl2+V1pOqDIANladvMw83KvyuBEhovEq9Yn/dUC3JNRr77QmVr3X3ST5BSKfRjiikrmMwenfMXi/luU2z5i7tojw+ubsfoQFn6JS1Rg+X9qZ/Lo/6qBH7DKvCiAOGCRISAjDnF5W6Eh8WO0LSEfYaTUiCRbOnN3Ycq7hMs0Pr3iKtr48Rk+tEoVkkCuDXTyMH1wCxOBdeaE0fOTyG6hBER+k6Y7pyn6/LikkqQ9Mtxi3puf5TPrw+Pb29vTy9PTw9vbw9PTw9Pb29vb28vT2+vr49vL69O709PT05Pb28Pby+vT09PT29Pj09PTw9Pbs+PT29PLy7PT2+Pb49vL09vr0+vLu9vr2+vD08Pb28vro6vL27vb09vD28vr48Pj29Pb28Pg==",
					"4mO6OQMQg18rSc4UPU5preFiJm4/DoKOWoMgz4vLIFORrBTUy8V21jnDxQ57Ac0GaygsrRq+lqHZNIXesqaM2VGygFVprmbuFbBJwYmNAbkNL50gIO68oXufEkMaC3EnFSSfZoUPxJSjxCRZiMWpEpCzEYCY4Sx5VK/t3iWyf6KrhJe9NKfdClA3Tv0s0grZW/1TctKENnZ3dhNRVpHkGA0IG8s5npnXAxd4AYrYUGguz6pAEAXVTIQimrVcdV1S9SKumUxT8gavwb3PSGdpokWeVeUj2M3RiQgrSqodY7dS2Dq5mghDdRfHvUNJw49wZPMpuhavUGMMp+aHMPvTsHRfBs2soAANOzSYLDOmVjoNI9xJ7wbO9pjrj8oPt0nntWTBcKhO2lKyIxypzVnsU2OkngrSeWbcUBfMyYJkhRRdMEj7vqGaW4UNnOB8GfRJHvb68vbw+PLy7vL29PD29vr29vT08vb09vbs8vb09Pb08vb29vb69vT09vT09PT09vTw+ujy9Pbs9vDw9Pbs8PT29vL48vb27vT09Pbw8vj09vb29vD67Pb49vj08Pj49Pb68vT2+Pbw9vr29Pru8PQ==",
					"4+S692qRtbJuB+oBE9SQDX2MoKm4mzHLbRHr8fzato7mclnIkez04HcmASm745cnQU3wSNIyh65PpqFHIAjQ6b+95oG3/bxD4UpmAzB2nSuwOYgpRoAHrkBfhTvjFWYZ+awcb9WhOqP7J8520zx5d8vxkAWtQJBY1c3CrY395ny/ft1+sv1YjCtOAPt9K4QNYrZM4oZzNFqx2PCmiMxuSmECKORMAtz8i2SIOVyx4EKto/9TBa7fK7cyLPVWu2bbm++QrC86CDW4ayp74x83WdUI8/vm9ECLWsKzxIFnhucSehHFd1vlk0uSn67PrvTn0RZUGKrTzBB1zINOHBz8kmmUOmz0tyqm6BfR90L2fJss1xN5ogRXqJeoUuF+SGAyKBLqjAtaY9BEXEY6YSIZEA7xk08/K8bAEU380ZoUvihxcp43yKflf6ePsCPOFsAGjPL0+vb28Pbs8vbw9PTw9vDy9vT69PD0+PL29Or69vbm7PTw+O709vT29vbw9u748vT29PTy9vb09Pjy8PT49PT49vb69vLw+PTy9vL2+Pb69vT08vLw8vD05PDy8vr2+vj28u709O708Pb49Pb0+PQ==",
					"4/ftELSl2VQkNNdvm/HFPxBEN58WnGf5JaQlWxnaxVV9Ggn1SarMzQCbTJl/7WeUh+56/Qv9bvGMhtDSmakwxzM5BHe5ZgEZyLFly/Xlk0H0QiwDhJLc5UcQHLguZJZJddlZeEFQWN2s1G2SwV5TfVqDZ6O/q7XEaHdpCtE/JxZQob2zs4MC6B7GFPH9hrb7riK1DhQjbvWzb4SjkwhCZHHhd9bgoDq0MfR3+PY5PSZ8e8J0qeNuk+13CA/ZyyEEPrzzDVcmQJjtoRObh1KStGYc7S9H5LiNctFGPf5y1RVCKIFjblj+RcKlRhLyZM4zk76jpBwmw5LbkSSFxDIgvwicDH+UR9BIQHM9/z0690i9FciimKg8Um4u0Ba0+RDJCrXDhAANNdoygVdk+o4CqnyoyOKEKuOHBq3cWsZ/uR7aFIzEnM3kiVBiOCA3AABRWvb0+vL08uzw9vj09Pbw9vL09vb29vL29Oz09Pb09vD28vbw9Pjy9vr08PDw8uz0+vb09PT09Pj08u747vb29vDo9PDy9Pby9PDw8vL28PTy9vb49Pjq9PL08Pj29Pb09PT2+vr49vT29PT49vL4+Pg==",
					"4i6vzxzgyU6DVFcJcJb2/Px9bwTGM93l+35IQIvg2z0KM2MjLAP0c1zE78e5HgJoBJscl4jNdRkQil7UJtmYJfciyTE3wJy100bRW/0pm/Yx7AwByI3HyZ2i7AR9SOwERiVc9J629GTls3pqrldn8D9aEapB3qEWiDskqgmTsd3aP0Q3k/qgTAFdwmLKRkl2aaZPRaC4w4wkcaAi37CuLCsiyuhfXhW9C5SjJdAWoEmEhB4PjfKYfX2nU/5LKSV72w/x7MaXmycJvqpL4lYQl2VC3FGEpAKTBKeRXKVKAMmkTcER9sPDKCszI9LDLvcYVPsAQl5QfyxMHNdEVwtMmpOskveECV0M9sd7r46l9rmGc1R2Q/ZXlFeO40FhuSZHpVZa58Ae4iIyJ8B35QJHzBZAEGG8V4SeVMVUsOHU/J1+oGmxQkN/KDgldJZTnzGk5PDu9vT07PL69Pb09vT09PL28vry9vTw+PD09PT08PL09vb07PT29vby9vD29vT09vT08Pbo9O729PL09vL29vb09vbs9PT29PL09vDw8vT29PL29PDs9Pb29Pj69Pb08vL49Pbs9vT49vry9uz09Pg==",
					"4dwN1QpX7Wxwd3KTpH6bTbp7hyBy+Y9vUCi78yj6OkEFVbNmwmWUS24xtnCoqx1OKGJDqOJxKnD3pe5KpwAZGcl4Wx3UanJ+D7y5yVDxwOGhv/JhbRjSbXRLL+SuaK6A2UJPHPOYkIU+oRjPvirzuIhAQCeGWithoR2GgP+J6p9rNGdn3M4Z6WzxHXOw9wWchVPSA2uOYTZLRAlzjWkm6egC595OKRxiPByvtt/OSj52yuU8rjS2Zu63EBmTn0oVVGQjJL4w6mYjkMu+VORhQL8Y1fky/hOr91yX5pux+u8LIVNFuDsCZMjiHB5dCXgfBBRdWFbhOIllrZdstxGAUnX+qxsnPWZbT399mvdjFS415kR0vrnaFcwui5x/Q2NcqSVjdiKbAK/INIFM4PznATchdDkOq0lPHXuM9DadVIsfDI5cRYA4ktHyJ2wTA27SbO729PT69PT29PT69Pb09ur0+vT66PTw9PTy9vby9Pby9Pby9PTy8vbw8vT09u7y9PD27PT09Pb0+vbq+vT09Oj27PT08vb48Pj69PDy9Pb28vT4+vTs9Ozk6vT08PL69Pb29PT0+PT29PT0+u7w7vQ==",
					"4dH8ChfWSaWLNOxHMxulWXStJcbxZFlYEAZbh4Hwqk3g/FbL7Rz9NqkNRAeiI+F8g9myHKy0I8QrEhP7ib4FslX+zZa3A56071PpDFDzmtCvTHxOsgZtoGB3vkGa2GEXy/RGQQkwNaAx+2EOxapQeAikLXAWUrIKgQMewunwA7yDdnHo66Y94dO+So4q5w/ktL4UsJ/0tf0sIR3tQPYljXZHRmRZ5OR7rLiqCqpN5ALNjCNC/XNf4nORctL8IfwicsOBDLrcKugvBzIrtS/G5ORrLq2Odb8gR8DY1hmsArmeIY0/GJoUfEI19Ts3dlyScm3vsfCqlK7zff1n4nn6VC1EcdnfuAAkikSmXDk8RfgKmoMQXvXGZo0ebE5qbINFYy85RHL4YBbEvmgYNhBycqvKPjbW+A4SWMpcYRzHlAgMiY0s+q6xkLqE584V9SgQuvby9vDy8vTw8Pr29PL09vL29Or09Oz29PTw7vDs+vb09vT09uz6+u729PT09Pb09u729vj09vby8vT08vbw9vbo8PT08vj28Pb0+Pj29PTu9vT09Pb49PT09vj0+vD69vb2+vb29PL09Pr09PT29vg==",
					"4Ov0n6mf13rZuXR6mQ2EzY0P3g2xorXgqr1lVUb2+E2mrKcrzqUpALKAEjv3V+6iYo/tCVNUaBu4kT8PjfJcxszEqO/E9d5tuJqlTLDB7dNlAN2mh8BuBcZeCmatTqEZaXrr9hS0g88QVGlouvcWGZddd/xeamVA193B27a/E4s8AUYUe1cOIKKIUmITogx035UlsyhVp6uaaCNeb+TuwFpmWNyqUwLdF94ZGg3AoJVGcM3fcR0yFWbQzytqlyq1B683oUQMH7sYLmaljobHyyXJ2h8voSNnU+SU7kVzIl9uPWxtvN5Hxg96uptiyfAe/fQIQEXUmXvyRgx3HZrfffIck9CEocN5bHpMXcuzUxNAAvP/nlnaCPuc+lNcDFTWwP5/xCo7JrQpHs4qsTNEfvKIYH3KaxI5oUvGPiUwdiQNnrHtRg5r5am1WGR8ghlApPb0+PL49vT28PT08vb2+vT09Pjs8vb29PT28u728PD28vbw9Pju8vT29PT29vL09vr29Pb08vb28vb27vb2+vb29PL49vT09Pb09PL08vb09vb69Pbw9vb06vT28PTy+vr29vjy9vb0+PT69vr09Pg==",
					"4esCwBHCrWo63KwYeKxQRUP0fQBinMJTpXGxYLH5yg7/7qCMKGcWXqnd0SnNeXTKUwpZP1M4Airuc9UPSRlM827Wt25HR2grtatmtEbE/AUPKmPmWKGdz4iUZjd+O+TXhjVJ5SmJc3E8zBlilkDALX6CRrfFhIVHOkIOWc8DCI1ml/ggdqKTECJUMhRi1S0pEVhRoK+CgWPqsA18FD6AM/eTHAaKGy1yd7wq4wlNlWvNJRppNw3c/MwOE5o0RRryRoU+BV8oFMECkRbLL1NkX3mUkvLNB+Yh55TW0EA+5ND24mJg5k1rk/5a5jhObkAcswE/jTkTAahCsieWccpLwtXkXLFleAVY93RhEj/8WjlQrlTLCPK+Kagr3LKyQ/Y20vBM35MU34pAAE98HomMATjlxLDOujxyl8f+JNNERhtlRGhVnM+DJ07Wo0fBhsQ4uvb29vT09vTu8Pb09PT29PTs9PD09PL2+Oz07PT28Pbs7Pj09u769vT28PLy9vT09vLy9PL07vDy+vLy8vDs8vbw8vD09PLu9vr07vTs9PT29PT0+OTy+vT29PTu9vT28vT2+PL49vD28O708vT09vQ==",
					"4LKyuWwItmM2hPOK22HzXObwUnm1qFGceEapopMlMiKvHpf+4cNOWN9LHAUQgiK7CWr9x8pJ+30ooIqIAQ+10nkX0tP38f5+TO2JI8GPZMQ6hrcpw97nJCHYimNYoYI7lxPA4N6dMub5HfO75EkOb/eqM6tY1drQVytxK8zM5kcjgDM7EIvbtgUmErVJBPZWQzBqv7gR1tvsfCkulxMHQuXJvOtS7zqxGzmhetzhqXv4D/TFxPjQ6SIda19RsqqJNVjbOvD75n04qZpgfqk7x+Vfdvvaqg5aLB4c89zWREd6PMFPYgnQQnps8WvG05wUZSFMswQPnpEEemE+2fExbEk3RFB0ELAzQkIsuMBkbWAaomf4KZfL8zxG0j4SDuhOs7tCsgoOVdZFFlf7WDbxlo6ibe8NaAgWLVRrAPcaWiwgc9aWEK4VVifvQBeVB/KCjvTy8vb29vD07Pj28Pbw+PT09Pb29uz29vT29PD08Pb49Ozy9vT29PL29Pr09PT29vT08PT27vDs9vT09vLu+vb28PTw9PT29vjy9vT08PT09vT09PLy9PD29urw9Pj09Prw6vb49Ozu9vb29PLy9PQ==",
					"4hQrh5D9BMaSo1/NvHfGNkeNBMKTEGj0HZUO2XvMEgrx5TVp1nlXClCbsWVJi9P5TWGDWGpIEIPMkCnuNscLLhtV4V5/D52gUX0ZIhUm8JOXW6t6Wa+0cZjsTQi51U8L5/A05kGGHfnZnGkRzT2zcTi+00k4LTE1EBUNAS5vRZdzxi8bGRG4J2J4fXdKEVBNXPyKUH93Y9jUBSZ0oPCT3Z7hYQKx8YU+3m01B3F/376ALeGbdw/3fhOPEXcESrenpISVFI3do9EiO8U2XAt2plhbZdeH1vVYvaKIpCRG3qQ+fsJK6j0WvwVrxnqWkDE+BWiopraJsuy4whxwV8cn/udreMHbeo1mkCjnmxa2qNR4vCd8C0Vseklic4PlauG+31+0HrHXL4oUNCFr/gyQwEIKbhK4F1Ne2tguY4IU3KWujbP/jedOEjtUjwMCS+MO7PT0+Pb08PLw9vT08vD69PL29vbw7Pbw8Pj2+vT08Pb29PD49vby9vT09PD09PDy9vb28vj28vjq8vDs9vT09vT29vj29PLw9Pjw9Pby9vb09vb09vTs9vL2+u729vT09vD28vb29vr09vr09PT27PQ==",
					"4BPf0x8dRagQ/tVh+WHWg3ChHMFnc5ere74xVDbSeWU3aUpPgCqr0web8wXPwq4FchRLbiDNb/IQR4wjM1B8a+Cdfs8JcEKgnfVOibcuTPX9Otdl9p3HN35/fizih2/3iOXxp/zO5lll9vynIl0iebfd5Cx3061ds5Bk0A9X5HPep5w3Uv1Gk9I0An+3pFEZ5ytbOHLOmODn9mAnWzd9++K+vM/3/pxCbV8LuLYvsO2T4AD8bAWnIOc4tAr1zzDMxQQDPKrAw0jZZtjj24e5IRynkfUlFjLmHQ6LInUv8q0DtALxdn/kTiVkE6NNcU2eRRXma8h29PTqGeJsHQ7HC1zmoDD7j2bXEBZLQgxRRu7vhDaGHnLOuc065sAE7F2ivibLpr4DsnuytONroW5uFij9J9xYLz7FU+KCoOxrcIO9Dk/zK1hi0cXFCB7gPEwZLvT49PT09Pr28Pb07Pb08vL28vT2+uz0+vby9Pj09vTy+PT08PTy8vT49vL29vT09O769Pby9vby9vT0+vL49vTu9vLs+vLw8vb69PT09Pb0+Pb29vr09Pb09Pb49vT49Pb29vT0+PT0+Pj49vj4+PQ==",
					"4GxlE8lr+JLb2eNZiXbSigfMhmwdwiVzbTH+hGubE2136dLvbeIHEtPwfqRwSFdQohbdQcWiYTmKxJPc62EUFolX7XF7L2BDQZY1Cdvqrz4d4fCSjfqrtqSAYRMgwvf24N7v0VOyC615yIIw0U0VmYkDFfIXxDUXkE1IWO14Ad48mnqKsGYts2XPKrlq16r9BLU6j56IzBekUeuvlZAfsAtYYo/qZCHeFg9FaA2RW6l/TjaSW5MT5368PwoBgwL5ZELXQ2rFW0Dpa2eEsjmxSQCEQh3+lvD20MDDsqBMh9PEAJVyoAdVxw14lgbb7j9IrXxqDlCePmpn3+7KktI3dXHVRoV6Iv1S+RET9EA1U0nWHkqsrLBVAaKHbNs5H1kUKC1QTlTQQ4to53M1xh7sDyIqUTtMErRUDKQ8qVMM0A6wo+3S37RFYyZQW/Gcub/Lxvrw9PT09vD28vr09PT06Pb29PT09PL25Pb29PT29Pb08Pb09Pb2+vT28PT09PT09u709vb69vT29vb29OT09vL69vjy9vDo9vr29PTy9Pbq8Pb08Pj2+vj29Pb29PT29Pb29Pbw8Pbu8Pj0+Pj28vQ==",
					"4SuDoQRH4BChr2zQXaXYh5ZcU7TfBXh5zFySVF6LPXyCtxWOUbzTx5I/7jMhM8prROukjhHTKw/rSyv2v3ETlGuLKcDLmp+UNOIrv4JUVaNTGMnbZ2mjXAWzlGAetQyUql+rHKbhrbrHGdyDMXx8YI9gtxmE3oK8JgZaLGs8vwh+ZcGHzrv2HG9JZpLOIBEyZCemJQqZ35N4uFeCyg8yv+K75Y1zU316s8oeat/XukGrYbvX1wP/DQXSoHzQ+LiSRkPABlsupUH0MIm6L29lVuFh6BncFfnHBhA1rgSRlAPtflMwriRNT/thMyTkWLwCRLHpQJKXmFJMQO2WMgjoAr0DipDSbK+UKAi6bkfsXhsWnsPwi75WSAgsjd+dDNpz7I4jDUaH5ukaZR+sA+bIZTanhdYdC2vEvL2kFNH24tBFWa6plhd9nf/lJO9mn170OPTy9Oz6+vTw8PT09vb2+Pb09vb29Pb08Pj08PT28Pj29PD29vD28u768Oz08vb28PT08vbs9vby8Prw8PT29PD29vD28uj29PLw7Ozy9PD09vD09vL09vb28vT29vb0+PD09Pj28vTs8vr09PD29PA==",
					"4vaqZT7FG4beXPOZq2fZUFhFa/Wr7j8ErN0FRP8oSi5tgMpi9cqlWaDnCAXQBUivh6PHB5OyYvI2mlp5EM8x53bOJtRO30cxt2gAczHszlqXZC3kxxotN+UmGQSI/i0PumH7rh++eejFhim/GWL6B/qD/W/5KJYqa6CmszslTB0x1Z4dBoDL2mDIcNI1/GBwcktSPTY2vHOyUfwVdiMqtqC/Rq3y09JR5k5pB0nuiQHt6kXMTKRuBpucwDnqQxImeOrxjFOutwILrt4zIIrGCXI3G+TVfFMjY0y8eqL97gcGSFnv8YmQ8vOi0qKMLZj6QzMF0s2CpzZPi2AkHtg2uSEEwG0TLtJogk+xbf1OSp+bKuyqAo0iDye2mFEggAheWsZWs4jPCWXfHIExxZjKFL4V1n501X4H0EkMKR4OgVsUeij9MF+OCHHLcMb7KScYivb4+PL09PL28PT29vT28PL08vT09vbw9PT0+vTw9Pb09vT49Pb29vTo9PTw+vbw8vT28PTs7vDy6PL0+vT69PL29vTy+Pb09vT69vb6+vb29vb09PD29Pb29Pr09PT29Pb09Pb48PT09Pb09vb29Pg==",
					"4ahTHXRtthxhdSBvR6U9jHq6ttfRXc0oKu8GYC2YfxfPYx74CcM+DDRMqtZxdP32tabxGLuhT5lzFKQjMrJbgb8EGQ7DwwOP505oa4NDabye4z1hWQ/L1LqknVs2WDJPVpuP/JSy/nhiWc0Zc3xCwt4quecM3D4uujkUdED+zb3FhWDEzwSNaBND6xb3r9ngWlF49lrBf3OxOeLhIUczQpmLZku26fESlETNKcxK0FggTYauBui5c8bHCjpfN25D6BSHU4nbDRfFpnSItppMYSiO1Grkq/HSzy/3xvbES5l9+A15PX4TQUzICVsEAW418D9SjWLxRWur9MtPZA+d3iJ3gUvImQNWbrgmYA25tHOgolLEqyqateq+fJKMJyhY9+BNwZKhQXUeF4T4coZsxZREskYFf6BalAn0Jp5rYrHZMxfA/OKT5y5uZvvE5Rmk0vb4+vby9vT08vj09vTw9vb68Pbw9Pbw8vb29vT49PL29Pbw8vD28Pby9uz29vb08vb09vT09PL29PT28Pj09Pb29Pj29vD29vTy9Pj29Pbw+PD29vL2+PD2+Pb08PL08vT28PT29vT08Pb09vj4+PQ==",
					"4WpuPOzY5MoWVItW2Xl+p+mdRb2kwVDxfagw3SjtIDvndBiQ2BvxMyDveF6b0bvh12OnB/9/n/M/c0oG3CoDbhAdybI9UOz07rhI7isawUnDX0OJVfkcrt4bnY+i6wbWX44105a3F1+s3PIzADP0ZqIZYPp4cVtvfx8onLh4HADSoVnKHY9uuFv7wFoTrPHTZwJp2PyWG20UtzhlzYD6BGOgaVi5y4jk+7PuxE9vW+X7P3MajqEUbmXd0mbZAPKxTK4GEmrxVY1YDfz/mY4zuH0DEkU8SHk65SifPGDiqLt5Gt1k8gLkQhWqCRLR/aHhOoohydtSVgC4wgWSV0a9+s5cImkqBBaOWUe/CHh4NErRNlrChj1XYJ4kgIB2G6+JmgDTjNqMkcyHMnzritFef08bJ3tpGZNCQxDbpSS/jqqA0j2ioFZj5SO813fQkOfkLvT28Pr28vr09vL28PTw8vbu9PT29Pb2+PD08PTw9Pb29vru9O7y8PT29vT49Pj68vj07vbw9vD09Pj2+vD28vb09vTy9Pb28PT06vbw9PTw9vTs9Pr48PDu9vL09vT09Pr08u769PD28vj29vbq9Pg==",
					"4Tgw1G0Bu7cO98X1shXHvSnM0GwsUferbkJ3Oh0tHhj6U07edrqSt4Ds2n7r82Ua9vJig6+UZIFgpcWM/fEUgHNroxbYp5mvRFnysZACCCJH/qy2i8MG/Lvie/32ACqIS5nt/AmPdk+nJoQpk+LuV0Ltzb0YWU/t3qgScixlXsdaicTL9RAekuezm54VYUVQ6hBTChr20bVx6xFG/o2lqtSAupw/QE5BKlt8k2W/iTtwpsghT0Nv/fk4WPiJgrxC3gRc4JEm/AlTurJvBsQQM6gbRyeTsQIbVsXQqtRc4SxsylDODIzFTgcUIHgW/SpXX/ZHh+vCIu7GSqUzx1pf3q+dIICg90/ild1SXSetaIPTa3M7CwMa9r6Ctqh2lNZXSAhIOORnL0Zr3EOWaL41HOto66MmlinXkl/OkLA2nnQTW8S/MGJ+TgAxV4boQNJ8tOz2+vj69Pb28PT4+Pb48vb29PLy7vTy9Pbw9vD28O728PL29vb29vT09Pby9PT28vTw9PTw9vLy9vT09vb28vb29vTm9PDy8vL09PL29vT07Prs7vby9Pbw9Pb0+vD0+PD0+Ozy9PL0+vb09vr69Pg==",
					"4Z8Z9a6YtCvmwFcqOi53JUkpZn74+lcEl0mjneu98KuwvSfhXOclYGtKQbBncEa5qSMSGNbAG9+8Aj2r50I1bAaKrm8Tc1XbsEThVbHWtkeyYifZZxsyvgQNlMHwt20LOXnuM4aNZsZtd4/c9Im437SNtp3/0bqAQmhFDj/r6ovfE6AdaiMjTzY1RMsZVQiENYFbGEVs3cE4Z0kLh96PEnRx9BUWIrMkv2jgmZQFKRqypZM2vgvExtQocatmT7L/eIzaS792qLtcdiLQ4SnG7hh1f+/xcN7DJvYBKM/4xRAuHcIohINGpCIT7SFKuM4DNQ8elHvowY+AR+i9/YYPfE8eA+0+wkoWDLtYt6aIduACAOKIJvACLR4iogtVgo6JVMJFJz7aKKMni3L88+t5O483rl0YbjriOfE34GKVsrh0nEFI0g512uO6D+isnGlwYvT29Pj49Pb28PT0+vL29vbk8PD28vb27vTw+vTs9u728Pby9Pb29vT09u708u729Pb09vj29vb07vb27Pb08vD69vr09u708vby8vLw9Pj29vD29vr09PT6+vTs9Pby9Pb09Pb29vL08Pb09PT49vg==",
					"4xQIxrX8gKTw4G6KHPYkcBdwIjJvA3zVHa1TmQhUZk8Gb1Q7RGajIFxLzJU26MoyN9qLNZtY0V1utPF1zyiqJl7ifmjV41RUkVCDuOztPnoxwMfhDDnQjOmQzc+hkadFQrucsQu13ZF3DcsXAPFt075c4N3bDaqt5c34HyVJVbKjUB1vDhD2nhFxye4t7kHlbHHQdlh5XuDpNYxUEHP/vTW34H0wxoFzi8erRA2XtIABCJm9wkKTDFOsQy0yhINPkZ2iCl8K0t/+KAKxxGjE4AFYlk4iYvDau5LmCQ9lDIa6kkRISCdYbgahK3oNfzSIj8Nh4MsOG/7fzSunGBDmClIwXwAGgl1RqwvbT+A7mCsQFmz7IjwtA4BvPtHuCr+ZZRn9TqemAHIvvnNgkHzEa65MXOyMU7Z01SDQDuwUwJL4NNqGfMSVGG9uKvAdMamUvvT0+Pr28u729vTu8PDw9vby9PT29vDw9Or07O70+PL09PTs9PLy9PL09vTy8vT29Pj29u709vD09PDo9vb09vbw7Pb08vL48vb29Pj29vb29Pr29Pjs9Pr2+PT2+PT69PD09vT69Pby8Pb29PL0+PQ==",
					"4MSmp54rtLFb5FyIwhvB88VzmDb3Fcn/vmh6o3xdkCSr1H0d8nRgxdRK5WKwFb/bMh0gbiAkKVP/dzML97pqo5jKA9RQEmq/9dKM5La+NMnKrth9bEw3dM9AMw/hWQ4yo+/lMleZpUW3HmroKTWkFjOeLb9elXkZ0u6bknFvEz92xUCJ1DPGMwYSfvszD/Cc4irAjZjhgVsndaBy8GZhc63B0xqRvWBmPMm0yhxcIpyfoTfvWqGVLf/REX/mXNRK+iaVHLkYEU3CNj4zfnPTZmXJbvTZPsa/uqscvDJygBAhI5idTdtxKGWvuInOv0wQZajzpbpMyDuUzFNdwIHWPtxnvW9woEceEwaL5nvwapWuFbEOy0xU5JBoNHvifcq4RbI/aD0SICeWFgcDiV60E4sStokx2pbPBtp/2FZcB7J2dJ8EA/stxgVXjR6tLGNQXvr0+PLu9PT28vT4+uTy+vT0+vD28vb09vb09vT29PL2+vLu9Oz69Pb09vLy7vL29vb29PD28Pb0+vT29vT08vD28PL29vbw9PT29vTw9Ob28PT28vb29vb07uz29vjw8vT29vjy7vTy9vT49vb09PA==",
					"4scvRTuLvXLo1LZxLpaSfs7HBeosJrmPLUClxfhBPmhQP/pDcuJZ8IWQTocX4lU6VS6m7D8p/vRnpEDTRQWyyXPSlujm3oXXHzh/oT+9mVRt3Ppdtqr++jgbW4zKg5ET4b3bg+z1PqYTyhlxeh7KWaUqfrCA5A7+QaI1EZgoJcIm91uX1EXl1SNQtOlbBAxNwgz4pML+P+1ewlpQ9pUF8lePPhGt8YxD/UQOzpyB+5kppJqxEv+erIKjcA71EtOBLgiqTAmRJMiP1iLek23yMbXBzS0ti4SL/f1GmTSeRb14K3KNxZJrK+7xuu1QuR4g2vS3ar1JQhpWBEr3eg10ZtqxbWQq66JLkmkMdvdCO/4BWq7WpomC/y83k4sfpl6WcM+OhxIQCdUfESQBA9kBKDhtc1WIvH6TGm5I14vW2LWEyxQ9D+jt7O8xe4Coy36yXvjy8vT28vT08vb0+Pjw9vrw9vDw8PLy9PT08O7w9Pb29vb4+PLw9PDw9PT29PTu8vT08vby9vby6Pb09PD09Pb09vT09vj29PD6+vb29Pjy9Pb09vT27vD08vb09PLw9Pj0+vb29vL29Pb29PT29vQ==",
					"4VHegDMnF2PZ9l8mn0PziDJV8267VqwSIB3EWhuXI7Yuz3V/ezHnWbC7Rk/orKuCzFeRiOvxMf42MjpHbrHsavCOVHxxkU7LllKNoviawrP22Bp+BLmSkr/cbw7ch1oh9lWKmsrQl7j3fbklyQ+sGzLiMDvBeOS2D2zonV9CIS+IcAzylRivOEQYzm7iMKXdf1UzkzovjSNzIiduuLNfiUwdERLQ/LyL1ICB7wsUuyA0w+1NwS7miFNkV2d48AqcX/bLJi5Zrwy+0Xt7BBdDprIuy+niI87A7q75tn/uud+ptuoSLu5/enmHnYpeDj8UjaIQXRMYzexM0l9KWHL2ZaQCiWQ2IuBnacdEsmboplGCXtBkNEq08bQ6lN6Ml36+dSCiv7yMVN5JaSIo1HAhLDJohzPB9lXjsNjrh8H9ZZZ8KxJ1ZFaYpnUeyQ6yrw/Avur0+vbw9vD28PT09Pby9vbw9vb29vT49PL09Pb49vb09vLy9PTw9vL29Pr29Pb09vT29Pbk8vT09vDy9Pbs9vbu8vb09vb28vTy9Pb29Pr48vr09vbw9Pb2+vb09Pb09vjy9Pr47vTm9Pb29PL09Pg==",
					"4cI7V1I3GE6rye8oiUbR2Z3zfDu7eXtBzd4qcb7WEVnfWwWl6e/iuwaUmN78FYFmzmCGLLqRC4F+Dwq5+r1XPBgfSBTBoKwBhkLfsd2nTcyHK7JH6Mp360aIw22qfkifH9nGy6tUmVPBnyPzooOZxpydlXPK9Z+T7ijDrgSbYy03HjgTGSt9QZ0c0ClzVqvT1r7kYwhk2oZVnMPtE/eJPflsLmV7gigBflsdc8XzI2moSW3C/BFbVGGTua4eO/ATdjgjWaYeGE7gbebuRvY3FDBze9MUJ5/IvZ+sBxTSEOffzP6uoQfFbgYo3rQK9QyKI704Q9P4hZNExZJdVoW2aIBYRuW/NQrkMqIL1KgQh+iIJ8x+kORpfuwIM4oVyThvI2ucvZF2MzZTWpnGhkr8A0UasQ9QatBQDpHkiMcDqrT+YTOOh3iq1BxC3hprYGX7Gvbs9vL49Pb29PL08Oz28PT29Oj29vby9vTy9Pbu9vbw9Pr07PTw9u709Pb49vr28Pj0+vb09vbw9Pb29vb29vLw8Pry9vT08PT29PD09Pr09PT09vry+PL09Pj69vbw9Pb49PTy9vD4+PT48vb48PA==",
					"4nT7gKZa0RW+0w9HK80HoneaQ7ikKq38Dkc+vLCZLNKz2oCK0yJyFe24i6ts/UUNuw2gLx2Y7RW5k2c9I1djfZc+CvnRq3xUUq8JmEIWk7CS+VNVrlnFCpkhdEbpqEjTKbwcEIITsQGW/+gVmSBnAIMq8nKdnIO0YJhEq3axQblM2truE1wlSbSIBXo9u48jx17ugNpUvJTpb+WcDjPJru9WguBmzRBH+YUFf1rrD82i+SZGbhnnsbYjpXWKfqO6QR1HeU+Y+VjC8W6X2i8vNTd0dHo92YzFb/kmeZa03hzFvFhIbDvteg1TJQUgFKD3lU7bNFzWkCApWN9jp34sL3eoAERJnwKhJxYsxFpsGI6kh2da0iSBdgo9tMFrYVdSwcDmzmiYOmeJxiroSvar+k4hGN8BIrwba5wJr7r0hZpo85UGXsSs6ENsbW6+PuYujvL69vj29vby9PD68vj09PTq8Pb29PT68vD08Pb07PD08vD4+vb29Pb09PL49PL29vT09Or0+PT29vb28Pb09vT09vDy+Pb29O707Pb08vL09vL29vby8uz0+uby9vb49PTy8Pb29Pb09Pr09vD09PQ==",
					"4kF3J4c14371CNcqvvAhsSZVjWF6PPbeVY0UTceK9bJFfjWS33txD1I4IqlUq4m+nHEPigq43PUC8oD81RuzVUaS+XKuY3t4/P/Gu6aCGtH/CBQkKEZoGHOfmobhhR4LiUGa0Gon8RC/QGGlPWxbAyJ/GbyjxyiQ/GRztdYCLXRid3k0qLu06m96jhLyKHe05c3VHA30oRZIs4ull/lg+BGuafNjaqP22MXWWrWFzmTkHT/zCkxjaPZ9rD6P8zDDPD1R1OA9IAFmU9J/f5qU/Jw/R3D1mTp72h89uACK1DDy9LUyWMTeozbzlqrMip3XotznLucGBiJc1ddotJpD9nKY98xhrVRyXdKurlasfcGPEBG/sBAVyU2EhNJJFtRy2WiWm+nrRwo9Kf2jKsYaCg4LoxhC0nH8cIEBfNdGMFr7/YrkYIH4fsJBA7cgHrpykvTu9u707u7w9Pb28vj09Pby8vby9vT07vL09vr48O708PD29vT09PD09vb08PL29vT09vD67PTy8Pb29vj2+Oz2+vT09PD08vb29vTw9PTy9PT09Pb29vr48vr49PT09vb09Pr49PTq9vj29vr09Pg==",
					"4sC6lyim9152XZkHAYr71v/E/qSJ4T1mX8AFh82dmD3J24I7XajCZQroUoJnr/3D96ZRxU09nbEMEenNCp/3ANMG4VPdWpHqeFBgLLtqsd9I8B9DBoosRBoXIC9bUtGXNVB0SFsA2LdM4T8+pVZvAYAIFbHheXtCcV3L78+Gwer+BSFtaPaLE8yJ5KzO7TwgJiYzHR7hJ5M87kNihuScaEVlRvW1FGuYm4+0nRPK5UXcymzZuozRMRrSIuAml8eEySFyXJo2Ub2tdggxx9K1ZqGGlkuxH5k1c2L7ovw8gR0KG8gU/iqO1F5xHxHemZpWbJw6dqMXgXGIJGRFsEuUJEakMxRGR8D80qZqTfs+8mHpAcIXiFaIMvOW/CW3Sdj0kAk1EsPPGyK5EagjR5ZWufhyyqDeoAwk2wirZmu2SriUsbKq2L8AitGs3IUshl+MpPT2+vbu9vT48Pb28vLw8PT09vTy9PL29vbw+vT68Pj08PLy+vT29Pbs8PDy9PT09vT29PLy9Pbw9Pbu9vD69Pb68PTw8PL29vL2+PL09vb2+vL29vT0+vj29vL29uz2+vr49Pb68Prw9Pj29Pr09PA==",
					"4KKEo7/XA/W33peZThceJ31KktSQ2gOP6PYYc9j7bbAn0S1tMT6B3ALffKn0jJUnE/TRBqUKWIMQ3g9LtBYERgdrp0ovtCvB1sq09vu6L6Y1HuXJer/cjdpdRB9+JS3o+GEloLgTAyKwA9kI+/Jq36FOY/cTBVxpyZWo4jwVhpI5lzV1WubCZF/43MYiipA/2XB50jGJCWT2Bw1ECxa6K2xPUitPMG3WOVUQEaySeVk/xvEXpmx40odxIEUDr/0trsE+DTpWGHf3O1bmj8WD9t0Eue0vhdoSbB68tVBZzKwqKijfdJyrG2xHzni4FA4CXpcPp9hsnpYag4y7X64eTEacHRYbZ9EbWFarPi9DXhkH1VTzOEKXtpE5fw9KSwRpBNS53rwz+CaMChh+iFNYMKYDhxA93TAZxAnEaxWBAWUqKCtSEvYLC7EcOFCujGDVJuz2+PLy+Oz29Pb09vj09PTy9vT0+vjy9vT09vb29vT49vr28vDs9PLw9PT09PL29O7w9O709PL0+Pbw8Pbu+PT0+vD29O749Pb2+Ozo8PT69PT09vj29Pb48vrw9PT08vT69vT2+Pbs+Pj6+vT69Pg==",
					"488QD7kP8Ddt5kXnxCaa183VPNlI4pFBEq9P3dSNgYD9ZbbHxgGk9S9ylCcsAYV0ALzxqvA4yxHyGwAyKzjaZS1+Bgpli+Zwory15R0s5SdBvJDNrCFC1sJXCEWak4SmNVSUBDA1lQNHPDNQVZFlXlL9dywJjb1QnZQfsP0tUenxWzDPThLY9tiCDbkIAcYqbFolRD4Oy/y9ASv4lC3a9ff78FDNGqR/ejZUUACi11fVAUU8H3AFsfL0pJzRBzWNCzBSyi9dysluQgqRQ0IwyFyeUcuMOOMEvkQ3U0Sq3PfuxQmeWBU7xQ3lSEpaDT7jfW9gtejXcjgn+iwZ8fisdpqCwfBmXz/NxBg1ej9S5pjhzvpjTV7gJAqrDL5fQD3LW86SDBfTpvPuja0mL/U1OqQeKFQ4SaNWWjgiel/13/K3JKT2xINTnHccK4h3m1fWLvTy9Pb09PD0+PD48vT49PT09vT08Oz2+vT07u709PT09PT2+PD09PT69PT29vL09Pb09O729Pb29vb06PT45O708vb09vTw8vTs9PTo9PTy9vb0+Prq9Pb29vT09PT09vb68PT49vb69vr07PTw9vA==",
					"4FB+vLFB4LCSHROQ7A3//DnKbrLTcKq3Qsw2CtsDyY1xQqHDpIhpvedoeux3cY9MXqRAUuS1qRaUG3gbiaFtjlD/tJ7ERTzP94tnHfa/HmKK/oYPjyIIYppZmUCoYtMXAz6+LCQcj0Bfja0pMqtuecdDK80YUlindEPHfP+GQiqWL0LDlCbE53T8xSmvGtoMUzcEU3ERrwrjgrXYD/tlAJ5cdlNd0YNt9V71+39qoPdp1kqOJlWTXP7PO+I0XpsQx7Mp7qmNV6gogdqqaPqdZCj2OEOWQf/9wF294Vj7vAIM3ui79wQVgHu6jSYUdSY0f/A6Hkw2NYIPCPkokr4glvg+QF66Wg1Z6lbatNfAMA5XDvCZFxUrBLOiVBHHCcgUgDMxkDdICBMuuYDccooCe3pmLut+GIhc7IiG0sRaB6yUdH5UNpz7tmeKcy0Aht3xPvbw+vT29PT08Pb69Pb29vTq9PT08vDy8vT29PTg8Pj09Pb08PL09vby9PT09PT69Ory9vT08PL07u729vDy9Pj09vT29vj68Pb09vj27Pbw9vb08vT2+Pj4+vDy+Pbu+vjw9vT2+vTu9vT6+Ozw7vg==",
					"4jvahKYyZ3gU6bi836vv6yu6Clf4cIoEDiShpbxCRT1BxS8jmoJiBWzWwT10k7DK5+9gJsRL7M4nKM+/ZbgO8/Eb/2Z+p5TpzhPu+dI/7vYyvBS1vgCvi36a0rQBdvTnvDNF+zPjtWVGrzhd5DqAJW9X0B3HnpRRsMDiB8vsRjL+uSeIaswaf7vGspKaPlfkyGawFxGsuVpfuehOTLLwMk8sumK3BurcU/bq40XzWqlXgYXgyl71dglUUIg4HJ5ug+nPw0aY7rcL481M0QTiP3ekHWWFupxO/vFv9cOvWN2ke/BWGz7wj5HhFuIFOwaUlmGkVgEV0WoYSJybdk0VAPAmplcwmgQgVPVMdjNyBDu5xkcGdNQbbi8JMd6InXW8fU1+2A49G176lOw0f+FGJMZ7zJkxpqqzPfLQ8ks8ftjXEAjF1f+01v6uTER1PCYsDvD09Pb29Pr09uzy8vby9Pr07Pr28vT29Pb49vDy9PTw9vTw8vTw+Pb08PT28Pb28vDy8PL4+PD09PT09Pb09Pb29vT69vL29Pb09vr29Pb69vT49PDw9Pb49vL08Pj0+vb48u748vb07Pb69vr0+PQ==",
					"4Qx5a+69t+y73t90uU905z9Kmju5LVr6dALC9UzjWaM7HzGV3DB01zMjbQoaTyr+NNxv3Na4E/7+S8ShDeQrLQWhuhYdgIPZmET9pM8oNB/KQMjRwF909/OOzlJwBTBwE+FIl9X9pp9YQGfnkvFw3/+tVQYY3Cw+42qEENOWx/bRuRRYK211bILh0//bBqL+mDqkBQwyMcTTmSDtMywPXIafabamnD+Z6qI69+uFrE0qf42NBK6ZRdg2DRVVPwDHtAmLAyGVYwXU9ey1hvFsFhO6IjPPAmBWl8sx07V9Mb3GN4uJYFdHtkWLLLp4eigkeSAYML3bNvegu0LRLf4F60DQC7YPAS3XEHgzgpswDgfzOgt+t6tLva5itXhgGNINioZ0I7UWcLKcIq+LR2qpa7cKEKH0go0R+FD6kn4fNOQqkobVohBpW96YUg20e443uPT29vby9vDy8vbw9vb29Pbu+Pj6+Pbw8vT29PTw9PLu9vb29Pb29Pb69Pb28vr29Pbu8vbw8vD07Pb08vj27vb29Pj29Pb06vT29vTw9PL09Pby9PD09vD49vT29PT49u729vT09PTw9vL09Pb29vQ==",
					"4yvLlHybBV8hbb9rPbq3Rxc8T9gZZkpUvFK8qXdyDYTiz6uwoB2QMiyNkJondSVKsCm6wc/aIFeT1r6mGCF2S4b6FMW97jC0wAxslmbOUZLmB06b/+csDz34jUM544v82+aoo60X9vnUUb0tLLOLMMr04kDCrEIzq1+xt7DKd3eqEaEWgvfD99+rXFQ1jxrFhSMR0DzBQ4AoA5VFMCVVrDOcQ8A2/kLY6SqbL7btrfbwjFkfEpqRLR4blM0LdqSOqsuCOqht4iFzi9aWO4Sx5045URwsZaE6z+cYQiMSc5ZmgNKyLwCaD4lQ5NIQbIfVZFS0pAsjuI0MLjSktbDsxOxWaHZ2mjAMeqnu515IjaA3Pipau74JhoiC/24mGDRcbyUbSgRdq5QIvWYCoOefbb+ANSBevhDV+DGKN6Y9tbQg071ESHcONfiEzLnllPYVAvb29PTw+Pby9Pb09vT69Pj69PT09Pb08Pru+vTw7Orw8PT29vDy+vry9vbu9Pj09vD29vT29PL28PLy9vTw9Pb09PL09vTo9PT09vb68vT68Pj29Pb09PT68PDy7vry+Pbu9vL09PD4+Pj0+vDy9PQ==",
					"4cbHIT1yMxVFwiKYITYnTC7Bg5RtPiwv4/kmOS1jH1jb0T/pzAmxFLSpOjhJvXKC+pqLu/c8SQT7p85JPG2TGgq5V8Uu9uD1ufggl6urxG2V4UAs/6zUeWUWKtAR8LL6obUW0oDtlYpCfzYQW0MEwViFM6TR9MJA4jCGzx2QU1UDdON6x16xN0VUJwuRgAul35mU5L+GoMbuSDZOP8ur9SQiRRzOBU4WqVExnb5k4P7OThrFS1t1Ei4HwAzoqus7OVjcgvvhhWIwpJnH/RLZ8vGrAKdnOx9ampRTN9BmJTkLle2bvP6MQ0r2rnMrsJVTzsKbVt8HXilL5fyXC8xaPgGsRryX3GLstckOiU24xGw4eL3uD5z/bCB4IZkF1vTAQQhbwQY2xjJ1Hj8qubEi5o2wx2t3wBz2eUDYdgfwPry5hpUWZls2lkWPLgRi8J9yDvL28vT29vby9Pb09PLy8vb27PT29Pb26Oz29PDs9Pb08Pj09PL28vT29PT28PTw+vr29vTw8Pb4+Pbw9PDy8PT08PTo9vL29vT09vb08vL29PLy7vD49vT68vjs9vT29vrw9PL29vL09vT2+PTw9Pg==",
					"4Cgo/JTh22/z6VOgDcAsOobSS3mNhvppuSz5+n3HmI/JAjLmH8dC4YlTaq3oaN2GxiagP0p6BBxfUJOalxdKi9d6TE7iQFcNK2ANYtcsVjZBJFjZl925I+RuQNLkEghKhuxm1ESrLk/mvlQymTGuBacQw9z8xym7PRyJzmy5BFQX4/pCtrVBc1a3hgI6IuFCDIiBPXnBGeNcqcVt5O5VZGe+kYMWZvpAE+0L45Dh6Dp3LX8gkgohoVblDYNiPG/MdcKIz1Mp8ygSLgrfnck5o3m1pHYNSHPKEhkiACKSiFp4V1qDwhDhKTdyxYkLnQmFEW9Ny9MhDxlCcEmmL86U09PG0zqoBHHJOfNgoqeHdHgOvqNo3EqnCSaDdVRGN54PYJ8MnfMV0li1uthwAw4uvRbnLPy2jtnWzScgDuqNmgpzShswdotGp5CYvMl6kvBAwOz0+PL29vT29PT29vDy9PL09vDw9Pb09vT68PDs9vrw9PT08vr29Pb08PT28PT2+PT08vj08vL09vb29vbw8PT49vT29PT29PT2+Pb29uz29vL6+vLs7vb49Pbw9vb28u729PL29Pbw+Pj48Pb2+uw==",
					"4MX8bH5ucvD0f6aHGn1vnRcXFILRXOMZbzbPL7zOPlPiiSiwWMnx/JRqUwleySff3spA7A++iT2p4sQ+tf6TH0zEtaHYGd9GUCx3LjN2duKkG8USlw6YygHKHDkZ2Z8S7tlh/7xIgcAyxqD0yyJEJYV9nwDulZ2gs0tlpiwQ9k3otLNH0zsK8nDWOi6xZ1vFA0TZjy4i6ftHayxmaeuN3GUDNrlOCnXkjTOjrYndz8qcdDwWUxNu1PGRuGbDg3RXCg8ZOJii6fsOpoMXByQZPilf9Dp64KjYbNhkKOsodafYTty5OViijFB1CERYOsfIvjQcCR2JBiCCluIqdJRjMXiOh0rmUvoqlrzuTBZScBQTHO25nBppBVHzmJpzxH4RX2nofMxknHwdr14xrzJdv9i3sJ7ZrkJQM2qt79ApXtjoUxeLqaIKsP9GWT5srMH/Su7y7vj09PT29PT69PL29vb0+Prq9O70+vLw9vD29PT27PT09PT09Pb28vb08Pb49PT08PT09vT29PTw9PL48vb08Pb4+vb08vb29Pb07PD2+vby7vb29Or29PD2+PTw9u709vT28PL69vT08vr49vA==",
					"4MK3AY06kQ8Qg81ZSiVmVtcSUKrleiaclulSX/kbnQ4xbWr6AGwxW/vuAE2eJ/JV5Qzya9xO3+0WdmrWVuD/S7QclpijkLg5w1rPL2sVwNfr5oOMIfNCFe5rix29dJzz1ZXO7jye5qtehDCRbkELSO8RsyFEcoMgwLMmjtZyDwJGDLy6xMCikVcucqqwqrkQDeq7/tXG7xEUY0Z5pNwAfPLxlYMFOWO5vT8KLRP4wGu+85u6ODxphkY2gkZPwhb1YEu2slP+UqA2RkbPZWMkCJ5s52h7/oHVl0DPEetVL8eanomPOfSyGWR9pPS39NAS9jnQuDBCl+ZRJxwDA7bU2bpKzlzOEPxgwnpF4S1bHMBGaLSiHsZW7cSfLRK6sGbqpTrCgAqGRlQ+xg6TKhLWibbMI+R+sbKgXMBii3AXKybQci8duUydOMx4ZPD2dBsJivTy9vL08Pb29u709ur2+vT29Pb29Pb09vT0+vDu8Pbw9Orw9PTw8vj08vD28vL07vb48PD29PTw8vb48Pb08PT08PD27ur09vb09PTy8vL09vr2+vT09Pr69PTw7PTy9Pby9vb4+vr4+Pr29PT48Pg==",
					"4uCvZ7M2uV4oShY4DNomB/imuAb2gpxiF/uiU5OqT8aNZTcWg22tUZr3madtWtYv0P/mtBHqziarxNruxZ5nOG6M9CrJ2bfWy/a+AK38/UBb3m43NpwzGazFiV3Mt95V1R+mKVbVYTnHCRLlFaHRL03S6XIEyFw+rKEipp01UkkOT4ehtV7bFmgmQL9821s1zHoqsFC6RGgHjxx0P7C41wO1N6DhqjPB2dgZjeZnf1piamfmnNrjM2r6ZKBqx+x0HW1oFFI+yQmy9MU/QYzmmV4GvdMS9M/29agwhK5Vq2HQHeyXVL4vO3QKYr3ffgAddMEgoBsbZmxCiWN+CkTcxRRXwvYxtTh3AkhQNS0IMyRb6A7cTmvDbFk5jYbpqjbEgZdXencjMu24lXEKU3SPZNO1qozJlFi4A12LFwBKU0TuwshmqbZIHN2FwSABABawVvrw+PT69Oz0+PD09Pb2+PD49vT09u709vTy6PT29PT29vD27PT2+Pb28Pju9vbw+PL69PL29uz69vL28Pb27vLw7PT09vb29vDy9PT28vLw8PT2+Pr08Prw9PL2+Pb29vby8vDu9vj09Pj2+Pb49Pg==",
					"4qbddNCpKi7dOudCnja4Rs5DSqZRGFYkBOsgU6cGrTAO1G+EZdd1QNCjZnW3t81IQn8FdTw3vnlEfElnAo5hsXuW7cqNCRSgt/evPVkWeqxXNEkWEYARIZ5yX/LfKKC7wo3h+ChhPHqj+aUHDdeUHYoS+vfQQDIVUITqSlm6quC1XcqKavyeZ1OfN26J6d+Ikiq2swuq8BGVlUbkRhdQxQr0COWTi2gQSHRosoYgwSvDKFtAtBVocTorvJ+l7sy41gO0cSlmU/FngzzWgoB7ufDy+ThFgA3NI5DodUVsXj/MKlTa42oDB+w/qcZ1Rsp1tZcbHCS6etFgx7HR9sG6PQI/kNoOJvZ6b+ZM9RkxK4N/F4DxtIN57wpOs1+2R+6NqgqyXMHHc2b4PdWoGI+2xap0y3lQ8RU37AoKAHUKuLWJtqFvSIRcoIk/NtyxoroJDvbu9Pbw9O7y9PL27vTw9PT09uT49PT09vby6vL29vby9vD27vL29PT08PD09vby9PT09vDs9vT08vT28vTw9PT08O769PT29PTq9vrs8vT28vb29PT28PDu8vD09O70+vb08vb6+vD09vT2+vDy8Pg==",
					"4at/wJb9TKv+R7R5si68FoxT4kAZDiKydMGJfkmERabZWhq6QGyC8Zn+EZG30WyfWETfYV/vAZ95TGpQ15UUzfJiqsdj2lnRLvQkn2vQjd4z2+jW1Kr1pQA0RgbBDqmxqNH0SI2JstE9tFpsWo0GHyTXN3SRntdHaz5DwNqeqTIzlYA1O/RIV/CUn3FOnPA1bYU7z59tBjq5fl27zZK53X2qgtKQ8ZgBGzUkFqBsOZZAqFq4hwqmUvtebtTMvnnq6R+vX6jleAS534J8pzdph99uaZt1FAYvNFm5nG4yayaltjbECtpgu3wq6iGEPPs6mEN95RTJgeA0bwjsHJRrCEjmrl8SKUPgTB/0jj/iOOsSj4W7PBiDLvrYcAyih++cJbEHXE/2cvKMEpQDgbZpTChFSqnbcjJSgSzDRpXdiO1mdF6E7ot2Bf7MGFKegHVvmvby9vb08u729uj09PD07PTu8vLw+vL09Pr09vb0+vT08vT09vD08ub67vT09PT08vby8vD0+PT08Pb69PT08vj0+Pb49Pbw9Pry9Pb28vT69Pb08vT28vby9PL0+O7y+vb47Pr09vjy9vT08Pb4+vQ==",
					"4/pd1AE/6N9QcvMEXRZ5PbJRtfupnmJh3s3B6lVB0tppAgWWJeO6rPhsgf6IVb81hcf+USA7V4Pv/lhBfvXligoK0aH1ENrfuVxUbqPMUv9E94AmPqeVqUGRx6isEAF3x5Ku5j58uxd6Eb56ctoWrcdlBExmLmlEql5slLq+oUhaL8POtCgX+GRgxVqkf+Q3Pgb+LK0UVUFOqQKf1gIAtvXumt9BJ7wf7j3+ZeslnPXwwfmYRtDqG4+PcLGCNhFq+DPEOxZbohzVj4DmiUGZRNeWhUlzVjGz3C7y8LGZ5PvdHFvIKKz2Zpo4LMPolWu8l9Yfaw6Q8AwlJrR0qZ5WCtLZSQeoGiwnnOMENPqKM2rlvFaweZ7C1BA/8t27R2uoM4Y8wh3ybUcb+s5svbRs8rKInSJiYLJWvLzrdP/DdAUrvhcHBMQaYALG4i0YDl5uYvTw9Pj69PT29vb29vTy7vDw8Pb29Pby+PTy9vT09Pb08vby9Pby9vT09vj29vT08vb28vT28vD09vb09Pbe8vb09vT29Pb49PTw9vL28vb29vTy8vb29Pb69PLy9Pb49PT08Pb6+vT67vL08vTo9vQ==",
					"4HD9oNvq2I+ZCc91b3fs3ydh0t2StmwjUZ9c7zNlIjNQFYy60rn8WyGf70z4JYENPMc8bC3PQsoVTWJm7fAZWdZ2SjxWmpzYzC3275ZpAmrAY/fcmcokYlIhWdm9wvBkeJr6BiT85rA+nNa6kD/RDCI/oBuwNCVdDS4rlePnPkGMv7fRlqzhK5Fqs2WIKYZe5AWjjOzeha4qqWqGoU0W3MiV9vxma1OyarVVM64T/oTJNyPL45ss6MREm32XX6gMPXh5dzEIHzIj1B8TeP83p8/h5f//CKpXenQ95EYaKw3QdAgi/pr+iNj64PUwj75DtsIMdt1Vedq+8rbQOMw+s4OCgTxqkQECqyIFmFVjxxzlkbY6ufaEXeFRXHvj2Cwm0Jpe5IIL2ZjgMKAwiIc4UBaq357qgPMDJbt62tKb9XWuIKVl4gCUem9FqKbI+i02xvb29Pb09PT29Pb09vj27vbu9vD08PTw9vb07vr0+PTw9vT68PL49PTu9PD28vTw9vL28Pby9PT09vb68PD6+PT08PT48vD29Pro9PT49Pr69vT08Pb09vL28vTy9vTs9PT09PDy8Or28vr68vry9vQ==",
					"4EjS4AXdZ3WR4Ra7VxWuQyWgctZJAZz6ttjJPzVkRReVP6E3hThW+XuArrXIk6erQ6pWng/9DMxcVFjm8cwvvoww30rVP0ArtuFTsEqJH2HMlpv8Z9nghVApA7hFy9OZpeN+UJ2TfXHvqADcH4TViu6n4Wdkd5Ri60HisaNzJdXjzszxkThlNN7p4jOylJFr+Pd3NDQOVzx8vY2Sc4z0z/qAEfwupur81e552TZgxYMLemiDnimrO6/0RAYRQKnatDtAY72Jqs75O+W868BW+ktdffZeTesiR5Or8BaR++V9ZVqifh9SLq3j4qkcCSQKrkaNfK45XrVz9mEIcPaji1pmhhSiZy+jv1lJxvoofG6oSANILnaMi60PPsNEnK7y29JiBZccy10ifr7lmjahxmDyhDDJL66JmhlcX5Bt/B3c4K4zcI8ccPG4qwDdCjgaBvbw9vb08Pbs9PLy8u729vL29PT49vb27vb09PT28PT29PT69PT28PD29PTq8Pb28PL48Prw7Pr08vb29PT29vT09vT09Pb0+vD09vb08Pr09u769vL29Pb69PTw+Pr49PL09PL49vr68PL2+PTu+Pg==",
					"4Oi7E4bnSySCv7gCPFUZZ/ef5sCWSzUANQR63ku18gAK9qGngPtlyeR2YHoD+DsXtKlUNX7JWtI5aUPpFvjUygWOKdtDqVSf47FXuQtUBJOAPUFJ/C2IoYTZefrABh7nXOMATDsc5IWIRd+EUvS1RDb8ktGfQUQ5wBPAjOkSTikeeGooqOLmT8WzfzY2GX2+a5cld1Hi1ifuhapFtQEjEt6s7uIJ4BUMcA+pJdcbn9xSbUJYAJCp2ljUKbgvl4cHBOzJsqlCof6O+il1k09dSloipoz2w4Xygi6mLW5j7e4Ezph0WE4Spph4ZexbVzG0H4KTGNx1+OIdn0JEBB9mNbbo8C5y5Anx/j/hmNq0A13MAItgRdxqiDjP3W72S6aVBJivOE64Ild797l4p8Zus89c85wCfJd8ziIB3IwgHhPdi6zkMQKCM+7SEwcA2uYhQPj09vbu9PTy+vbw+vL07vjy7Ozw7vT08vT28vb29Pb29vD48PL07uz08Pb09Pj07Pr68vT29Pb69uz09Pbu8vb29vb29ur28vbu9Pjw9PT09Pry+vb69vj08vL49O728Pb0+Pj69vT09PTw8Prs9PQ==",
					"4zhO8/wYJmsprqi6saELpe6enS3oXk47rLVQmihpPGIw+Xqz/h+89LVLAVCPoG8pkTPNhTuqIllDxll2PsoB1tyR/gHN6JTggWU/fh1GAGKQoapcYCj8N9T1PM2QKGn46Zo55U9oIkT/CAyVBrWAX3vwSPF+WPSb/Cr4g8duHO58ESXd7Ldrzv0Sr3WRGWJfc85oRi4mumxj9EfFFfg8YNafCPKVgIrlKZzG8ZaAbedmP6ehC1WmhF19qaCnNqHrjKOf7ZD0but5fHVn293l0/NvO2V6gF45TBuMlYMHbzb4eS9wuOwhh4CcVfXuBvX7Nie80kIWAxc+f3Q6WKIACX22uJhfFqubJjL2x78dhTARIU3HpPzHAxtqgI4VLFM8aAhZShpyILKCLDxngubExI5mv37cWoIr/W7myFwoYeBKNECMXh62ANEXI0cxSRzwXvr69vT0+Pb28Pj0+u709vTw8vb09Pb08vbw8PD29vr27PTy7PLy8vby8PL09vT0+PDu9ub0+vT28vb09PT66PT69vD29vD49vT09vby9vT49PDs3Prw9vD28PT6+vj0+PT0+PL09uz69Oz09PTu9vg==",
					"4waneTimfpk5uCVqa8ymq0NZ8CBPFguWuQ6kftC6Ob5U9A/cgYd0NvelJ9XG2IkQXIKDiIYeWopHbp2xjIanBApcofUQU1mBSThDr7h+BV+pOXtUlS0Se2+PK7HhT/PhctzkuebsohRSt7HD3LQ4225Bg5ZPgOFm81E2JXhlCoQnJ7dd5Jm0Rsi7Z/uxanzOc6tUOPWBIxBhbYNMWxiom1f/LF7Yz/rzVGNK5v1+v2bS4lWqRlSxTBhiywg8eWI/s6bo2W3WEtibQRXBjBQRQRxl0oPlQwqefoPGlltVjZZWFC084nMlEpoB0GwSDH5zwPelL0lRd1RKTrikVsnoeEbyXFmUNC1EALmCZmouQ9ODqpebuATuYBWUWDpbJCDlgwO4NhEBbNYKpZ8OZL55e501FisT5qZ2NvgFUB3IupUIYIqmlhNW+CFAjqFtootwPPT69Pru8vD26PL28Pbw9vT29Ojy7PD0+vby9PT29Pb68vL46PT49vr25Pbw9vb08PD28u746vL69vr27u728vb29Pj0+vL29PT49PD67vLw8PT49vDo8PT0+Pj49Pb0+PT69Pbw9uj49Pbw+vTy8vg==",
					"4qG83thj/uBC5ZZK8gN3nXdmwHKAw8itExEKNJLvaeS5nOXjPCLdSpMNmZe6YEYAuO3y/xWBq111RwdFRweMvRDVjeQfZYtjG9UilsYOjBCmLHh+1P+phbKRtsnKY3m8GG5wn8p2I1Hk5mULEjMLpBMoVUXox1TkYCPpekU0DCNdVfL/oFt601+5KiPtd1qfa/fnJGjKYoHrVXJNl1353AChQsJhH4lWnMa3VBeGowj+svj6Sy4B2WTvVaZ9ceIrDv43789tefUEPDxbqhnULf76AE/v79ddWCwDN4JcON6GFQLn/bZaiKPxfFZ3Ml4kV5sQUEnMP0zAM1R81AjqBJ46cJESZyyr1VCdrX7A5wDXICOVRVVCp0hdy7UQYTx7Hi6KaFqxA50INo9YBhIzcMdAADEXChIKy810rmYVCQCUQqBtlD4r8s5xESrIUGD1Qvb29vLw9Pbm8Pb09vD29vb27Prw7PLw9vT09PT29PL09vDw9vby9Pbm9PL09PD29vb69Pby9PT29Pb08PTy9PD27PL09Pb29vrw8vru8vT69Pr28vTu9vDw+vby8vr2+PTw8PT69PTw8uj29Oj2+vg==",
					"4p4UfVe89GrsGBOmHX/pK59Tny0nFJkJqTwVEXXP1fg70niyzz6LelNqzU/SywfvAVjsqX+rmEIkk9cUuCfOyVoVGukAj9gePu1OxTVMavT7BPs+gm+WLIroTHNARBHwyvRrieW1vCfVV+annmA5AUeCYRe4OcgCdRbImP152zG6RurUAZWWbUe4JR/W2do64hYzjsAv6FlJoV5vgbHJ97abNaEVSc7GgeQuuI5rt0Vk4Y2i2fjaIZO27DLcbi7B1Rbv1DtgifVxUSNDXseJVbnhXgBg6UjoloSmEoeypjGczCsMFWw5KW1ysoMLwn+G8Lh2bz3AucMqSJYtd0r+nEA+t5gsO4jtcwX0MYVmG17GEPa2DXMv/ZLizQKKEWziWALysJZ4nIokAoLzPHQsF3FOBNKp8I2asGd7N/xCT4TylIbez3I+YHvECejeUj44GPL68Pr29vb29PT29vbw8vb4+vb09vjs7vD27vb09vb4+Pbw8PD28vb29Pbq8PT09Oj08PD09Pb28vT29PL09PDy9PD48PL28PT29vT4+vT08vD29PT68Pb09vL0+u70+PT69vbq+uz09PL49vb08PQ==",
					"40JwrbGcuXXt2JEIdPYHV0gF6mXmeV8S7bk7TDMMmjtKaS+f0qRrbeC7oNqoDScIu8RMKstIivjkmxtNCxrAUmX5UJH6BjQouNVv8AxNDHZYNX1AX7pkaxCp6AXfpaR0tuPHJZWySfHS07D1oRWw12UiM2GWeLpGDtJ5qM8UgTn/nshgONkuplbwKOQKMTVIVx+3gX9BTYueLk8GLTJ74RfIYpoEIR+irxGG3gRDOgGqL1zCDWK+KQ9tGghi1LMWIfVnOyF8sf1kYkYpIyROA9xGsI+T5qiexAlyys7YYJOohTSc4q6PBVXwOQRFZOYw41qg9hQXvs1Mj0PfwVsiLjk3H/JzZiuyqbUOyCB4DNtPav8kF0XsiHpL5QL3i9RP9K/YCBmee26CZlkwLD1qmXyidpQ9mjk/J6o7TzBWoIkNE1QcgKwHtUtcdXG9yL+tpPL0+vTs9PD09Prw+vb09PT09Pb2+O7u9vT29vDu9PT28O7y9Pb29vT2+PDw9Pb28u709Pj09vT28PD49PTy8Or09vr29vD29vTu9Pr09vT29vTy+PT29PDw9vL0+PD0+vT2+vjm+vbw7vr6+vj09Pg==",
					"4AnLRQxGwCFr2jlxlWF5kIbJfWCvEkU7eFXrvs2csYmDqwNRiveCyLIzpjZ3LrKSM9MTWnnZzgK3j8g1Zu3jrIrUpMC+5bJFpCZmG2Op2cEUeRfnu5u9ApA8dlkWyBvCizFslH18uyUlK21ivGTk6Cq648nbq6nEGVZQcfc4A4SJVvQr49nrsA5xtKGvKFDSneGediONIW5Rqep8sXUWJFNeB1HtlIXD4z3fWDRAjyg0Ne3NdDyiWJbKUvZhKK8Uy3oTWWibqAExVKihEmT8cVfNuIZRefMZ6ZFeQDqzh1HBNV1RPkhgne5mLQ47+BuDeUI4YGLw5wBRGXxh01HGrvBtK4gCbpoo4ugqP1FqvrIjZoPg0bSC/KEebywGtALch1jgoguyhnBT0vjcq/MDUlQs9M/DKjRDM+Iv1HEQmT46TmAxTnYYJZ1988s6R39+KvTs+PLw9u709vT06PT69PT29Pry8PDy9PT09vby9vb0+Pb09PDy9PL0+vb08PT29Orw9PL29PT29vTw+vb68vb09Pb29PT0+vD29vrw9PDy6vb48vTy9ury9PT09vr08PT2+vT04vj09vT09vbu9PQ==",
					"4VygeW3vuV/HsS1PHMO4zVXUTf8JUPiPdL5+rP2pqI8SAzv4Ci4bK6LYswvONZ+A0jgXBNrjvE4YmNSTDs5bMH1Wc6mlbEJqXK1WkXjcAAP8xbh0Zou07I0kXzmI41Fb5YFWrupSwWlbvNXJcBshUKOTxhzFJqAGrgz33GUkohfdhSifEiWIz0whz/CXgDCZU5dZHArcCCFAEKTEhvMf2TTELQf8GY+eUas8W9t4zy/aJXFcKEAhhFjzkrwaaoOmNidrVEiKb0Dxt5zbpdnUPx5UdagsECbrR4FuwVzTXxI/uXqWHipICiDpMx0D5R0UIO1sDq6zXIoKubhWOABH1+XH/6gzgCFuGwvbylb61P+GopoyMLcOC9aqUGhH/7xp+cN7LkVyzNAjJAI4eauRII7rCymIuBkInjWz4MzKDvWg+Mobb4AIGwZhMgeCQgFPHPb09vT48vD09PL09Pb29vL2+Prw9vT49PT09vb6+vTs8vTu+PLw9PTw8OT09PT09PT08vbu9PTu8Pb07PDy9vTy9PD29Orw+vLq9vj09PDw9Pb29vr68Pb28PD67Pb09vT09PD29vT09Pj09vT27vQ==",
					"45Si7fE5Bm8GBhcTcuh1MszKrI9uj7SI0/Y7W564XNL47/Tzvz5/sJ5WozxUoionPfrnKEYZB7qSAGeRPC0q90AN8ltqTW5zSpTBQQs5ROcduEHl5DX9SPbZUS+HCysO8fLfzVp/MmA6PtFhk6Eo9i4kawkFv5S+4V/GabOLS4dxAggkzTqfA8Iv2uCsuaQrqAmVE2SAeHA3730jURSm9ystPtrqkd8rYfhOmbnpEODdzUsgO2pCMIIzrDkmzpnU3uvrHhRUgh6NBtc4a5muw50aDHGGuAiodO1u7jsUWmwguTQNXLluGxYQMaQcCKUoQh6qztbqUsMeHE2GHs5smbXV3QjfSSq6BGiiHkK2k/0yp5DSItMWETK68gq1aRlC52qd67aZAsKYYXvVML1/qwQkHo56bKu24C9t8P6iD182THveuPdHPWOLDHrJSllojvb29Pj29vb09vj0+vj28PD08PL29uz29uj69PTw8Pj29PT27PDy9vDo9Pry8vby9PL29PT28Pb28PD09vb09Pbw9Pb28Pb29vT28vT09vby+PT09PD68vT49PT29vby9PL49Pj29u7w8vb29PT2+vg==",
					"4tLh7yXRFAHlicHeOF0PSkTmLr+74dz/qFj1SL8+z2zsh4L/1KLYGYs8Nz1vE2y/S8pg+lek6ogojVS0GNa1rxvPMt0KQSB5do/e502xKhaEBvbixYqh1Tmepj/GK8a2K6oTQ/NCdT/oL8Hc1U8iTVGABtJkGRkZtGxWYeQhwCALakVFBLGKQgWCVLIOGExAgF47XP2LYrdIJLoCeFBF19a3YhyXB6O8R3cjmZFv1Qwpy8Z/yGdLzMWMVJKwNwIuYmI5py6ETPVlCyZ9EuZPmWJCMIHBDWczxx/RiO48IoEaLKnEoJq8jk4OwAH8Ldoz8qy9RgZi0sVKReOick0vIvTKW3pOfIpcaWadA8i/MxiWXmCEZLxQpKtcshcHnDVRJ46/Us1y93B0Dmocp40f1fxRMmg8HnQUVaQcpvKU5t5ZRhc5fztlkcJnEC1mMl0VoPD4+vb29Pj27vL09PT29PT09Pjw9PD09Ozy7vbw8u70+Pby9PT08PD28vbu9PL28vbw9vTw9PT29O709PTy9Pbu9Pbs9vbw+Pb29Pb28Pb09Pr0+vb2+vT09Pb28u728Pb29vjw9PD09PTw9vb0+PQ==",
					"42MYve/Oe7V2ZxB7O25g4klHis7wPaGNmOpm9MtLUOkzBFeov9+ZmNp6QpnNxFywJJ3cpK10fjNUygkdxdhH05DSSqRR3ZFJAIcyIruB75C+ZAGr7M/alaigso0rBOak4pBCE4ol26CRFYcY1mIe1O5OcsjBW4/6j4svdFVJSye6DKtR3wepNeXfbp1QEmT+CjqXNsqmjH9vo7w+LJy2sk8sBm3CPq5q8hIIzDtex7VTj21ypFeB2ZPuAqV4s3H7U/XcqBaijFfDJblCho6/+LGsfevweGqj/WmuBbAqhSt+ctomyXAHWLqymhR+1ARZdyfEIm1uAODj4l06A/7aATx/tPnuXvKLoWAwiCO1VA3gIlB8A00PCF3RwuRTdyrEDndtFe53bjKzVR6q7tCjJJZ7vA9KNBHIgUlYgaDgtCu9a8721g4Dc9KMVgoyR8ssPOr09vb29vD49PT2+uz4+vb26vb07vLu8Oz0+PLw9vT08PT29vT09uj68PD09Pj48vT08Pb29PTu8Pb29Pbw8Pb28vr28PL28PDu8PT2+vT29vb29u749vb27vL08vT69Pb29Pbw9PD27vr09vT29vQ==",
					"4GhhOgi17Byl/uj5BXk0VHvKVU+Z9ujxc2YnsCmW6lORdcXgy3z8x010Ydk+oqC65mMUWL6ZBLwl3ipAdYRjKQMFINYx7OcWGuMcgdIGJakdUJ/SqM64nIWCipS/KT0FWEfxKoer5Ea3VC/dk1SroFqre7Iwt2B9FEpJ+cfQA4I3tkYRFk2vsuUyBuzHv6vBwFAwvcMnkTQtUqorlt8m00v9KUIpquapldrhjJ4e3avG58X7kzyHDqydrkBGzrT5Oe5gHPzmVgISG+FT8YDN8Bw58P7L3Y/L7DwHmKDRQJECtQMTK5KigtPChlAARkcuXzIkigjPFpwZ5j9FmGOPZpVksrm+FAAHijGRJoRZ+mTUeVucQSO+kmF0smWaW/ZxKyQHQ447kOE6y2aGmfB4vCvmIxJTaA4yrHNKzBare06HNQP4OnAyuiLh/W0wV7y3gPT69vb08Pbw7PD09Pb28PTs8Oz29PT28vT29vL49vb09vr29Oz4+vD29PT0+uz09PT09vT07Pb08Pr09vDy9vj28PD09vD09vbw9Pb69vL49Pb29vT69PT49uj29PL09PLs9Pj08vD28vr0+Pr07vQ==",
					"4rMOkrzBO1irXKGk9TMLffdRHRnBrILmu1gmtVfz7Jp7/XWZ6W/YCQCqQfiwIO8Bi47krmzxUtWVTba3nQhf7DWQuuFnRMZ5jUQwHHAB+SeRXXy6sr3c/hP/JVr2Z6aMSXs+Vu+FuHafT0a2jk1pn35RN974Ritvosh/2UC2H+u0haFMaVu+Mt6Kz7xeOKel83JJoD4bC5DaSqRDEpxCMkzqkV6EjoviFqZ51Y1RBwahcXPjNKtb23pD2FoFCi+pe3voROWe4ePufurOsW0QaKpV+6Dzy3MGLwMaNVVCeKGNW/sSmZELJBiJlRabpetXtCzpHl5UpYN2dJcPFNuMacNJqVTK0qecDxzVEIzBt20NWiwTImCULVTpeqxk89KiE9l4Hc/WPKY6Mf5CZ/sO5L21rvgq2cpWUmyIpEoSRKAek7B6336GVK3BF7hl/7y8UPT27Pb28vb2+PTw9O726Oj09PT28PT29vT26PT66PT28vLy8vb29vr0+Pr69vbu7Pb29O729u7y9PT29vb29PL08PT09Oz09PD29ur29vT09u72+vTy8vb09vj29PD09Pb29Pby9vb69PLy+vb29Pg==",
					"4t2Cl+0DxWFLVv4lDVmJX49Py103DMNFLsdUsLlXhdkNzpTp8r7fuATUHpdRkDNIc8htlTPjPG4pyzDKBHFBdj0qC5VvUdKzYX0BPsbB8JJHItXR7vEXvcDv+52f91ulYi+wQHRW1+OY2FU34Cof+QF9mxBX+4A/aBwGCIuwsd6ZGaK1LUV11/0ZYAZfsGQdHNUYh2cFbZP1S0VCvqbOxaT9704NUbgiUwA2QEh7E1gwXVJ9t6eJbYsFkSd9kv8HEJmTSmdPTtX045VyGWJxCWnTYeaH2lv2pIubEtfL54UtJuAtIWZgYK90R5ClZ2ZgS0CPyv7DDC9zGh76Vl9a8AvIetk3pMPnCTXfosJojoHVxplOf/BHb2SSzG2kp07Pum3tgVDTaoLHEPkky7gB6kKZavwRgFNS+jZwgC+7gMle9hoaRfrGtBx1ixwxuPF7svT08vT08vr29Pjy9Pb29vj09vb27PL28vb08vT09vD69PLw8PL07vT49vb29Pr08Pr28vby7PTw9vT68PTw9Pb09vb0+vT29Pby9vLw9vby9vjw+uj29vb29vj45PT29vL29Pb09Pb0+Pj29PL0+vQ==",
					"4+fy7akhTGaFEAObqxDf4wIwHO41YUi65De31uHlOQs9KKXIUD/MmXyO8rnUk7h4vHItjElFav8/7EcPEzTZSGDcjLICWk6iFjl4RcjD4g4hMTJyPu95Oo9CEnnGSGyj/7U9FvaE0/zax2dIhNshVCzzXo7Bxeetm0junti+igjcgeRcVgSaPdHVBJzKvNKVu3qs+4lZN7lZzeL2uyGnAphoVXlUmfR794yejtfkUUWdMuvFdmeEmuDtEirn1WPcvNKHO8rrHjl8IRUI79kzW/K896SbeO9Yb+iH1vP8tfP8+gi1F5IiVV2/8MLWWvSDSL1Yautuhu7GcEUMX1TEGMj6MzJbTQKDvOCAPlxCk71MpvsfkDx+7lSVHgRNKMB5YxZWLjIbOSgZRomd6aYk7kWqa6x3XngCV15UZ1wIjhvVUVtPr23lidZWo8wTIty2uvTu+vj09Pb29Pb49PTw+u7u+vT08PL29vL29PTw8PD08PTw7PT28vb08Pj0+vbs9vbs9PL69vbw8Pb49PT09Pb09vb08vL0+Pb29PT08Pb29uzy+vb09vb28vb09Pr48vj08PDw9Pb08PT09vbw9PQ==",
					"4i1wT5pN68ozS+plUeIP6PIXW5uyaxRMEyzTKxUTmMFrYvvk8w+ShbLPPOXstu5OYbF3L4TUVSspN5hlsJuCFo2SjlMViKbhlHkd2iN4mVy4zQ4kyh6D1YOi+zcYJsc7RTZIHHuRd+43LxJpPMEBmWqV2OJVE7ReDupo5sn5ZJT3VeyW8KVKa2TM0cJMtxnyeMBcPWRv72Q2waImnReIMudEsgwnhT/JU9oLHmzVb0YrTgrZisatLM5JW09LePpYkoBMuv2MV8/8eIjq2w+Qog2RWnFEQjRTdKAHKvzD6xDfWf957HofLpT7XPKUwGgQPhL9Cg6iHpFVDb2yeiEEzAxQkEZXmRl+5XryxbUHljpE9Ul5iabdOjld1RoduzQT+A7gHrCOGFMEtiDhAmI9L+DePy/YSkewKwbH9w0/wYrFYGwUtImt2tELOlwrArTFJvb09vT49PTy9vT69Pb0+vjw9vbw9vb29vD27vTy+vDy+PL09PLy7vDw8vT28PD09vT29vT09vT09vT49Pb0+vT09Pj08PT28Pj09vbw9u729vL09vTu9vT09vL09PD27vbo+vT29PD28vby+PT09vQ==",
					"4r2GgurQOGw7bIk55tyXk9ZJ5gACbJOBmuEjRzRMaGYihX7z0p5wxyepuPZKiXlozwRLO6L9kD+ShrXjConKrOJNJuvURMJjhhr1VWPmyiSzwjIg5D1sWiAuZK4i0N4/RtCMvP4W8R9T02UP9VJiFU9UqqUaH5m5dZhh880vQYNXiVT3W4I7CnRUYcT2O9uBvivpuXXEEeynn7lygBz5rkBjWAOmFSDRmylkgmx4uHEo//NeCxMGXpVf/Ws/0zcvx+dwxD87gWA3uP/b/hoEcBIFNFOdUt7fDwxjjWCXffW2GAsBHEUyXSTp0gx6hxNw6r4ju8AnYaneLupwS5f8ubalLyuJPqJfut58BcxLmCf9Fd0WbLI02vX3fja9sF9RuhNN6h7w8YIup/ivreq/bsoGHkt2+jIoaDIGrHqsUQOoqpHrWqcI/b1MNCzUN/zfIvL47vTy9Pb26Pby9vbs9vT08vTw9O729vT09vLy7Pr09vr09Pb09PLy8Prw9uz07PD28vL29PTo+PL29PLw7PT69vT06PT28Pb09vLy9vT09PT29Pb29Pr29vLy8Pb48vby8vbw8Pby9vr49vbw9vQ==",
					"4LUM/PLuK40tfffst5EcJYJleOgLOxoC5nDX/BXaroc6EUTn67LX7SakyDlgUzaLu3ST76OdCF4+zezg6+an8sd7Qq/XlJiyYp3UbnWAFV7GC6iTMYm+TAikns1XbAoctWGKDtktNFw2MmlThK6bkR+zp3cJrwMeq+HyZhobiDMDPi41acdoCuHz+7erxUd6csuBXlvi0OSChEztWvsESvO29teJTxFyimB54fC8ZPFvXJ7QqoVxuOZZ0FHfivv/M4rc7fIM/nv5mB5X/+i4HmoyHUTaUKAuuhtYqhO8XWjTnJisL0mKY6zv5I3jF45fioin2qdDXqSYFpkRbR4IyCNDKr5oGdR3N/1iDAuZFatacriB2kLkBfEbsdUMiLNiBHc4/mL2dXiNdhYQlSAdoTquUGZbiejnvPNUfgTAvO3A3zzXXgwNeicURDJaPFIcRPT0+PDy8uzs+vD28Pby9O729PD29PT29Pr29vL09vD09PT09Pr09vbw+vby9Pr28PL2+PT09Pb07PLy9Pb29PT48vT07PT2+uz29vD0+PT29vT08Pbo9vT09PL29vT47Pb2+vb2+PT27vr68PD68vQ==",
					"4wwngKWgPJP89tCrcFOO56NPlWFg2gir/RsVHHGJRFPUK6FS89AtAFIAC2CddlmYdZzIRIBBag11dQ0JLy6H3CBGNvp2wJhbKhsr9rpP7uB6x2KwtOplqxEBX48+hSQc5KON6Ny2jC5a0+56arwTJuGFBjF2krBaUMMZNSgu+B/ifgJlnl9Tya1pItcMvKFyfTV0HNEphWTXASbXo7BudOcoStbSpvy2nS1bPECOBEYfs6V6+ElBESwDDzjPFNOAUeF7/uLtyrOjhQkwdl058+t5Am1lvwy8Umm/l0stKoap7EQ6ZQs2IOEQykmfFO1nGIRAJ447NALiqjmO07eFPuraw1IoDhsSqr32n34IHSsqTwwZnsyBEkMev0djI2KYRJKo4j9oLtDbinpEbRghOU1CWo0vJDd9Aq6P414fgAiuGQD59mmwfo/v5hcHGuGqDPLy9vD27PD68vL29PLy9PL09Pby8uT68vb29vbw9Pb27Oz09uj28Pb28vLy7Pj28PLw9Pb09vT68PD29Pb05vj29vjy8Pry8vbs9Pr6+vT49Pb08vT68Pb29vb09vL29PT29Pb08PT29Pb09vTy6PQ==",
					"4oS4pN35Dd/DFuMvX4+46nt58QzyrmJiyV5VfJO4OdKNZS5kuoR/CE+3Sg9rch3xZMxTOT2q1XW1OHVMczlrz5+Y+Y4AwR50r0gRlDscxQ0+Btjz+EbZOLXTNOThkbWUf29TMLwq4sxXjTSWj/COG3NbwLgf7/SHR09uun+URHQB6MEm1rO3Sm9TOM979BugnKbHBayySO5/qZhsrRbmLmIik8b5A0yI6YTwaEwnTklHYguvl+cAzVUYBHL07Cd565kpP6wyW000XNqcG1ZZu934Feq4RuLhiGMq9v6TucoZCkIQJs8FmNCXHw3o8bIeIpU1sDf8lHDw8IHAhaNIQ9DjIDDQLR+UpE++srKK0+pLVgfKTqKjw6W2NQaYxlKe3+txysGJ6LmtTrteJ/twsyeBAAJusiBBlwRT7Glim5+ra7eooWFdp0mSfRIdbMJKuPT28vTu8Pb29vD29Pry9Pb09Pb09vr09vDy9Pb28PTw+vb09Pb28PLy9vb09Oz28vL69PDw9vby9PD08Pb29u7u8vT28Pr08Pby9vTq8vT29Pb68Pb09PT29PT69vT28vTu9vT49Pj0+PT49vbo9PQ==",
					"4JwT1AJc9kbN6AFbqvvw23F8DO176PO4ASWptAjcBTFz0dHUkH/1wuI3emUBXL/DXxakdRMZXGlSazuHt6Qlx5kGec8MvhaR2MS+6jsiXodPoV+Ssar9BcZKzaqd49zFeGa1CDVfjsu5pWw2WieCahlXR0j3HO+bGQvoHTMZo4CGL9LpWuA9YYIXTn6TKN2V9xgekVlcl5vV/VCdYt4jjjDRkj/Col7pnBUAB/MKa4WXL9RmwYNvZtIrbdPoAc+gXRLhb+qoJQ1bhWIas+QyF25th5Jve/8N3nrwbfFj50+9PjghTiIHzsk0Poi+KSBFDCz2vnhi17utQeyMu9UcFlhdlGLwirjl3+raALd3CsLaegh5qFRXe+5PSvZApq8l0ixzBMycrITWib9cVGINsC0hkyjMRIvaWFZxcyYOpdawhKxbcuJhzkDUIOQmTdqb2vb0+vTk9PL08Pj2+vb6+vD29O7w9uz09OT28vb29vLw9PDu8vr0+vT28Pb27OT08vT09PDy9u729ub29vby7vb29PT4+PTy9Pb09PT69vD08PL09vb29PT69Pb28PL29vr69O729vb09Pj0+Pb08PQ==",
					"45L/QyH6Wl+SbUPou6b5qWDxTUazsw1ubXcfAePscLwhwic/ghgN32Xt/JG4yJwGGCfsbE7zPSXWRQ07qdNOW6mvIJiUYqXMjRTC/a7xltpJWWpmIRndp+uOIoM5XJM2hiDqWDA7VDXmGTD7Dwtg00orjugLYK8IfoYOtpOMJMUPq0udVitX2hpSgUFiE8WXdK0RT9HAAmxr4jP7S3RKQz7Zr8ZCIEANyuB9nN7cXkeuZQOplh6BHD9lJwIDSvUiso9I0p0E0BAEgPfXkHXcJRmyPlGNjhrNa5SZm3g1xqJx5MXN8Ag3RJ36VEPGdHgiqlz4JkFmCYJ3LAKcToyDZ5z2VnlS97ikVO5tAFpU44vkXl9ORdrInNRiwxrqoF/ZVkoXuSin1m7TJiwU2OiYPrsgoxm/PHg6hu/IIMteNYQp/n0F0KdZSKmrmmmIQ3qBCPbw9Pbw9vb09vT09PTy9vT09Pb07vL09vT49Pjy8uz08vbw9vb09Pj49Pj09PT08PD29Pb08Pbw9uT29PD48vT28vLw9vD28Pb2+Pr09PLw8vjy9uz2+vTu9Oj09Pjw+PLu+Oj69vT09vb29vr29vg==",
					"4pRLywLSDX0OvTbis60Xgdes9O1MW4APvCddlzpEc1qIQvES8lUcl1FBOAFRzQb3eW0vB7xRb0HipFxDOzb7M9ZJgyTIr7O9M7eFZZWU9n0ocojWIHuhU7w+x4d1MOdhHt1G34pd5Gm4JD86iaMZ9xg2WMdfRZ4ez2rItC9wuYnJotpeX7uQR2GPhf8A7kzpC/dNqkIbQc0X/5jW/0z97roSJTkER6NgQdGWdc5+wyIUY+iuLUDCIPJv3lcFrDGCmH/tLoe7UQmfasYUazAFC2X3S57C7WfOhxe23/Dv0Z6CQXDj69cUQHDOBtmldaWYANhscMWkW8eRWiGYIWFfMGHO0OE9gr8F7ZeFgcoA7NbWI47dJpzqg4qatMzx2L7qtxGoARYsBgpq7Pg8HnvqGHKjp49YqtaOuPcw7EDyzpOhfEXTzX1G4uQAwNeSKK+KOPb09vTs9vjy9Pbw9PT2+Pj09vb68vry7PTw9u729uz29PD08vD09u7w8vT09uz08vTy8vb29PD29Pb09vL29vbk6Pb49vr29PT4+Pj09Pb49vT09vTy9PTo9PT69vTy8O709vT09PTw+Pj47PT69vQ==",
					"4RXDTXpc5V6Huu5W9ulM2XIdm9dLLavzDF8XSu414och2cGXUZ1101XusMQeu+jMO8gRlq4ZTj9E5q+kQThTAtyYD8jb/EkwJRE+L+0NNXxL1rW4GK4Dr4PMJ5GQEdovMCqyBVhNDZJjssWtw3+fdyJGICGW4CmiIJjKarLW4ODLvbECAOj49WmVtcroGRdh0OH/pLt/WLBysnJi6iG2lXPJX6o9TpZTh9uFDmqG3U17Nz44B9z3NFBSUHsKM1tJoc1hj9Q6cgWKme5QgnSAL1MX8c+pZ50XzsTar/+QSwrrN2bpapK3aRPFcj4hcT/0W6F6P2PQYduwmkf82g+4YUt0dC9yFTilwVzYMGi0pkitqcLUKT7DoxkRRBM2JncOclf8dgAtsz1mTg/GiqJch/F4hzWjTk+xBRi/eggilWBsNckQOqZLA7YuvkpJZreOVvTy9PD09O708PLs7Pbw9Pr09vLy8Pj09vjg9vbk7Ozw9vjw9PTy9vb29Pb48vTy+Pb69PL08PT08Ozy9vT28Pb28vb2+vD29vTo8vL29Pj08Pr29uz07PT09PTw9PT26vr08vr25Pb28PT29Pb09Pg==",
					"4zAlL+T817rjafZ+xsuqBKYmJjxLedjv6yoj+XJjGTpWws5Q+ixj5ByjvNMmaepw7ZCvB7FoLu2J2pL9Xe6iDGA5T7uxlIav7x46A4nHSwBxz4y6lgi3DfORU4tIQCVIu+4eRfZHNTjGM4LCoibhUKNDLZVr7Kc52NgWAFasVqInMDioq9J79Xgn++G06rQ1O1KR7VgejO5+8hC40bMonvABDTXrOjlbtncGdu0BYRre94zez8VjIyp89Si7Fgdl2iqiiCjdkQwGzs1U9QrEOoCpReFe46vDPtfxyMZ/j8d67Y+Z2OZ3HxKJYmXHXGPUaNSKE8LYSgrB1p67ZniUcSb1cDs1H3ojMoX+op/5CwJSGWgtj8pPKorOoDF6grngDidq7O5q3aVdaHtFhqrcAy6T0kb3l/A46lYiiC6YTAd3JX8UnioILkbkHSzHhkM/Wvbu9PL09vD09PT09u7s9vr28PT29vj09vr09PD08vb09PT69vju9PDu9PL29Pj09PLy9vT08vTq9Pb28vLy9PT09Pbw9PT28PT29Pby9vT28O709Pb2+Pr29vT29vT49vT06PT29PT29Pb6+vb29vA==",
					"4btIlpaxVhpkEFW9ZXFPdvlCsAPjxkdmU1jg0BHOPyW0cF2ilEJwds9CWJCpUWLzToNYXQa88cqAPJl5B3wTkJgsXK0GoLsLgDnqbsDi3YTiP1Gi3kpXmaEbrXXwWVVZVKFV6LgJeYZSaBsx58XgSjQLyIYMOsn2hs2rqeuRctiVGxdnA6mPneWiqGIPVj2hNWqvpXymtsvZup4+3F2bgRO9JdDjkEx1qeJRA1XZgFG9Qpb5jNLycHXOgDXp9A5u8v8bsNmcPnQ794ZRzAARsSy8H2yJSo7U93pIEJ115FGGKK1KIAhxWEK8KBRHuKQ+pCOsmGQnl2RzDRDQdlLKzhZv0tvAYZkqDL+RzT7upDiZ710HPOpShipdE+AKh4DqEaAiLQQAtnjY3RIdAqZsK+sy9DQIS7jQVovqivLlWLlkJ8pYQZzxWiAshxIHYO9oIvb2+vT69Pb08O70+u7u+vb49PT2+Pb09vT27vb27Ob08PDy8vj09PD29Pb28Pb69u709PT29PD29Pb09PT29PL09PL0+vL09PT08Pby9vDy8ur6+Pr08vT08vbw9Pr46vrw9Pj2+vT29PTq9Pb09Pg==",
					"4kGQ015aPivSOlAalL5k7Gx+fOkMwrdngrL4pDQDil9DH0klW3lDRkbkPdPKa8CrFhmWIHWKc3QjzifjEO6x8NejRs/NWnNRYVVuwL4eKIEKuujJzscXW69HPQO4oOMNRYzuJU5Yb8VxQQjWtNvxWfAkJimmJhVXq3sBqmwowXeYlcnNgJ3LL7aae9Y9ehQQBHI+5qpwXdtfTInGYQq4ZY5o0fq3VyXx3xkZ61l3JsoDFwB8MYEC1dC0cFyPJhxV8NKe8a88VM1dTuCFDyX3Av8RcjwcV7dY08AZxt7Lf5vg8rCCLbB8CGQQXgqU6Kyyu/aWO1n8HKBqtiEVwJH5ZFBDnZ5PAXOCav6taic9qnpqSmGgYYfvnCgOazH+DfCe24SnZtI0fjAKaVYSm2YrPegtHD1juEkpQQInct2DyI06eNhBC8wubDbabpEfNGyWQvb0+Pby7Pj6+PDy8vD6+Pbu9vT09O704Pb0+Pr08u729vTu9Ozs9Pb09PT09vL28vbs9PLw9PT2+PTw9vDu9PT29PTw7PT09vTy8vb08vL0+vb6+Pb2+PL29vL09vT49vb49Pb2+Ozs9vb2+vL0+Pg==",
					"4u4kPKhYXLCQ8w91+4gPLwsEmUai8TtvvL8VthtAoUW07vBOfvSgFwF3MVG590RG1i3fWjvsV1u0C2IuDZ54Xx0RH3wUWndkcqhDLAI6KtlDcIaarsuf92j4Z9xOp3Jqf699a0yJwfSFLR0uUn/9rVYQAHToTLqVkwS/eZqnNq4N16u3u4dGeKqggdINu6AaA98fzJ1dgqN7wCatfSoG/AxGZ7BAkDG4YNahAmwsDjHrxxbtMv4O+OOZG5hUI/NXgYWAlUbDpJ232ZgCM2bkq5roXBViY5dXeecSFBTOq2WQJYA3HdMCvfV6xkedY5gOYuUH4vMyaT0aPicvzx+uOovke0zkDv59HcIili7YQWgs5meI3yM7VaXeYINUV/s5RhEtqixhwUJ8PJLbzZiqkRdjBsUA3Qmkc3R+bnx8BX0QqJZCyv7+Eqk3auoqTC2wFPr09vb28vbw7PT06Pb29PT09vLy9vL09PL27vDy9PLy8PDy9PTy9Pbw9Pb07vj29vb08PT29PT09PL29vTy9PT29PT09Pb09Pb69Pb09PLw8vby9vTy9Pj09PTy+vjw9Pj08vL28vT09PD28vT66PQ==",
					"4fchAs94OHCI+bbNZDlNQ5tpW4pexIPPiIrjS1uqeGl7n7rzn7MLGLUj0JuWKmMBVLi2ysUHOhycsfxYJf4CggjTxFSfX6xMkEwmxyvsJ0riBHLls1dkgJYsznF433w4KoExFCLUPXrH9KXk4RkhcVWxJ4iIb65gmC4dM8wv7G8t5ftX6vawJ3pNuKxvruAH+47nXjrk23c4jNpqZowkkKc0YaL1sBJPs7QE9L5CSfl5/86b78+MuaUlCF4hMBOmaskSz7HUdMDXx+3xT44l+MBSqXcQfH8mCG/m5lUBkjARMITOJj7YPLYlf3+kn1+0Vz/IQ5yunD1mus47o1ztmzO15jlSDDZqLaDM88+PFs8qYNuwv2ny+oHxy/8kFbew1mBWMRzoUXQrjSZpOs8dbHD7yCAi66ZyBj5n2Xjfu2gKNDi92h+pB0ZKiPBN4MCukvb69Pj09Ozw9Pj29Pby7vL29vr09vD49PL09vD2+PT26vb29PT48vbu+Pr29Pb09vD48Pr29Pbw9Pb09PTo8vT28vTu9PTu8vL29uz08Pb0+u749vT28vT29PD29vb29Pj49vb07vT09vL09vbm9uw==",
					"4ejrf8jhWVtOGhp8vaxOLtHOqdZ/rAxf8kbrl3PWKAScFlrdxAVvoZxMN2TY/c1+HLEuz3Fc/wFUaMXMitTFu4U+1J6G3rot6gUOR2yv0Wq6Vs00Uf0NcPXrBNVoz8qGBSw3/N2mSdVlQJkWutYOc7UWws97osqw0Vezcpy2KvpHOBS52rovDk13zPc9QfdQuMQJM1kKj3RINW9m/r631gBRkX4DhinqFLVNTJF55dTEA1fXBE3LhB04stCPEsThH191fdz4aUy9gScFKEAnZwxGJFYs8bPkJZ97oyetyO/XQb/RPZN4wDgWxjp4we7P2j6ors3Ndqowsq3D94I241nCe+1RMtxZYIFwZfQSzNCAoYyYzMysRMhMAGwm8wN2VjOwHBhEDEoGnSgI7EY0zH5VBW5mr9RB9fRq6ghHSnAvCFQFWycuZKgK70UhBcPZoPD47vTw8vb29vb29PT08vb28vrw9PT28vb29vb29PT29vTw7vT08vD29PTy+vT2+vL29vT6+vj0+PLy+vL07PT29Pj68Pr29Oj08vb08PD49Pj46PD28vTy+vLw+uTy9vb0+Pb09vb6+Pb28PT09vQ==",
					"4wMATishKJf2cd/jxTIXoouMWfsAK08arbMcg8EWVERHYU4NtBiUiKD8F/J8WTz01B6vpvjWTGnjm2mdeiP5yusEksw4VPFPFDy7QxGVdMOPEjpkbtyh887MipojGlJjb8wMAS8R2JGLT2AXWIDFRmAxEHsGo4YiGAG9qTW/Wdf/ExVK2/A7nQnv8lmQjRPnVzoNLigpcdOBYzjex++WXe958I35oWMUtqbKAB0zs4hRHBXngUCO5SRobDOU53DhpSOyTiaJ4iHu9yeVj9++3mQ4vgSCFTGNK4hNMJDnTejCMUkaRd0T1XtQnaggIjpbxJtCC9oQhPSUSkGbSKYQVY/70j9KaYP6qp/ncI8YsziGAVFi/4Xsz3AvwOkGnTbBWIlCsKD9TkOdS2c8h5FIU7kCcDYJyfIIpSJTXrNwAFl9GfJjemDICO6kYwH1y+XSAPT4+Pru7PDu8vbu+PL29Pb28vby9Pr26Pj08vDu9PT08PLs8vb09vb08Pb29vb0+vTu8vT29Pry8vD09PTy8vT6+vT69vb28vTy8vTw8PTw+PT09vD29vTw7vbu9vj49vr09vT28Pj49vr07PT29PA==",
					"4VkmPDEgZOPYwN1pXPxjEB4bf6+hn7Mt2a+wAxAQgdYijaUE57PQ7Ul58WjdeLm0rg7goK2xL+GjIq4weq6FAalC86QNVJ/qnDkXoAzLrdmAy06wo1+90nUdXQYk6E+i08Br4mecH6WO/vi6fdNnUvMhLfqP9cBlqOFKhLslhRJ3Iy2oTdyKzQXH7onAALyjNkqoLAgvRuG3UnanuH2HGjlYaSqnfFVfEopjt9EDM65AUtXWw1Gqe/iRoUGxtyyfrsEi+Qi9ak9giT8N895SPpiSsDfTxqE3JgJPadM/itUoaKdMT6xaSXSgEGh04exJooZ2i0891SC+sPMQxkCZiIu0mtAL8INDsAgDxAxk0vvggzYn8JKYz6Aa6c8WLVluMhQEaB/KD7vexdtfwWbULzy7iPj+UWVT0DAO1lJYkIqkSE0XBPcma2207E7mYIGyzvr69Pr0+PT2+PTw+vb28Pb07vT09vL09vT09vb2+PLy9PTo+vLw8Oj2+ur2+vb08Pr29vb48vr28PTs9vL08PT28PT49vbo9vDy8vL29Pb29O729vb29PDw9Pb09vr49vry8PDw9Pb28Prs9Pb48PQ==",
					"4H8KAQ37ZUtk9lEaKsXRvcHRCnbpnqqFld1PYveE1JqP3pjB1aNgHByv0J4jjalRs5L17WTxD72XkcOuL/Ica9q9fOoQhblBpdFwPCaOdDZ/P1kmU2Zam4lSPU0Z8zZg4vabTUKt1Qm5dm3bUxMpJ9t4xEptdrA9xrcDu/Bbs/atwSejIMXzwgZlxTEHIrY/nc5P2nbx9+g+JxuVvtYrjzg13nVxmV9QNg1LEY7XiR8KucBa7tzLU+cajSa8lZOWw8uHcLo83h6lGyNjJRZkCbCmgtcYVJPkjdnLWxWljF76E1JPV8IjYuIK7AjoXrBc5qhLH8IiucdrslKwJsKLWVpmzAmJeF7vKMVC6Y3eGmSNiokY5TfmnbDDChiIXazuc1SCfDFfgcoQYKsj1GyraIDoGAWjgEo3ShgeGmIDyog1suNEi3KDO8K1qDY0RvCqWvbw+PLy8Nzw8PT69O7y9Pj07PT29Pb27PL29Pr29O7y9PL09PLy9vD28vbw8vL09PTy9vbw9PTy9PL09vb09vL09vbm8vTy9PT09Pb2+PLw9vj6+vb08PLw9Pb28uz0+vr29vb28Pb09PT69vT2+PQ==",
