{
	"layers": {
		"layers": [
			{ "type": "input", "sx": 1, "sy": 1, "sz": 112 },
			{
				"type": "dense",
				"filters": 256,
				"_biases": "4JNZUUZHDDZaf7sM7eGaYKgBuHZLgdpZakAB0VqMqp7QZn1rU8WGVLgG5DSJyiOs1TGpBvO4WzjvhpMyhrCVaQF4PPzoTGii39tPNjRpxrQA4KNNsa/Okjtqq6TitoQQ0ypGP6Ljy5jcnL/MN9lxt+fSd9l3bmpzhCiJbQSiiQbxsVY/fC4hRUzjjWTop9g7ZFdV/qtYFvRqbq85ng2rUAv2XxyGzDaG99OEAnQWQ2dmBgvYnXTSgl1A5bSQEci8Mk805/jO+4m0mH+o9GXysPRP4Ifsn7o4j1LLDwTp246V2F3tR7Arg6kMC+PoNTPr9V1I7gnl9o0L3XCkTngcacwvR1tKTkSpdl4sjL8aygV8l0vMq9ph2Il4AqrGU6AKFbkgrf+Hje04IE8gTY13Y8Bir+8HdR/Q6f0quVnCizdpmwvsU5Ta7UGh6x8n4t4U0L7zvZ4I2kQG0qflbzpiykOrYAQDmH52B6+IrjW68jDbsg9icUrKeJ6N7Lb4x0WQXNvUym7qbyLKRvm4BYiUbIx14CB3FpRNCAlBo+oAXCJPFAB5ldN2kjW5cAEnBmdYXaiGeT5WyyiuH9PalShS/4bSdgsbraerUm3sFPWjJeDfQldOw8upVzevTEA5ko+XRUcdg47Vr0HYirln/PIxBpiS+lxd8b0/tRSU+fB6KHifEKkmWOIwPozQfn4Ir+VmQfq1mdCzmqSY3AImHabuS0YPCK4wGNh4lBn0/HHEffuiLEIGQ2MUPgBLej6nhAUfBYreX0eMetUsrtkjsnfnhLQJ+kK1/D1gEyfuUxk2BJ+dSN1QYkqOtJWUdAFaUNhL55Zf5hSuGS2B6RU0uYLUxWktbh1Pf2d00GMNoLngUEjsNRw/lfrOp6PU30Ef95EfatsVV09BOLwgbhQCEI/jvF/Y6DYS79sHZurfGtosIuYMwAzhVZ10fUJw0HAOb3Vc/Mqt5PfN28wV8tKfEJOnXsRqqiOgYMBOCAxGHli/XCFZZl4yLFuLsd/nEGxtvhy7JvLw8PT08PTw9PD09PDw8Pbw8Pbw9PD09OwA8PTw8Pbw8PD07ujs9PT09PT28PLw8PD09vLs9vTw9PD08PD09PD08urs8PTw9PTw9PD08PD28PTw9PT09PTu7PLw9vDw7PDw9vTw8PDw8Pby7uzw9Orw9PD08PDs8PTw8PDs7PT08Oz09Ozu8PT08PT09PDw7PLy8PDw8uro8PD28uzw8vDs8PDw7PD27PTwAPT08uz28PTw9Ozw8t7w8PLw8Pbs9PT06Pbw9PT08PD09Ozw9vD27Pby7PTw9PDw8PDw7Ozw9PD07PLs9PD09ujw8PLw8PLs9Oz08Ojs8ury9Pbw9PA==",
				"_filters": [
					"4ME98JY7RQ0wf2AjVPwzr9oDFz8aY79ZmqZbZNvLGEKb8HMdN0s2MSmnVB8q4nDM1PWs0jO6ojOCWxaMPLWhwTUvwC5bIq9D6E+Mogd+uyjXLAycoBAmJiFuGsJZrUqMEnUmnr9jRJtZhT8gwL0Giko5sWO8Wou6HGkywESPA0QpmZ9xQCCC9uxA5MCiCVTi4JN2hFU17jHsfFni6ht4NtpiumEu7Ck6GMVapKPB0vNIsahl7NqrQk2XZVrSsNEoW7bp5TpQF3n3e2fYDDfkI23G3f70QVwsYHV5qjDeu/qiO0IxwDVf1vNh9B4swE7lLknUbne4pYnTvDoShomG4n5cLBaGv2ZAoIowHLJsZZ84DqlHd/YGZss+htlMwpNWLGFKWkWpEIIm/v6BAv7QuUEM+eTq/pSa5ICkwtxvCm53X2k2MCSqyCsc9FZCh3erCvL29vb68vLw7PL0+vT09Pb29Pbo9u7y8PL09uz09Pb27Pb29vTy9Pr69Pry9vbs9Pj29vD09Pb29vL08PTy8vD27vLw9u748vb08Pr09u729vL0+vL29O76+PL09vL29PLy9vT4+PT69Pru7Pbu9PQ==",
					"4TCyK3jn8/XNJ4s3aRd2HujQjrnDSANByueLu1wSU3qtmMllI51WQLMZtaBObglgbWoEbCBOUQgUschc+wR+LpUP6Pp2qOvRboIqoFREOoKnwXLn7KYf2XML3BzCzgdzn3A9HsIORdGO7qxvkvC0uNrrNzQ4zTEDFXxUn8voCC1JE2jEiN7PNjz3uz+UlCPzzgngSM+60dHCEAyATSFDWFVOW7VvHfRRotrKotwufcQGPb853q+TP6v8iVtTw9igXg6arXtLVkRWlKQpiGtuY7HqTV6RKEjgp1MP5NH3ns5UuwPxvC8umh3jf9PePzpaxmCkzvOQ0EaQtyXqd20UIhOeuC7qItZKxj578V524f/0QNt3UpVy5yZlPf0f2NmaTFDdDY6tRmC8OGa51kJFpxXWk0IBaJbI6CAxTf93IdJBvVc1WrIaunnelJRLrZlwZPb09Ozy8vDw8O7y8PD28Pb08vj28vb08Pb29PT07Pj05vb29vb08vby9vDu9vb08Pj08vT09vD29PT09Obu8Ob09Pb69vTw9vjy6vTy9ub29vDw8vb28PT6+vD29vLy9vTy9vby8uzy9vL2+vT29vQ==",
					"4yFuggjQY3tPICDsL3/4C+UwsIIOv0+YQ9F3PLGQ9kxqFEp2PZpAW4oAap/z2MoQnq2GkQBd0DbxB2GggTth/FlXgtBR2DOqiA7IFXFbltylYULKhL+2gw2SlgxA5ptd8wVFU3iOq7hicb7TqT66vztLU7BBkeJ6q9ZXfdJkVBVZv/ikxNgk35CJp2W/qkAm4O8yY9NVPqddMq4QyVQiwjAgWQRdPAJh/FjM+5gv2FHcHXgv2haUUdBZdMiUlO4N9m84+Cr1BtcgTX90riUtGkUbz65WI2neLLTer3WwDD/ykoyCxf1xMlAh20zckKorV2chjnpbqV/PTHOjCawFwSZoixnuaVykg4K4dyyLOMiUec2F1UHnNAQ9jmmUEwCs01ixmF9gV9z29AmC5anFIk18RAA2g+I2Fs8IhRinmEqFt0caVMIdbghh4KjR9rh79vL29PL09vr28u728PL68vb08Pb06vL26PT68Ozw+vD09vby8vT28Prw8vjw9u729vbw9uz09PT4+u7w9vr28vby+vb28vbw8vT69PD29vb29Pjy9PL09u708PT29PT49vLw9PT47vTw9vb69vb09PQ==",
					"4xOJfxaTOBW1g2jz5eKvZGIhnSigzDkaCBtji932iFAGHiwyQa2K7ZaMHmwAKOIajmJ4xkYF2tysG/R9nhytTT4TPTT2Ls7jCQncDBHUwQN06rlgTRli1upw+xnFlLQw9xtOEX71uI17kFN5sOMmFeytfnbTcD8sjdJBvuCvyKdVz+M+tiAcwsoL0fK9JcMT4RyNDXeQ4RWbqLvnoEqK2OM/Nl6jo4C8gxbQHQ9ndNiso5Ls93ZI7ABeUVE77s2Vz/aqpc+e4oCA5CS9+z9B0LDoBuZcx6+ueHZe/OTtGLF2C89YmgYMuDlsjFEylxxczhY3iPACLXCML8Fv6LHekzRQCodyrAZuRhNxaF5Ntuo6WniuGrHqdSIVNyf6o0m6/vJ3BlQM/mcPSoIjQ0gDulvLgIQsM2Ao8qT4s9r5Fv9HuHN/+4c8YXMt91IlWALCKPDu9vT49PD49PT49vT29vb29Pbw8Pb27vbw9Pb29Pb28PT08vb09Pby8vL09vTy9PTw9Oz09PD29vLw9vL09PL09vL0+vT09vTw9Pb0+Ory9vTy+Pb09Pru8vjy9O729vb29vD29O729vr29Pj09vQ==",
					"4u0IMhxad78FrbR/eikl6Uu2sF4wqu+zmmulw6Laa45Q3YDRMWK/P9dFCG6p/tUNBfITPCR85uuYA1I/jPol2S6/voGv14EOUsfhsTSyTAJ2F1ifexzjsV9Uk0HKvbCQ11MiPhLsknBnjGWnkKnx3kWpuqe5T8iRNZli2FBi2mtt86CKoi+uXI8khujqks8eESmZBxT0H1sXmtuDeBqLUCRKNRzAFtAt3UUqlpghRTfPnVKXy5CpjAoXMwsoDm4gJtFpv5NuBhn35tMAq2GWDmThDAxmDhB9lO9iWEgUXmQMZpe4aWIBGAbvOqmYNabqf8HkFZ0IspBUEHVAU7tRjGAytEVN1jl/DMVp4H++6G/QnWC9pOXIkYPnL09MWBBheuCeCuOY73HuiHcxG0gABr0eY9RCjXAWy65URnR6FvVYHpMKcV3WjAjD8kGh5UscdPT09vj49vL09PD09vDy9vby9vT29vDy+Pb49vL07vTs9uz09vb09vL28vT08PL26PLy8Pb29vjy8uzw8PD09PD29vrw9vDy9PD29Pby8vL2+PD08vb09PLu9vr0+vT08vr29vT09vb69vb29vj09vA==",
					"4kd296+ZZKrESOshpKpHlmvQPPldVRpqcRa70Z7zo1tvm56Kb/FlxwUIPKXBINuLRizAPoAX3TnTxodt+jHgfmPmsI3ByYHqKtQ/YMM+dG8m+YsDxuLuCDFzmx1IkD4qsBQyG4AjerHvri4dNPJO6Nsg9Ply04XMpnT3kAhG4fU3rJ0D37LdXdmgZDg9ViJgEkFCoGHGfZ0rAiQGe7kOoM0/wLoD+/5jrZmAOBJSERZB4evZjoDLxMnGq09P0ezyUuqwBrp8Htb90+mV5DeNsa1FU65UEt2jb38/njB2keUZ5ACJ6GEdWUG06B/SuIaqP+k5ZEO3DRXznwYnoU1QlIBQOZkqGxEr/HZZlT/r4fOc3g0G8jm0C5N/6CrB9XQvTFS2gCVuliHOEg/1pPDqYSQVYIKikof9QgTDe9F93tdACfaRIRK9pjIlpO5UAlTB2Oj4+vb49Pbs9vj66PT29PLw8vb09Pb08vLq9Oj0+Pb49vj09PT28O7w9PT07vT28vru+vT09Pry9uz49vr09Oz49vL49vbw9PDw9Or2+vby9vb09Pb29Oz08vbw9Pbw9vr29vbw9PT09vD49vj0+PQ==",
					"4GztT8ry1S2GzlkeYgsir5cLfZ6/rP9hD2YNh0in2+qpBQitzHLbgMIpOmHBT/6nuQZLXWom6Z2gtymFW5RtMc5BNHJU6NcDf/sl1EpDIQcm9GMkKGvKXPl0+GgpflZqQodxfGm1xX74PTnCzhG5sAx/JkV/SZSA5hXXbF05WLMnD+r6spKFOdmOgcepH5GMpxYf1RnYuAR5kAPJOYRMwvnUbjeTfSIC7SqcXj4HaljdUbfkas5F7XaEtIa/YM5oXOWKqZ9UjwHtE3JNL894qZ+Uo/GqtdVfuKnx5H7fHH0EsXrkdzuzOTQDLpvNTkYn1IDMz/a+JFjXAf/AEkb2YOKyW5UVXZxuLAN2FgI1iNXqrS3BhF8Y3AuBvk1WX2y5QU/ecNSW9CG+DmYJ3ygPUiJTxKhyX5xO8WgIbj4IDGdGbE7lbNUejxDCZAmvHWRgOPD47vr09PD06Pb08vTu7vD0+PTu9PT28O708PT28PD69PTw9PTu9PT07vb09vbu9PL09Pb68vr29vL2+PTw9vT09vDy9Pbu6PT29vTw+PT29vb49O7w8PL0+vro9Pj69PL09Pr49O729vr48PD09Pg==",
					"4v/oob+5Zx9eFxz3celOaFVlxi2CXPuZqU8H3xv3WwlYlKreaI0IGqzhxgt9zDUEEGxGN8Gymlsp9ld3Di/FOFaFHmEjbAWlB1pLQM2mpy/xrrh6bR2+ZTK6YSs0ewjd2eJkH7QZ/M1mCqdIBfxzYCyN+QjAJk1XlHORJjTAYF2rhNSfxwPJj3gJUFUPFtVUc4AMYQj7tVF+YC/UHHNc+CR1DOXabPMMLHmtzGyr6PK4z1g508EFlBDK+Hl6eN2XFfj0i4cR5JMkb9QC03Sn3Mf2UmL5QrMLZ8cBdrrHXhix2G5CGkKF5Q2dUx+EdAmzyNxFbWumSnBSdId4N4W9BYlGs3KlWkwYCn0RA0aavWvouued5QpBoMEuTMHlOfZAc4xAZWOkGTgkDYAJkiAXtwO4NtGp0JSvKDItXJm4quivJiPr5IaUI3QAxbYdgr1YxvT09vb08vb09Pjw9Oz47Pb09Pj09vL29PL49Pby8PT29Pb27vTs8vT2+Pbw7PTs9vT08PTy8vT09Pb29vb09vb2+Pbw8vTu9vT2+ur0+vb09PD09PDy+Oz49vT09Pj09vT29vTs9vr0+PT09vbw+Pg==",
					"4vL26Ti6dfbQp3w77+ndaszvaCXWAi4amKfx8piHl6w4gTwLicj/LMAwDO5NgbHKtak4tgi6e9h61TkjWsSjNqFwqjcMzJs2tprLwSftid+qgMKDWZeLw9y2qnXL3qAP+l9EmP6HlkMz5o4RQvMrVgNxD0gyzh9gh7PoFRQny3EbCfBQZkj7bxMXU41jAexMrJ2yzdEKIWk9MNU0MzsyBufwpjn6NCScgjrFszKfjK0h8beRVooEfm6vDm1woCKzsnJ9sLjb+EutE1fRoFHJoEG0SQYbGQoi+5pCd/4IFcGXfgM0j2P7sXTcejRA1Ah8wCh8jJrISmGKQUgRLd8ePE7+IHmFol60j10sV7Yk1cyxTFgdULIG3c91SOySodl04dBgGcGJltrIhDLCHPNKWs3QeI5lgEYsRKh1rgc1wpkciuwsLDJ+x/2t/G/MAxgD9PT69PTq9PT09PT09vT09vb69PT09vL09vT2+vbw9PD09vT48PTu7vj28PTu9Pbu+Pb0+PT09vL29PL29vby9vD09Prw9vT08PT09vTy9PT09vb09vb08vTw9PT08vbw9Pbw+PT69Pbw9vb49vr2+vQ==",
					"4p1INVk9rimUXIENTcado6zBfk68uGE8X9Io5lT4JHBNjZHwTbIhfLQyX1izI74Jx6Q7JH+ERQaCUAIRYlmyD1PIIiVuZCIc/hlB+un/INyTGzaWvgPECXJgbL+gcOpVlh6WpLGibPIknN1sNntxMcqgmvqaL/X/cV6pRJheUc7Q+J/iuVvhFee00e9WCzP9klOjwMoKM/GEzEZlRGdJmBigkwOT37H4bgpVI4mqldbzrRGAq5fCf6G/U7VdxYt3IyCy67RKdsbGKg2Qx8rMeYwGINJ9Zs3Sgw3qe3CjAAvbk5ByvV5qfJ0YTk6oL3sVPFZZNXJu/n2pt6htmuaPb0hHjPky7UyCYl6JifPDrDxtKp/7IhvnB0KnSFR9RTsWhEE767ASUUcm3x2k9IAgx8hrdNAlXRx2YtDrKpHK9esq+iIymCmOnXAqDPL4NhTOgvb09vDs9Pbu9Pj09vjw9vb69PT29vL29vLu9vTw7Pb09vTo8vb2+ubw8vT28Pb29vT28vLy8vb29vD68vT29PTw9Pb09vb09Pb29PT49vry+vD0+vT2+vTy8vL09PTw9vLy9Pb69vT2+Pb49vr29Pg==",
					"4vkQnGpCHQxwWOOBuz2iv+zMlEEWoqtuOPR5xUJ0JiUEleRk9L6N6OBgQQDxKhMneAVtaZFCitPZWcUN7QgF9KnMc1Pdn3g/1rXV69JXPio0vWH6PqDiF+oT59bxMWfVhXy6N2w1RMK0Ag+BjLPCW9PqO464o3D7ixw18ngFSiM0b0CgbuAA8j/Moa03ExPZnFQi02oWNkJNQ2FLyeNeUW1Z0kFZj4HR8qm07OporZH4yXPrZwYUc5+WFGsN0Kbq3GJQQjb0FFGeMOzJjJ804LECvb3t21uDDrw3OzvZReuNFWIYO56kDLzMYtMzAvi2UubHl3+R8I5ocoShAc9qPRt0HxaAdDNriuZ+fENpY1mdXdf3MM4aZep43+yCEp1dBIIq6TZ1yjScEYjLFTek7lECyquRN+US+8mFExIiibWMRH3KcIYA/FsDBD7yJup3Zvr68Pj28Pj69vj28ur09PTs9vLw9vL29vT09vb28Pb68Pb29Pb08Pb08Pb27Pbu9vD08vb08Pbu8vb09Pb28PTy9vD08vby9Pjy9vL29PDq9PT28Pry8vbs9vL26PLy8Pjy9PT69vL69Oz48O727Ow==",
					"4jCHGv4EZP5Q1kK6Yws9NRKwI583xtUsmh8ACOJxpHp9RLR8jv4KxT2Mgz9srnFEYyutRKHwQTv8p0QBwE29bvByjwxIapNr54GPN3UAOvKUaS6jhXK6P/002CF5XqtJCzLVV86k/j/T+8c/je1Vv03bZ0shtdSzouOiuyt1rC17as6xXntopcPZrcf9E+QJM32/wa3CeK46wOQIzEYlNX9Ezw259FfPwbPDZk4lprAGKYRKkk1ISvscLt5GdmNMTWEyqEvZG0hIQ2phgngV6MMEy0eoqBO0kN3hjkkcN4UFpp6znY4W+2sBknlud91mYLqieABan6z+CARpDs/8LtGyA5adiCE4MCfYzE/jCYWCe4AGUIYuTFgH2lY6SegcBnQQBdphinpmhHw4l1ZPy0vFi2kiamQPeNrW0njnFlLAA4o7yGoUgdBKhsPU5Sd81vbw8vD28PLy9PT29vbs8Pb09PD29vT29Oj0+vb08PT27uj09vL09Pr28vb49vT29vT29vT29vT09vb09vT09Pjw9vr09Pby9vb49vj28vLy9vLq9vby9vb29vT09Pbw9O728vT48vb29vr29PTw9Pg==",
					"4DZjEV51ral8PX89DavG9Ou/vqRUoZsA7fBTzbV/AqllvVmrCiTVkZm8fnePZ1IS14cT86cOUkbb/W9nmj6PfUUgyD9/78OB9jHeAv7O95YU9CnocdbhlEHRn+4D1ny9j7A/ajpxfXV6bnCV55LgHIvQUn5+HMXpGmv3i0ekwm0RFBGMimMsNXDhh6d7YbBgbzKBeyOAFp12VnkEtANHcG847TiCBVnRz8wjEsfbtZCUQGuLIyxylj6INiOUVk2+wl9qV/t185Zggzv6y1uD+O02O7IcAP1mk9fJnQ/rrtrPPbYlJknKJqbQ4EXmEc7Hz2f2vb1jyJSnaY8bJ3pqLRMT0S4zqI6bcxP99l0cnUCgoa6S+3UokB/vIUlSGsa+wA4CeKK/DBSk8Sli3FfD38ouLk+8OY6UEJhoCzRpXrflqRIYYrAADE5FPr0Bw8hlNPb09Pbu9vL09Pb0+Pb08vDw8vT09vb48PT28vb29Pb08vT29PLw5Pby8Pb08uz29vD29vL29PT47PT09PTw9Pb29PT08Pb6+vb09Pb48vT29Pb09PTq6vb6+vrw9Pj08PL69PTw+Pr69vj08Pb0+vQ==",
					"4/4x6p1QTqZ5aE/P9fYDg3GaM+um5OtS230xIId5bAFfaO33PqfpLMHuKKeBdPSf4VmnlNZ2Ks0cfD3+0wTC7MzhQRhSGaLM9pDfm3nL1/iZrgxr4lFYHpiAHX0z45NeNRhvVuJsPKVF/jq/tXcEHuTbOJk1hPIOnLgOrB+xTh7e0w2AKO5jX754SYZUPY72+b7qi1dW+Q0teZaDjxpAaVXbTDt/KWOUIOXOhTwncZjg77SIqed5X9zVX49Ukk2/o5bjDDStUu1SmNfFfKUR8SfmJdA1hLl2x6Uccwy0qHkkPW1D5LmvLNa0+/X/OsLY4heBFtvJob7avkv0PcqAWeZm0CiCI8kXbR2oTgSebhgAPgcQZgUcNiv86ueEmEQULraS+qiWh/ryfLYG+0Q4Osgr/wLuvLzMBiXSPI7UYGfJJHofLtSbeoY4ZVRM6MnpaPT6+PT09vLy9PT09Pb09O7u9vbu8vT29Pb08PT09Pb09vDs8PDy8PT28Pry9u729Pb08vro9Pr26vT09vT0+Pj07vD29PT29vTw6vTw+vT09Pb09vT69vby9vT69vr09Pj49PT0+O7y7vj0+vT69vg==",
					"4SqcBIypPSJFrHaz9LgXPtTV3Qy+5N5JgtHzqa+u+R1TPyLHtUIyd6mO/0YZ799FDivy9fSkfGIRxkJGXK+2R2Y6w8CMW85wUybZ3TmzRVIkEtT+KNXx3By/8kwHbeQDsGMaUgleXYPyJITWdC39FRDTmlTZp74b7VFPkRAGF61XBP3tXTddycXF+35MnES2DQOzltkG3VeU4EwoxzVq21NaDddpkVOOTRd88W+02lL6GdD1nRdxyVWp8Dzc48AIrtEncGHoyEEKJ+vY5hUXkeICYxpHgqzDuXFMNxaiKcTAQWglhiGKxXcHPwvR7Dpk2KosSVgIq/CU2BnTV1zIukC8H1/UDpTdTQzwfzy00c1S3JfPY+W4GfCj0twYDG/ZZL5XZgQ6EGcq+1bR8zEANG87wNQ2fzxq8qP5K4xvK91T8JzfLnMNq4giC1V2B6o6dvj08vTw9Ozy9vLw9vT27vb09vj29PLy9PT67Oz28vr29PTy7PTy8vby9Pbs9PT28PT28Pbu8Pr09Pb29Pj09Pby8PL09vTw8vLq8Pby+vb08vT48vb29vb09PTu+vLy9O749vb09PTw+Pb28Pbu9vQ==",
					"4nLHF10CiWicuO07leOjgXwj+482v8SFmax8K1lGq361J1FdVegWWp01Gw1wRX0ymXasm3KWJzWgJSd6n8Iplj5RY1gnUQZEro+aR3+9oXTig9GN7H1MbKJ3nfaWo+OFkPurErUFKFgcfvSeFttzlO/9gphomm78mYvPv+SeV5WJ3JJ815s9pZYqDc1z8I+Yk0t+H6rsdIVN7WWR1mcnJH8AR9PQ/VaMpRC3JS3xnXYhLuUF5fe2uMMKgSdGsk0PoaFzogArRliV/wP2WWF1KQ1iUd41QVnh8qaItegjUarmiLUTDIq0ut+8AJ0pQiB3otLkzYmucI+0CANRo+P6DfKej8RyBLiUhEGoXloeAIApybpeM2XNGGNW5oJlkGEagk9CRUG6BDTdGLJzgccqpUdYH/cWQR+rKzAdpXAA9I0A1ipSNsv6ZJZ6oCThAHUHaPL2+PT49vb29vj4+PT29vb28vT29vT09vbq7PTy6vT08uzw+Or0+PL07vr08PT28PT09PTw9Pb68PT07vb67vT09vb49PT49Oj28vTo9vbw9vj28PT08ub2+PTu8Pbu9vby9vTy7Pb29vb2+vj48PQ==",
					"4eQGSCJy6H9HyvJ7WbKt2Y7oOHcCILVOcTenhBdky6DVInKJE5QlyN2ZsPYgpOyLo72pN/WNiSDoL+P/aqkjtyjxCHaf9JEGg0JKu844Yz4ygJASwXzv0JXXDmbVP80QzrIRW3q+o+aRYGFggf43st2hErwOFW+ifAmXvG1AbP7ZYNgvEzmXiELDSlbpy/fycEbnJN/BaOF3wt1X0BPZr+uctBegUDEgcNch9XB/CGuTMmHd7bfhltLo6823eQ6wNSJU7t75R4WSztuf2aKzyDNcv6i6QMGwaoCBMktF5bNstsAO/swQ4fl6Gts24Hv+quaGPluTJ9Imxeddwh4bNhKKBNAkyDpyUkgZ+Iikg8APo7jlzQIMpRb+ChjEW9UBjo0A+3XOmbN3Ad0udCWGmAmT7BZyG4YeBCO51D67BtjsriI7UEazgBj4qG2KUZdyjvL0+vD09vL2+Pj08vb68vbw9vTw8vbw8vL08PT29Pb08Oz09PL28Pb0+Pb69Pb09PTs9vb09vry9vb29vrw9vrw6PT28vDy8vD29vT08vr29PL49Pb29vTu8PL26PT2+vr29vD49vT29vb2+vb09Pg==",
					"4gIfHwikGcfBeaIK7N4inY4Q0nmi61exSfhbPbYEc5VPcI41Zeo/pYv9whdQbJ8HZCdoZfK7RooAKHTxI+sjo/hxOmtW+TTiJtYIoYNr/gkFTkXjKOk1CT5slEQt0SM8P9jBnHP0zLw7/Dw+mUNEjWrY6mvXwvdeJSjJajrJaA0tyLvPMtCHVn45GTXEw/GWtxkDyNkBSJnTVeLMSKdezUpRQ0foaHzG6yP7qaN6AtWinqLnfZNDFbDHBVdqGR44dmfdXqnzzkxfMGmE/a8qiiwHJ7cAStPQ4nO8StQJULdQVFKGnlACdx1iiIqusg+S7fEPLR1+inFlcPKxVNasD2Thm9aCAcidqypa5ga4oLDG+EIkpE5wE/3OU9iWzNJZ2L5l41U9MW8FLMzX/AD0JCuZkj4Nd1g0FpQp98wvM/gbGomeTIjqxltMvB16uvSgVvj29PT09PL29vT69PTw8PTk9uD29vb29Pb29vj09PT26PL27Pbu8Pbw8vL29PTy9vT27vb49PL29PTw+PLw8vb49vTu9Pb29Pb0+Oz69vb27vby9vL09PT09PL0+Pb09vb25O76+Pb28Pr49vT09vQ==",
					"4y6fh5RoxIK+fZuZz21DLZvZh0INfKXWbbYhUdJcf0jMWgPBgXghQO3s8eoitsVwQvsU3EbGpecx5lVXvs/xDLkowrutCavOSYLhpVG+01sEFAT7DtxdQTETCumpwU2k2RW4KcBK0T/MkycTb+/KHSw+eq1c4BPPxP6Vr54iM9SZaOakVBmGWomfSF9L4etjdnrtyPVPJkZu29yUxeZ/CwLz9XrOiVyApG+VjH++SeskyWDFTlKNn733Nm0DtGIoaMsvlpb8PilkwsQNLHGzpRjn9OFy1J9ixgy3Wkprud882oSZjvOLu5c5UO+q5l6SaJ+kIV80oL0W5UG2zNLQXgnV3OGUmhZhzL0cEQUr6qK2veTaO2NIWSsxbTqubB6XBHnYO2OgggQ+hxSE6fdXv4EmKSOjoWmcsQF+jtZ8gn14kG5gMlczZC+kqNUqtOuW6vbw+vLy9PTy9vby8PD28O728vT29Pb49ur29Pb27vbs9PT09vr09vL69vjw8vT08PT29PD09vT08vb08PT09vDy9vj29vby7u72+vrs9vL28O729vby+PL08PD09vLw9vb68vjy9PL29PT48vb49Pg==",
					"44boU2Taoj2GNQQ+SYjGEZgXGI0psmrA9aZHnDsItaxLIL+Y5QCtTtGiW/FAiFuR8qEZfs80FDE8YbvcEzMrPXbJcXClZwjkteotAubSTRuYZQzdU1N5YSTZM7Tg+yqremaze5E9jB6QEqyfI2F1EoyZa0NQaQkAV7/rPs02DO/MIYlvjcu5igWvclTOu4S7ETLk0tGFVOJ/rzMNIhVCI9TCHHqkqOt2oSXqkMuaXRr65wR4Up768mZROPxvopaDB4ib2XnEEKh+frdPY9VhGJ8d6N72cUbuu8U+m8M/dMWNS1/1VC2iTXD5R1CytaIgXV8tKvt35DqBhi178kY1wQAEYlJG3gvpBlr9ptuD5/hKe/ZPlD1WHrZBVRymJlQbg42vBskFEIqYYnm+44HDxyQCRP/WpqZrCiF1l24hWGSectRqd8aux04Z/KtFkzECcvbw8vb08PL29Pj09PL29PT29vb29Pb09Pb29PL09vD09vbs9Pb09vD08vb29uzy9vb09uT29PDu9PT26vD0+Pbw9vDy9Ozy8vb09PDu9vLw+vT29vb29vb29vTw8Pb29vb2+vL29vLw9Pb48Pb2+vA==",
					"4pbvn/a+wHbWuKclMGjlwc/bYaZXiWLWoIhMA1C5LHodJF1JOHryLVLQtpF1FR4zoM/8j8XE59yRhGPVrdwz4ZUAPbX6OzwGz/PW0JME//nZshtj+9MC5aLfC1R456AkkCPuGzjTnX0weTbPgIEICLMJdhPqueE2nLcoLzfQCzV1o0BiDuQ0ORyzvk3fZ7GvPoHqxz5M73zCSWC6glqtoJ+09K+JciWF7HPjZhR/sAoDqlLHhnzakyv0MSdK2kBvax7Adilao0+LXdtDQNbSWu14uBU0afRwb9Ej1qJdoEjUVlViIcZwbxr8QiJEAhoffajlBtdXfpGTv9q9BkLsUMVQbOHOmTYuBMS1fPgC8CIIM0BkfxzL6A9iqYoHx5At4NCbuWweJ8emo3Mjq87nr7gMBjE0ESQvx2s+X5o2dMQa08oo6TvgU+PgKn5VKDAoZvT0+PDy9vTw9vTy8PT08PLy+PT28vD28PDy8Ob28PT4+vb69vD28vbw9PDy7vL69Pj0+PDw9PL48Pb09PLw9PT09PT2+Ozy8O708vTy8vL29vjy9vj2+vb08vby9PT4+Pb29vr09vb09vb29O70+PQ==",
					"4vwLmkyYASTK/lLGdIBbEistwc2/Zoww7sy8a/4uqL0mNaSvOgeH9mxQj5PvBNVsrA73y3DFnMMGE5wCfVgd/DJKkm4lQqP3YkNXGc3cF+JGORC7TgMoyaMd0GmWntLA+MN5E4MZYf1c6Tc7/kdBZ9dt/9b1HiDaTlbA89k+fRF1/Xp7eJrX+MVyGkj/svwpM4KZ0Nm5GF6uUyBtZHK10r7tgD0LnmMOMg+jt+dYm0MdQhIA9FnyiPAEa+xboeIi816ExtsyJ/oqNlGjwacg4ihoLhr0XkbbI1dl3Evm+ziCm7hhNpBfUK0B/PI7hssp97k/5MAOGQnaBT1zmCDIjiDermv20+MqwgZaza5eisfJYFSGiqpvkx60j+wzM1t6oNA8D3bdApDZ8cE76+OqgEYO9pAM94vI9F2o4tBakqH7shnPpa3ffPSAf4rsILH9lvb29Pj29vD68Pb29PL29PT29PL49vLy9Pb29vD29vj08Pb07Pby9vT08PD29PDw7vL49vbw9vDw9vTy+vD09uz49PD29vbs+vb0+vbu7PT68PT0+vbw9vTw9vj0+PT49vb29Pb69vb0+vr08vT09PA==",
					"4kqYD6rSh3jj+n2JC1qHi7/WaHomqjzhU9I/Lh21O27QvikXAmi0KVc/GAJjo53Emvc1Ie+X0FuNWyjnbigsdBzyzFGoOUiAk7gtKjy748mkisW9k7QcXLMXX0RLxJeLa9D/TRUkQPlCdNMc5kbNesurkKXg+RSffgkBz/813SGl+tM1h3033VG4ZqWJ2PvK5XxNZkT7VG2EFeEj/ufk7uA7OZdpq3fhl2rF4ZzHjt2tlUs1uqjw5oJ0XVfytxEgPD3gEXkuIPKKxCmdfiQ8eyNCsVOq+PHXq63yAjU8NT0KxpyJSs5sTJFvoQNNlI6HnCJ6613w+HlwQwCAwthbhEoDqkWeF0tbLKnjt1FXhGSADZdabqUYg5Th4ZqyUB40RlvPKeZ445TZAvwKqWS7qA0CF3fU8ATtaPgTnIPehp67TLF4t6NcJRjM/SruIv/IAPTw9vb09vT08PT08vb28vbw8vL09vT29PT0+PD2+vD29PLy9PT08vDq9PLy9PL29vD29PT09PT29vT29Pb49Pr08PTw9PTw+vT28vbu9PL69Pby9vT49vb68Pb69PD08PL69vr28vL48vr69PTw8vg==",
					"4Oucy3f3laTWddoDaugRqhywbuEZifeJTS/5+4RChGg0u7WStrRvjbDRbx0bDfrtQDiQOGzpCnxWsNcP94a8AH3tmMlfs6epoTWep8fo7AOuOt00oWnkzN4TZH6uLhFnqzf+9dtf+u6hBCKR9xySd5rOv5Y8V3LS9q3Ycj5SUMVARF2RPqsl4WAwoywpKjhryKNDsrMKSe0AfIkxWOiGOAQJwKyBlJbvOm9w0R7+iFfdPUjkEU5q99d4zhHm/R4z+6FqLfafC6KBlh1AsyfypuQvDu8oui8CzYRup4VjOEFcfOhxd+eoIP0GucLqDH6Q0wB9CDgM5HqmYZ+04U+Xolc+jTxPuqYBaHE/48wPlBaa/7uNat42YwFNV4yUc4cUFmq8BRidrucKScxyWDfULrDgmZv2ynOEkCW7EgywCKQ2mFWcwCQUEgRwDsrsGkWgIvT69Pj28vT0+vbw8O7w8PT29vTw9vb08vT29Pbu9PDy9vL2+vLy7vb29PT09vTw9uzu8PT08vT09vTy9vD09vT29Pr0+vT08Pb0+vD29vD0+vj07PTw9PT4+vD09PT49PT68vb0+Pj29vb09Pr29vg==",
					"42YWkZBxjuz7+qt4l2d+ccq4qz43izdbDSRaA2OkrQkEuwQL8y3tZxXREWlSgVwFkZT3AML2t8eVJPBjUzkAjee6zUNFcLqi/PFcfcv5Xcd+KKaD7DgNtaJwChnVP6BYakltYbzNvX+w+u8gK+fTimUABxj7ajTONqIZRU72DLz0NHgEvIM98jWKozTjaS90wMjTmLZX0AL0iXBDHJ+2wrB0W3VJH3XcRQXmTg/JChpLng0oSNi9EOdIChpJtBp0dh4nYOlxItCr8r+uhcjoBkbxai8PLPdqOq6jEdMUFBsrLDYdBz8FqAe5I2dy4lxHtNpYfBzE9FBC1nz3lbNDmEKOTxAAcB5MJBkzDdFu4W3Fgza3dwxfIDfxhxSGLD4xARH5Q6lzt34qIWm92Pj0ILgjJxrfiv/GvlFWBYTdjFeGbw1Qv3bVIYLfyfhCkppp1vT69vb09vbm8vL29vb27uz29vD29O767vT29vLu7Pb29Pbw9vL67vL09PD09Pb29vTy8vT0+Pb09vT09vT29vb05PT09PTw9vb28Ozy9PT2+vTs9vLq8vb09vb0+vT29Pb28PT28vTw7vb69PLm7vQ==",
					"4+XsjEBWEddlAuxi0O0wOd6rvMGqDS2+1mJhzsP7d3w3P5hyRlyt12QgOEOvnRL6BgroKjFXCOuD5N9ZssnNAsdWh3OMEV1cDuTNG2e5dF0Um1yIREJgnOet8+stHT3m269V6Gx3QydFBpc7lut6d6zvoqZa/zv/MGH+5mTlGLkIJ22MeVx4Hu2huQN6/gGRujGQxhLpdVOgilVszchQH6Op+o+lLDin4xUTOyRofXyJQifSDL9mJcIkbmoc5fFNfK4IMU18oCygHgzxp2vYTc0dUTWCILN6X+ONZXn9scGXa86V2kcWP2ZsQPGIAro+ObMzdDyAttZ9mMjQhwE2dEnJjqnNtUNE3rdsXq9I9w7e/ZaOQBZggt1fuGxZ2k7oB3rN0TaICeLUohoiaiL5/j3aP57v0N0kTtDbjSOWTq8U2xhBNU80X3xrQ2QztxqsEPDy8Pby7vby9vb29vjw9PT09vb0+PDw9Pj08vb29vby9Pbw9vT29vT08Pb09Pb29vD29PT29PTw8vD6+PT09vj28PT29vb29Pbw9vb09Pb09vb29Pb09Pb29vL29PL29Pbw8vby8PTy+Pb2+vb29vQ==",
					"4cmwkXAr0r3hZ/STDzfJ4UTazvXqFgzEb4X6aFcdy4XBLvNy8ExWooYSwyiN7M0hb4DpgjMhTf14m1nKGl+OlphhAQqFTXiwNbiFpi6y+V0P2Nbcf9+GNJrwATt4SZjDjTJP8bySwq2vesiP7ZzcGTlcRa7ifby8XxycyVkDwI3qjIgLfIoHVadRMf+ob0LVemFWOC+DA0NnSiGTjGoVxtjI3DRK59sVzjRevK8dFcnhVLNVasHMffFN4+hHrAccn5wlsIh8EjBm+fXg5d109oxVsQNJtDkOL/BrTYxd6R+hleAWSD5q/FGakUTWyn5wCWgrLYWXoljqB8ZUky9AR7xlEWY0pgLvg6petyLEOYIGM9a5/8XsTvfKcgTHfi6aVNWxvdW50N36isvJPZZRIgquoMNIMuT+/6hyP7lbe6hDN5oreSSF8GA6ZkgZIKCBXPr0+vTu8vD29Ory8vb29vry9PD08PLw9Pb09PT29vbo9Pb27vbw6PTy9vL28vr27PLy9PDw9PT08vT09PTy8vD09PTu9vLy9Pbw9PDy8vT69PL09Pbs9PLw+vb28vby+PL08Pb07vL4+Pr2+PT0+Pg==",
					"4MK68U77lUwllf8j1Pk6H/38YPBFh+yJBI5pVzCmufFyVZNTdbsTEHm8p6AErsK/DuYB/4DFH3K5f4AsIPFBDY488xyaHLrZkMaWmWZx+MchNiZtZMqeGtUdb9+LO57zV+tPavXqIAWcERakvcYANIMe/j5NO+2F3uggwQdgA8AVCLaGbsbsnJQBMalW9KGGqovFOkpjGuVkcSKOiN0E4S01KY3PbRv8GfkgRcHV/Db2Ab97ppUGfC/hvVBTA+C336VfBilg8b7L9k2mC3Fy6pj5MEK4CRbQvOt+C3ACSqkWSpkQCCAtGRBCyulT+T7+osclC6iAM42hTIMmBT7kPqbaPQlBRwpCVFrCAh2QTW9HnnrWKkZtB5uq5C3UU6QlUPCr4KoLI/DepRu8qD/pcBSYTItZoTrxCyhOMjAYkcAySDWTxj9xV5SOaSpyLHqilvDy9PD69Pbe+PT09vT09PT28vT28Prw7PD09vTw9Pb29Pb27vb09PL49PL29PT29PLy7vD09PT29vL09PLw+Pby9PD68vb08PLy9PD09Pb29PT68vr09vLy+vT2+Pj4+vL29vbs5PL2+vr48vT09PQ==",
					"4elvsxXPtYLthfD6VFbhWdt+jseosBBNa57LADbjL+ajHU8K4dZ2ADGZZKZpIUslv1yMjaCpkK8jtRPYQniO86Gf5RZM7qcpQ6OZ+ncYCPq5sqn5nujxGLgWJW+3VODEfyCVO1Xq0qs6oF7D63y1XqTpabmKoBQbUJRuImULDEJcjA+c03WbFSgD00rcNvh1LrCxRLM7D9W4KqjZqQ+e+Q93MyoH+iqoQdXvFT0q8l6Nfomk9vz/t+YD7CjnBMWxfxInZqe1Rc/WIZMjyUZxEFlBM2PIv/GPaispxELhJctunoEqdbmBP5BuXELrAgGrHKQT97fuimsO/fpkTMhaNquMDyCFYDZOnF7AVQ1FQa/UCWSQ2FZDEFAyIHf0VvhoBWWfxI1i6PuzknCeZ1JxH1Abit7i7kEmL0gGpep2aCRMTO53b6v2Iwo8DtiShhDuFPD29PT29vTy+Pb29u709vTw7PLy8PT28ur29Prw8Pb28vr2+vbs8vD09Pr09u729vT29vb69PD6+Pb08PTw+Pr09vT69u7w9vbw8OLy8Pb09vT28PT29vTw9vT29vT66Pjw9vT29vT29vjs+Pb0+vQ==",
					"4TFsZ6e6MPT8AwIip7/pZkLnaS/8z4hUBzK8I25wAYORhjkEzXMs1vpao17TnOWhigKTI8GQBdPDPG+fBE5d5YYAUGyc6KRSkOJRmncpnMoiV/FUa0v9hjL/M72F7Rt/QQcYMMOj+lgmJhk+qaMkVSqKtmrbIc4O8q4FbA+dcVFSPGI02lxrZw7n7vwkJFBNZM1nJT9Y0lgGxNeGQIAQIpCTnG+9hT6HdsL7N4iMY2eqnex2pLRRJ/AmX2z3NHXs0Ow/Ioljh0IBB7CQQhhXBpx3nXp2cTrzd7zYBu7Rua77oI6siXulCWCgXCvRKhqkLPIO4Js7m5qHGJYtSfZT0botabbfmndWogujIVQm1kA8nZMIUs5DbHV2dbp7jr819JKNgB02dehSpYyszC9OiHMG2gkkP6tqipe88wbwmtcLNpD4A6Ib5HTUe3civ7HYZvT49vjy8vT29vj69Pbs9uj49PT28Ozw7vb08vTy7PDw9PT28vbw9vTw8vT29PL28uzw8vbw9PD68vb08PTs9vL09PTw8vby8PT29Pb68Pb09vTw+vD28vT28PT29Pjy9PDy9Pjy9vL49PT09vby9vA==",
					"4Xon7HZvdoGZNq9NBi+3fffEDJTGrOL5UHOIKGOLoGKs5JnUOQi8Ii0wunQO3XltAAEtESJQCBvdV5/wGIXZELu6+MKfnI4JTick9b72srEB/1F1C1cRrBOh2fx/8yCuCSUYrkq3ashYGuaD8/2yJTsmnY/Kzau3aUttZGP6nR5hDzmQKYKBh3c/FFmjzGPMhsIXGoeeAzO+uczn1WKkwID5sjtKGpZJY424QQ1kGWZu087e6A/8ITrMhOWz8i9YvCeTCAHax0sO3b8KlMgaq27wCB8FF2XL6DA19tko084OoVJlgYrQvt5ILmy0rfocRjluaI6Kw0E4pjbCe/LwTCQFqMw/fmM+GItWB32fkmD6LsN4VT6CalbGqWmfy4yzsQmvsa3KdDNWAeG88l4y12bXvuecmoNbTyhMz6B7ZegjUWt+BIFM1OotYnGgI/VM2Pb09Pbw9PTy9PT08Pb09PT09PTy9vTy8PT29vLs9vb09PTy9uTw9Ozs9vb09vL28ur09PTy9vb29vb29PT09O707vL28vL25Pb09vT29vD29Pb28Pj29O709vT0+Pb09vT27vT09PL69vr2+PTs+vA==",
					"4HXnWB9EWf+jlMkAb2tlvkncHsipZ4xvo1s08z/PpE70Nwa9FEwMPbBqtuGi0i2QrcR14uRc2xW7VFDn9TQbBbywg7OZZlXNqvTJvaVFcMO3b/djDdWAkvFRrWTEufHu6p3yTSP/ZTpE/XxGnlLHXtWTdwz9wGDLTWUj4+2DAZZoZkgmWDNwchhs6bmNsZCKUnfQqCm/YbwL8rJYHP5Qn/i3BIHjAEu1MyN6IMuVxOA/B1Yl5N2ZbKDGAXzDNCzPG2Dc38ILeJ1u9El3tbwGPY5rnFo7CsDyilahF++jmOfN3u3opvbi0Pri55MYN8OlC/6SwcJ9+I6pZswQbCWS4McAqAnY1COrGewNZhTWU7QzN09a50N9+SyHTD32s/kBhkbjpS33KZuXOo8422xa5s/qdM4HOrmbOH0gMyoZjtAQJTgYYhJsKdCI9g1jJvpKQvTw+Pr29PD29PT08vrw9vDy9vDy8vD25PTw8vDw9Pb29vT09Pb68vT0+Pry9vb29Pby8vbw9vTw9uz28vb08Pbw9vD09vT09vby9Pjw9O708vD48PT09Pb2+Pj08Pb28vr09vrw9PD29Pj09PLw7PQ==",
					"4FbMNG50ZCSVvT+0gExmTeYUqeDxVClQ4kt9UcGgMQiCVZ/HmRgl6igLOzBDGo3y8M2ArOK7maOp4Maew9QiuSvGiiX6PhTlcPyA2yP0tpnBtAs4foqkNiZnwpRcdLKoMin84XKzX0SIE+AAlwxHuCWVLt+odsfy6ct+hGiF/oPsd0fxENWAwb1rNOWGyBDvkJxnYhswDyx5crO8WQyqNAFo8sEFWSOTULhleNvGEJH+bToIVvJSWmdwQ5ywoYAi6uy9AhUDVFSlmTZZaP/jbijYr/UtrJhzPtPVw9XwCmdmHm8GL6wuI2emcBwqsvrB5inqZbrlbSkSi0anFw9Ch/EuhVJF828hKBaGR6VTdqDRxcU3vAp1gapYMhxSUKjuQnfuJ+1oQL8u0hh/Tgpu7HYQl3onP2kRl6JGhpTkAtzAzLIgnWfFp5OMKHMWcWXM4PTw8vbs9vL29vT69ur09PLw9vT28Pb27vTy9PT29uzu9vL09uz08Oj29vL07vL2+Pb27vb29PT28vr0+Pb28PL08vD09Pr29vTw9PL29vL69vb29vby7Pbw9PDq7vb29vj29PTw8vT09vby8Pby9Pg==",
					"4Aod+Gpkt/Ah5fvgq2Ek9Zu8TcnS8al2b54vvu0wN0ETGaPuDAJRtXnVvJlxKSi6eTRuHEQOm4Zf+2fJG9/ZFKHSiCPCpRMJWEAOUpeBBrLQTUgWmrXskodeIrc0dB2qzMrM3TlxOznWu0NbUvK9WoKMzH8nNAqs1QvKEG9kvr2NMKSwXmAyx6UXviXabG6+wmKwdrRHmCWbxvTofmBmuixOfmAllLsxgFSdD5Y4J91M7M/imVSLn6Cc0+5DBYxVHYRVAWZWyHAJpp6auPOrnRWwMiKTmEu6Vlmd3o9UT4V7gB4EtHQ4v2gwATunEpfWJR4DpBVU//InUtwWWPhNOpxIamqUmD7cdFaevEJ/WILYqfb0AiCIUdS2o0bNPQOZkxZoRuL4T6I25FFQskiTsbrAjCbHIu68DQSEiL42HVi9cVA2GQu2SaZJZ/s3aSQR6PD49vb07vbu8PL49Pb07vTy8Pb08Ozm9vL08vD2+vb28vb07vT49vjy9u768PD28PTw8PD09Pb0+Oj29Pb27Pbw9Pb09vLw9vbw+PT0+PLs9Pj49PDs9vb48Pjw9PD2+Pj4+Pj09PT69Pb09vb09vg==",
					"4X38CL0jRy6pGmST/1xVRpWh+sSf4NLpqF7/22R/vprssESNl3Gos83wV8/73EPqZID73SKghOi10AEuQ3Q4+DE4FUS7Z9uBFqhJ2ItCcoCJpBRIqYZAC5ZQYbEHPBUj5UdEU0NaE3KAFyw9egpMRWOTH1U0Ps2TPM53/fBTkVn6V5VigAGilAP+3iOWBCa/iwT0VYvsuP/erIepAOSaq4cbpQmQC3l0tb5KUX0ONhHQPfi7ewOrNZsFXX3L4zE6OVcUzrdFcwSR8wGqdUDhLIowapTLA5iIyEl8u59/jP+rhR+eIBEjMrxAWzt3gAqfM+cSdv1m4LIqiB5gIOVkKZtTNuE+GFPbP3kEZg7QCoERASImBiwY74Q+EPDcJwoiIpj36IKwkRgOVQs/Fmw6IYZIAnoRzuBEYTLlqT83IFRxhryeLjAYumbi+zt6FpsKdvb28vb69vTw9Pr09PD09vTy9Ozw9vT29vb08Pbu9Prw8Pb29vL09vDm9Pj29Pry9Pbq8vDy+vby9vb28Pbs9Pb08vT09vT29Pb27PTy9vby9vT27vT09vTu7vb29PTu8vby9vTy9vr29vr29Pb29PQ==",
					"4dOwTFHNH/Ceo6cJ9t0L5EYltDR7UvWGZzVwfPV5bDKqydmB4NzTWJL0Ex6ObC23dGUz1cZNoMAjU/MO9BRLgOdfnqbm6b+hVbW9XNI+RhBjHEUyIBoOVJ53VdVMc+2X6wRqZFZ/V0+vKBQj8lFaS1wOCYxHjkLCUiUAvbnSNwLR4x+napQ48Xoq1BYWyNPbZjmH1o5zUibx9XmdmhiEibQkxtfuApYxmK8+aLEBsmDSX7dx63iAujwHaysiYbWlB+svl7nM9jJkS2gyXp3hkNHWCjLPoD9k4jZD7gm9zZYCfNUuc96XnxF6RBxNP02+3pD6GJwJCMPDhj/sTjZe/F+OUOpH2SIC2e4o+ccOZDd2WGrkDVP3BQ6pC+4w6VR8dgAUmyh4KNUt0UxNkbAB5ixICtBfusnafDBICjAjA5grHUenJkCMqbsX4Gfmfsc+vPL29vb28vL29Pb08PT09vD29Pb49PT28vDy7vb09PL08vT49PDy9vT29u729PT28vb29vry9PT49vTs8vT0+Pb09vT2+vTw8vDo+vT09vL4+vjy9vb29vb07Pj49Oz09vT09PT2+Pb29vT09vbs9PQ==",
					"4vV5tpbfjYB5a9upk3dD65WggnASrgmSLA4HG4pNRiepkHeaIAl7gbWzFnEmFz52L+flyHRjuuMVmf++SAoQHKE1iEQUujhN2JkV5Ed50RDOnF4N+y8Zlt+gckm0o85S94sf9mne4lKjNiIINYHYWx67qpulQQsToPGJTAoCskQ0Yu14KLYONRSSrXpvMmSG5qVkg9px/I5kfhXtRqY3L7ooOlB+coJbvK6UJziZVdPw1zc55JK32ohkuwkHm7JN6Jq2idV8YZeOAJif3oewXqo5BvZvSpXc7r8RY8L9Iw84oZqKdZWVm1T8P1YBXLIT4sKwm2WwIFHdOrJxxJrBZfIT7wYj+arPpJYfXn5ebkjaDC4p1NiTUnyOYrryvPIOASRRis5Eqgx9tgvEvZEFN4EyzJQhPDRZ0aBBl/kU7qzG+kqmNYp0Ak6QzLagmWQMWPj46PD47vTy7vbs9vb09PLu8PD08vj69Pb08vby8vDw9PDw8PD08vT09PDw8Pb28PT49PT09vL28Pby8PL09vT2+Pb09vr29Pb25Pj09vD09PD0+PT49vD6+O7y9Pru9vT69uT27vr09PT29vLy8vg==",
					"47pPSTBvoczDZwrw/Tf8Ad5Arn7Q8ixkJWbkSLpLkyQrUsKrk4Ub5Kv8SwUCycplEKkJO4lxAg0Mej63uAmv6u6EF2NUosO7KWsXi7NfFXeWiZg3MV2GpLkuywwC1XRSzianVLS8pL1x6AWFLbbufv/mhhsPN/PB4HK+X3wsZcavhTU3X8tV/pi+FKXyNDHLAc547bPy0QojetbYKXZgk7vtiqQOnPWvqVR5f7CdV6D+uqeoVaAxlU0LwqdFMoiua0sNKqrL9DdZp6nQnoNsSKmKsw8DigFtRW7LvNv+6G66AlRboyIxzSCzAtWK7y6axIF81sOAAqx0DCr5kNK2P0+NbFLWnj7X3Co6R7ZApOAS2AznBQKjXrdphDdrvsFeH2KhBgE3BCdtAhnD4nB2ADUR5sg1S9VYaKSyDTAk4tYW7ihsLROm/KTi/i5vKq12uvb0+Pb08vbw+PT09vb29vD28Oz06vr29PT28Pbu8vTw9vD29PTs9PT28vTy8vb28O729PT09vbu9PT68vb27vT08PL29PL68vT08PDw9vb6+PDy9vj09PLw9vT27Pjy9vb69vj08Pbw+PT08vbs+PQ==",
					"41CV5DkBAQ7aV4cWx1wOKGxN31WPRwJaUHB2fUNAFvg8whuMAGu/QxRWPDdv3eIZSqJkOeqPaFCgsi8dFf+3bKNRzyO4ZYQg3ooMEDxnT91XY8NYEGjfXszrFx4xgaI0mFmbghV+3xXUsfs9ngnbP3PjfoIN6fT8/78FC17g7cfw29dq3DcyIxNrksMhOG8EAt3IGWQvyvkXjYaSJf9jALcwjiq+OPATFb4uYM0kk9tEzm9g/qrfsZLTxse80vK+6g0YtP20wJWs5KNV5+ZLIUooQrTfHRh90jnCfnvGDlsbnGxGdHqEl4YYnj5uEIdel89reCCyKniQ8r5TMAoQ6W0tBOWpFlu1rDY+tB84jbxCbKA7TX7yFNSPx/SO1sKx5pPbenJC3glVTQ46cnibLbzzqGh14C6wrF9ZQWoJZjgpvmkIfAisPA89ALjUuleoSPTw9vT69vr28Pb09vby8PD29u7y9PT28PLy9PT69vD29PLw8PD08vT28vb28vjy9PT0+ur29Pb29PT09vb29vT09vL09uz09Pb09vD28PL08PT4+PT69Pr48PD29vj0+PD0+vj6+vD49Pjw+Pj29vg==",
					"4pLytKPzBQDA4+4vrhn2T2U76rnqwsFy6qvXKWYWC4nWU6EWkVHnUdWtyNgUtFm1j38RxFwQZ7x1YkzIp4gISWiqi7T3DXfCYPVZ8HcDqmlYmnwitH0Unun191SVpvj9kBAs2aYxPU59mQ6Lg5d49ZPDGnI1eaNg65Jn8ICtoSsbQ+KzjWlxuGZVhvHNVZz3EmrCsBBjZ3PvPN1dC7mEzgDrPomP3XS+Vvr73QVMhN/3S6mdlD23Kn3Pv4/RcLImQ9RVbfU/QxOfE3And2Yufn/fpdIlpgpMJrlInABh+EZS0Nf2Mmq+t1cuTHsDk+fqajPGSxqumBZmIKtshuB9XEgAcOhzvRc+OEALAtegCXBrfFI0DRXWXbaLG/oe/qMLAogB0IfiP3dzA+ClGSvsKQ/MZy6PP9HfVjLW0PwPLPptRS9msqr7a/+5nslVcVgECvT66vTw8vTw9O729uz08PDm9vT29vT28vT09PT29PDy+vT27vT49Pb0+Pb28PL0+vL29Pj29PTs8vDu8PDw7Pb28PL09PL28vTw9vb29Pj49Pb29vbw8vT08Pbw9vT29uj45PT28Pby9Pj29vb2+vg==",
					"40hWgW0GxGjlChNSnYVaDZowt9hr080jZ9Km/GRmiZXuqlI1PocuXvH/t/2ItrTM502YrHpG8J8yfQGGhgNTuy5tB8uL+k0+G2r8CQTeBfNJbmooaWyXVw6UO+LNHjl/HvXFdMwwtDKfic5iLSOUMt99Y6nYERWY5kwBwNKEtWMVK375asRIlR8yBOv41HfALhJQBofWrAmNRwZcmfOZe2XIJ1JofbwJZGpNa2n3EMurSgOwxCnhUYMpR/Qb7QCDJW+ySomvzsclUcIiuLSTPaofG79I4/91+BN4++6GCiQcHCJadD4KWRVerPVPCXwX3lNYHoz35BQnmnPGhpcIE6BcbMI6B6Nm4k1JfSFG0uWWURAWl1aMoqvjb7HgWaIyddph0oLvKNUJYXAGHnhFm9KYlKxLksxw2Ik2glaY2Bh+U3CaMASIC1y+hHPVr8RMTvT09vb28PT29Pb29PTw9vL29vb29vT09PD09Ob09Pb09PT09PT08vTw8vb09vb07Oz28Oz27PL28vTo8vT09vDy9PLw9PTy9Pb09uzy8u709PT69u708vL29PT69vr49PL2+Pb49vbs+Pj49vr0+Pg==",
					"4n4Kr6dL4sKLJ0RcC8j39H/RdlcnIpjR3FgeLKhOPUVSxl74+2wRsLosnZ5nGbc8Q+dp60IfVdGGyEFgpSWgpk2OGwxMMpGYbyHBkNdoPh40x4R6cg+xOaP+d+JuEx5afBjr+fd1wHECKXuik4T0kMxwp65ymbQfo0LG+t46wtAz0NTdMnFxZtrcYHNxQSYFzn19tq4pKXEi8j/Tan3Vnigg/1lYW1JQZYRK3CCLN5yfdM/inXZu110Fd4DDuBX/Ozba1X/cddMg+NUmZY39ti9fFf6U1X0EYgr4EXNV6UCXhFI+dABsbVb3cHCwMVX5iN6T/m4D8WZjK3g5EdSYjZgUKYjQggrp+ADqWspuaWAqby8l5uHf0D6wjDz4JveCSUC5qfBJbg38NODxEkK5Dv8IeyYOQYpl08RhwS2slInsagnESyCVoPhGfVZx6WZZqvDy9Pb49Pj09uju9vj28PD29PL29vD09Pby9vT2+vL08vj29vrw8vT29PTy8PT09uz08PT09vb28Pb49vj29Pb08Pb07u7y9O769PTw9PTw9PT09PT28vT0+PT69Pb48Pjy9Pj0+Pr0+Pj69vT28vQ==",
					"44DmHaP2cLaNc5dwpXHl7BUrlVmKfrnlScMK+OJINvwHfFRKz2/A3WCRN2ODeknJRy9YU7d4bZcEHt1T6lTAws2CIHo28ff64sRkjP5Jv02xn8qWXSKsPyL3mPE1kwPIfdsEU9Es1Y4ZFJ+TyAuD91DA9iQwcvNlx1MTDiZzc4vBf6/iB5GDMnQL9qEZu3PgJM1rRXhFz4YE5wNrezgd6r+mb1nufCPqdXEFYEGGqIrz5niv/CCefswdlwlmjYzwDn9BzAy0kw2EDf/kljgeLMAW6I9oBvg1sIWzfV7fFwhIsygl/MchN9pPiGUAW3Zmp4iUEjfYBySggLQAEgrBauOAjKoG4z6zBSRvUskqHckCVmluNq8SHgIc6WyIWh4i8ypRyjKF0qYwAxPmo00SyvNStuJ6mE5SgsmUbvBcVM2O3Hx2Y1DUgZ6CyWqu1t2yrvT0+PT28vT09PL29vj08vTy+vT28Pb28vL0+vT09vT29vb28PL29PL2+vby9vb28vT07vby9Oj08PT08O707PT29vT29u729vr28PDu9Oj29vby9vb09vb09vrw+Pj69vb69vL0+vjy7vT29vbs+Pg==",
					"4/soGjZFMP0USARjgCqkWyaYwXieEKpZDTaG2ejSGM0ls3Ykqm6PNGseA0VehfhggwANyJ0VGLYDXKI+MhEc7E29LSNJgEt/qak4ZKMli+uyHGaQRc8M4t19++da/wDLROoGoQ32wJtYvm7B3YC01CNHVm3FE/GThabNaHF/yVSF5jfLquO2nTdYz2yHhIddPrzYEpC9U+0nu/c2xHyUS+2gPz0pejBTiuMhW3BsKcpHv9zuaK7XtkpHcnpEbvZWWH5Ryz8+S8BnCVj45X1L8X0AD8IbFTuZvpeGuqvBQPnYRlQeuADyYnaMn7DEFGzKo4yu0vbHZuhc0dw82I9ORyr+M+kjkZj6XKPKH9mutr6xWpJm21tCkIq29iI6thjoXfqEdPXYJtgyaC89MeUKnrSYy5axXtGZxbkcXhNKO6oIGA/Z1M0IbHguJeNYcU4LgPj0+PL69vT07vb08PT69PL2+PD29PD08PT2+Pb28vDw8Pby7Oze9PD47PT08PT09uzy9PLs7vb29vD08Pby8PT27vTy9Pb2+vT09Pj28PT09vTw9vb29Pb09Pb29vb09vLw9PT0+Pb0+Pj49vr48PA==",
					"4F4PE1z5QamUClxwfsdnvL91EpovDigp8aXPuHr53oMRtXQ0N3lQg99PMiF4ZLnC2MVYLSXNoDyHdKviWnHapt4QFT0CD5/N4Bzx6Mt141ciiEZYRCV0VqbboPsievD+/QdUJ3GpX8NDlQPUetp2hBXnH/cCNurps9cvjcldP+5GnyxryHYtbX6gjFb4ycyr120Tj4MxSi95kfycJyLTXpi6nTtVS2+1jPrHU7KZOlaGGD2bwercDcC+2IlrKU+5nWHQ+PGsdZUjVreBACKKaQy3e0O16LlUwyZ/WiRVUkw/jc4oDkICnUVImtyGhsQ3/Zn/Qp8uFBn6qctEg0ZA8Y+Meh3cu+O88obna30IvvSSAFfqcm3WEAreDsLZbEsM5hxpDDF9swHccWSbfHwwn0rJFiYYII8YJNLUD1dPNYFeX0hv7Et9AA6fTuJQrX7CPPb28Pb29PT09vb09PT2+vD29PD09Pbs9PT28Pry9PD29Pb09vDw8Prw8PLw9vT29PT09PDy9vb09PD29vT69Pb29vT69PTw8PD09Pb08uz26Pb29PLs8vb09Pr29PL29vT29PL09PTw9Ory9uz09PQ==",
					"4veiAQ0+G0UuQ1gUcUvXkU3s6wAcrkvmC+GWPkt2FKux8Ulug0DRvYBY9rVtPw0RDPY+sUxQvSkpWhHMOOTouVFqKYmg2s6Myq52pQXtUGMfiMr2YXjtJCzrkZlBTHixQPQM8snQ02n4elisqswDOwelD7++xHRzjVvxYosNzU1VRHBFB8NCXkrdHVJ2sqIECUCFk5fA/Ua6k9LlBPzpxWqWmX6kjaMSU6tzZQ6ABF7YOa9O6fZJ8LpNnHW7X4bZaVPLxknXp4zf/jyUWA8WKsw7UeaGQaywCW8YewWQu5wGvrHbZ7NmEjbY/3xtPeKwUJMyKiIKbwiplv8MKTZHjgyDCn3wRppiEFjupavolDpecjdtHjRAmgNFa4BArRY0KjP2hAzKgBpezmHQQBIzS8teNs7B5g3nQF30lYx2pwc8FSfB0EteNBOAZyRtUpuwQur08PDs8vT28O729PTy9uz68PT27vby9vT08Pb09PT0+Pbu8PT28vT0+Pb08PTw9vL09uj28Pb29Pj29vTy8Pb07vb07vb08vby9Pry9vL28PL29vb29vbu8vr4+PTu8vj08vb48vbw8vr29vL29Pg==",
					"49B+0TjXK2VdDsJhgqDEy1r/DbpmwDLZf7DQGByfKnZ8LZK6mMZbwvpoQH2BCEYXPjBSKAp0Aq3/2LPP7nZXF5/aPo+Kl2nJvM9QO6M8JXv4CN8toLdgc9lCNdpTmaQMXHIKxezJxBJULf6zvZiDrALCcmsTnoXVAj5AbozkhLjpaHvuJuKjyjCIxlgEab4wFiJULffVW/MVhSf7rPWR1RVTjEe3hG0B9NKhJ74wlE2UylCV69fXV/YcXO4FIXu9N569FapXb61MxoQ9CkHP0hp1136m2jiRxj/NF1h9KJmkRcpJPJPga3iUaxBLHhTKEZxxBBcJ9sjmkJx5zlLZW9homC/Bbp+6nipqnm1eLi9ukQTnrjkW6kwK5BYoo/LeazdEa9uDoVADgvCVyxDpoAlyi8J3hLK3lw80SA6BTkWEP1nqNn7dFumwCMWSSMiEuvD29Pj28vT09Pr0+Pb2+PT0+vr09vT08Pb29PT26PTw7Pb08PTw8PL09vL0+PL08PT29vTy9vD28vD29vb06PTw8vby7vb0+vTy9Pbw+vT6+PL29PT29vb09PT08vb2+Pb08Pb28vT08Pj6+Pb6+Pg==",
					"4+xkcPY6Bd8fX0V2Xm9tNZPnq9KYdHz0W5+KaZJnymKoNVNwHd0TVLyTX/XGU/UrTjnsJAli2qvGp0KiCCE8MFr49NUAAZ8PBuj0/Lre3uNyyCRHaAetf6TOOHm7WIXVKaSVAd58nEX3b+84jKDH0hIMwCXJFTnURloKMjdFquEzT33B8PaMiE1DxCtxKEABy2x3BnNQ09uykoySr0jGPYC29y2DuXC8ImwwI4DfY7LvhKR6OsUdXiV6iBaHjooY5u4/4Q90ELJnv23VxTr/XeSOVeP3HewPPOMlSVTYUpemiLDSR/C8bleSA2K+qQ4H1uGo4d5EN87rgvoLczAk0PByV7gY/7AZ07yn7lB1J7TGaFbcgJ3UrSfal8Wmsq8kXM/EuWbzO3uNFoTbAaj6s2UUc0QGVOQcRpQn6PZZ4v1xlrEvpgTM9GoGKgShES8ehvT69PLo8vT09PT09PL09PL08vLy9Pbw9vDs9PL09Pbw9vLy9Pbs9PT08vbu+vbw8Pb29PT68Pb09vT09Pby8Pb29vTw8Pbo8PLu9vbs8vL09Pry+vTw+vTu+PL69vb29vb29PTy9Pj49Pjy8PD49vA==",
					"4Nr4eLMDTbFsxNcoGzol3eExjN7Tmx56D+wpWc0NW7b0IBPgTPxLXG4L1Mje5FxhE4ih3ebvHv3zsZkX5WgD7Djdiy5i5425zwSRWeH7YncDAypWR8752BbJxNKzMi1IS+8Z75U4yBpvvoaJvoXChLhFcT9eoOTRq/aK2UjNRi7Og6cW9RJyo9j7YfvBTG2x/O3iwVeZzc3zDL29Kcd6FhJUxfLG+mLVp8He1pF2e9zTUQVGDZqVzMWBIRE2GzAvgytTwjct2XKXZjiXbLQAoi70jHy5oz4+q/CQdkoIbVRyu7L3ijoqQlKF/iArwuIImuI9bk8JA00hortOs/iMC9aCyhnMh2znd6QSjxCFGQMycNHbuD+OERCtAChwFyI5+L4H0nyI3ckJJlHt0AR0EN+4HuldPijUZb5bop8wFMgOKCKFwSC2aNqljd2+ndKdjPb29Pbw8vT29PL0+PD28vbu9Pb29PD09Pb28vTy8PTs9Pbw9PL09vTu+PDw+vT28vT09Pb48PT29vT29Pb27vb29vL0+vby9PDy9Pb6+PL08vr2+vby+vj28vb28Pj0+vr28PT09vTw9vb29u709PQ==",
					"4rxq1dwS9Cu6CYTiDA9qBTfVwSyzAggL90JcTJwyGo7fWzIbQln89tTp9ccuva9d5g0AWEc0PA/j/FvWC0wWsu9XGXfMapdqjfi8TRgIczG4O//Rt8sXE/yfwL7ggSo0pBfqaTVgOdtllo8SSl2LJjuQAenPH5zR0wDoNSHXrFOz5fbp4VJdLASx2f5lL7XmKh5Yr7rP/ikgldZ/fE9XdW/oZPnboY5lcxEnwKSqDibGCSp0gUa3LQi8n2b9oGQk99ziaTcZHJpvRza+JkcObNCo4A2EParOWCVHUPw9s1ILqDFIpL/oeFR5vJJkPl6DJGIuSPIvpqQ5zRbRfaATFQEtY+6RDjYLPiKXjreIjTL4BDGSzDx5gkvtQVBk5X0i11lZBQKYIrKTf2ar7PbYYeLK8ITBtYuXFYzsHt+qEz5RR0g2fHAdRQQIFxP60s4tXvD6+vTy8PL2+vT49vb09Pb09vT09PL09PT29vb29vL0+Pbw9Pr29vT09vT29vb09Pr68vL28Pbw8vbi+vb28Pbg8uj08vb28PDu9ub07PT09PT28PT48PT4+PT09PL09PT29vT4+vb29vjs9PL29vg==",
					"4r73cGyU2w1QKOzd7AC1+2/3rrJxH3AgJ5ezDw5m91eJOiDUvzVjYFHC8JldYixnHnEVJAq+dAKQE4htHyjFQnw85d6g20NpRUKg+c5XcZ4IjQ6VoTU4LG8nwRIz0GUEo6fDsB4K4W7EX6QnAeezmRZVzOQP6WnW7JzVvtG9j7DvLcCbOz8n0GTuoB4G/5GyXNCa9IlHWx6XoOu2Rq52WBFaQEfosc5DPOoYHqGGS/Tz5o5aOAwWHv/AMKNJmn4HbnXzDHZvLePWpz43OunhqzK3/nsCi9X79c2wGeJOkBrTJfarbPSuciZzNz85HCZumIyna0XL0TEjavF1/i/4blEibi9E+2xl6AP0oqJuO8eIV1J1CGxTdqqcBexMWANP02bHpEoGs4Zq5TAQuaSRamjmlACO1hJf1DtBBwiU6M8mc5z5KXBKt6HpoCz/3LUcHPT69PT4+PT07vDw9vD08vb09vLw9u729PTw9Pbs8Pj27vTw9vDs+u729vT28Pb08PTs9Pby5Pb09uzu9Prw9O709O769vL27vD09PT26vT08PT0+PD28PL29Pjy7Pb25vD29Pr0+vTy9vT49PT29vg==",
					"4c5mCP1aoGOURGeVdpO1MIPO3vTR12Yupg74vi5ilso0pS2A49alJdwqvu0MmK5g5GztOnrfkejg7f+P2EQgmOtPmf5jClUm5tO4sFx1ss11kMTDrrngVl0YqGcW9f/jxI95Dl+Rwaqlwu496rVtTYOo8DgJUJr/84A5i2igk95l1GHLTX26SsUzgqje40UTvidUmZncf5/M2KA30cwQyJgPkOzGWt42cp5UzZIkZ8hjxSVjIKn2QaIDDlr7gQrbnRNnUGJ8A3U1vE4dmvXDM7V+F1AqS9XdH/MsUMDhk6Oy6YomKRzRKDjoPiI76BBV5R+soFt7fXjgBheSdx4CM7cEMlP+I37uosjLcElfIIWCQBLJuDEA1EOdqvAPhChylmXY3mQ5ob42O/LPNSneOJDH5RWyJvxMKBpAUxUjr5cjSQpKL6c9/iaCPAZOJu+H9vT4+PD69vb09Pjy9vD29vT29PT09PD09Pjy7PLw9O709vr08vD29vb09vT29Pb09O708vb09Pb08vby+Pb69PD09PTw+Pb09PT28vDy8O709vbu9Pb08vD08vj29uz09vL49PDy9Pb29vT69Pb28PA==",
					"4O2T6Mshokn6lax4fIn/0UMP9izKcDGj0tz0pForY+4jQJHZU9ELoTWbBf05MI/yzpJAFZ+4LY17SkNpNM+MVjJjSRgA+NpfZK3aXTOfD3wxIoFcwx7ITfSbDu4AdXURalm+uRCeKhCqGAyiW+dNfXzkMPT4nKyQVpfbaJMgbUNYhuWMAlFX3zG9LxrUOxML1RW5/rF9WfsVyOykGFDBSVE46EODGjXREqcEFYp4WWkS6+zVRoYnzUzuhRMfaMMYaAgHm1vczzUlIA0HktkMN7rhoIafRo+rx3+JvnjjNH3rPocg8y1GgmPXKFjQ9ZPoZwq4EAMiNNnafEd2NIKkpUQuzlCzstCDZ8aiuggaVrYIft144PwQCUyAYCDjNzYgfRxbqwYkJtJgBJ5d7zOEW7UYUDJCAk+yTtVi5xAv4/wcC7T5kAxddTZKjpsOCgAxcPD09Pr29vb09PT08vLw8Pj29PT27Pb29vb29vbw8PT67Pb29vb29PDy9PT2+vb08Pb29vj49vb09PT68PLw9PD0+vDs7PT29vb28vLy7PTs9Pj08vDy9PTw9PTy9Pbw7Pj09vb0+vL69PT29PDw+PQ==",
					"4J3ZLXtFGjpy8EJ++rDRcfy0SAzZM8/eQuQGwiyy471zaaU3yNIkhNGvm0YychU6URzDesdKfFNP5UM2tMA+ICxJs4N+SKMdZ1sUkoz0WzaXJ/evpinNyJ3kXtyXqGURrOSHfcgJKJ1YQwPa9Z7y8fE+u9/4xtZXKCYmN1ghsnxR9myVhIJd/bjctTV5Ex6CeU8LNGzspPRl08VhnOQvH+r69GYQ5Wr9/ONSoPsO2RISxiq/FK8K4ipXO1fZO8drHNzOVb80iz6zqonOEHaQXFRL+uuE7X46NkXGU8LdDu6/QH2tnHY9uh3jkMcdV17mJjF/KannamrtgXg8V6NSTqbGhiImDB8gRg5ITtrlfA+7wYipmJwl/miqaxegqOCwO+jOYswSrgAjVB+gCbgO1j6UXR5MAfgCCDZNNlbrJOwKc01aL4C4zTe0OW7yHM2eLPb4+vT49vT09vD29Pju9vT08vT09PT09PL28vb29Pb29Pb09PLy7PT08vTy8vb08Pb07Oz0+u728vDw6vD09u709vbu8PL2+vb29vTw9vT28PT28O709vb49vr07PT29vby+vb09vD08Prw9vb0+Pg==",
					"4nRQ4XUjgWqIh9ol3+wXUVF+pSKBy6XfH4M6V0vfI4KIBVdl0jnR/1kqb3gyn/YqYXrmiLCRIafZz42hOVuKu6aYe20+1MfZLHBBTNzcWLE2jNYqDHptf4ywgQPEikC088XJdh6Q/yRnph8yNHxsaOWhI1bmL2NDb3eEETrxMIGN3fsfAxDcbujlDBI7aIkUg5n2H4TZnBMSc2BeEVHCAAGTx3J+d9E2gXvCfrHTOS1H8MknQI0PKkeQWo0H7LlZDl4nYC7owRQ76HY2c0QfAUfp58RW+hZlB0RIt9kyEclGaCxyLlD3k/yIAMiNs1IHK2QE9NwPJsgezjkVjI5YU8gngnj7FEZiGhJpoV8+Xn5bawo2N2HGrmFgtt8ePbFSvOIUVN2BiIpTMBKqKzyTwMy0EMvLGFlqW1URdqSziLXx6jYiTmMHCLK7xNmkMSNhxvT29Pb09Oz0+PT0+vTy9PD08PLy+vb28PL29Pbw9PLw9PL29uj08vL08PT08vT29PL09Pby9O7w9Pr09PLs9Pbw9vT29Pb48vL29vbw9vbw9vj27PL49vbs9vb0+vb08vD0+vT29vL49Pb49vrw9Pg==",
					"4MuIeXUA81MqDMDjEbMYAMf82+eLy3/ANc8kXDmM+R19kWNksbMaAL9dKtYdfACkOuvjP7AW4tOsz+2KLeiTqHbpqXfi7QGGk4SbQSOUeDCQwVHDU000s/27LdAxVPE0Y5LiTAMU4ufj5ZRRtYsZicb02c18muv7614sXAMhc3UWCPG49BXW5XQptNFWZGlCwwcbSZm+bTCqbzJpDYeqqj5JT6tGKHaUsCRGEi05+Uo6QAqAmFFTRSS6OCkh6QsQI14fYuutAe69awNQCsZAFyzjIwyyti5QdvC9EwbZs77dqwxcOVPLiAaWWYS0RjIvXg+iPyFK5uOkFSb5bNuZCuYd9OefahZVBCi4HPYtVqqMFkOtV9wQwo2oQ2NSVbQWpBy9dhAYUGjz06NT6tjlEOJI+QjCBvk6LC6CArfp6aPn5FG6AG5i/o5wNxvrZOE9YPD08vL08vb08PL28vr29vT28PL08vbw9vL28Pb25Pb08vLs8vb27vTy9vT09PDw8vjw8vLs9PT06Pb28PT29PD29PT28PD09PD09vTw9vbw9PD69vb0+vb68vb29vb29vL69Pb09vD29vTq8O70+PQ==",
					"4DPVCNUMFkrM0/utBWf+oOPVx/+ZfzWvGif5fwSPSxNCg7NEF1tHl2pPvEm13A6qFka13y7mv/r6jYMZEdF8C0TL8/+ihQ3/+05RQjLtPh5uiYxnLCRYWWEdw4+rWxkeaRZPDDgQvZFbZoxxSVclUHKuK6nbsmgQwaOg6LX/3mdUs01nqf0UbAOuMdwxWGBUiwfZEWHP3kcuFrbY1DPSMARvNiYNl/15A+DGptrGdSY4Kee3NdgCkdcoTC65TqH1cTkre2zQGPt/tDQKB286BgaKgpkdprTixxUNDP64kM2S1NY0jfUi7fKmHGo1I8Lz2M7Sxx3H371pFkbAto8g/oIQxcP0PVQUIeO8tNKlBJMeXssUTNA0k0cfJIzNb6dSKfZRFBIrABrJpvhH1lL9Wz6vWEzJU1Ht4hkM8jNw471V1ffwVmrTW7tkEdtDBeXO8PDw+Pr09vb29vb29vL08u709PD29vTy9PTy8PTw9vbw6vL29vr28Pb09Pb28Oz28PL09Oz29PD08O708Pb29Pb09Pby9PL49vTw9Pby8vb27PT69Pb08vb0+vb08Ozy9PT29vj29vb09vj09vL09vQ==",
					"43X8gL0Y6bk5+/UnGECvffEzQoEj92oxotUs0FCqmwEIervyScoOAPjHKrxIy31oN/huLh2rQ4fx0w13wJi7uV1yf6deiI7MAumXSRV0JkDXXodJNJypXOSapiXxrXtiHz0GzDgq4b0wpH0q3XFterpA0Lycjj2k80oXFD1WkkWTT0kcG5daosgkdFX24P8U1EJXgnetoyhi4cZ0aykAwhon/Qv7DPWNX/2d5/AhSHu0T3hbfTyWb/Ht3LQ94BExia88t7DIMHYEucGcOhF1GfGmZDDpDm3fCArrJ/o59vwxdIpDn4CIBTYrUdOHCog7wj8Ivx4wIlea5IYwBdJYzx1YDgCqPK7GjmmS7lzzHxAUwWI2CznQA1QYUbZho4eEQosgLlLGG3++ci/gEpRkd+AxgwO1HFNRA6y3L9x7nKh1OSG5j3TIDoMNdhq52r6FuPb4+vL29vL09PL09PT2+PT09PTy9vT29Or29vLw9vDw9vr08vD29u727vb29PLw+vbw9vbs9vj29Pju9vDy9vLw8Pb29vT28vb28Pr2+Pby+PL29vb69Pby+vT29Pbs9PL09PL07vr09PL09vTs9Pg==",
					"4QvH/oonnIhfpQhkFQsra4UnM9vWG8T/6rzbQEjqERT95CxuWAgREueCocD6w0YAuNKwVZ1mWLDwEwrthB+4Ibr6PxP0cOtxlqM0rCB/ji9QXN1pnXKJgw0MX+IraAgVktAC9Nlj3yc/o4PMxpjVvQasJc6FBo3Uy4QwyonZQ51boqkfj97PfMqGqVfNvwGyf1TNvyl7b83C5MDVYVdT3f359c1JukPwUd7LMnUiuDeAkrJoWR5ey8auh1m3Y4ujwjweOFplhKIWA7lIT5vAbueq0abrN5W/JNyejHtRmdP5gBlBcF04XjYnbGpi7po3cgds72jZpa8LYwApGtDhJSfCtpHCTQ2meiJIH4Au++JXRf2eWo3rHwpEckslKJ/QJgCMwPpTJgbhWa57rp5UwsZszCRKpzRxRdPAlDX4NFOYFMuUtbnG2zWkMsqakA0uLPb0+vb09vT29Pb28vb28vLw8vT29Pb08Pby+vb28PT08vL08Pb08Oj08Pbw9vLy9vb29vb28vb07vj29ubs7PT2+PT28uj09vb09vT27PT29vD08PLw8vTy8PLw9vb28Pb29vry+PL2+vr29vL49Pg==",
					"4H6+HFFuAzCNrjB7sUteCs4G64KhOX11PMcdfdCh+YhT4zUCevJsPij9GjUidGUDf0RjX/8+8ZfObVgYo2wIZuQeedPaLQSBrYGMZsGFO1uj4MKKX9n8ildCZVGdSmTtIqUI5Nu7wMRdH4PKKoNEUay9e5fSVhYK+LeFqCg51qFVSfCSF5wX7x2F7DE+hAbiGagbfa/FYk4FCtvgFQanES5YqEwH0+uPcHelfuK+R/uvvilL4u5qwUuzjKAIlN11pOhbT1ygmy9iJbCMhynXbs/cVCI/Uo2t6sExGX09l1gb7f5mtOkeBOsq+BjHf76rDy4YqUBz0ibGTriyeneUGE4gPH7l5iMlfgtnBGQrcST1fGcI3gmky/j26qNUaoYyvgwkbfBhcF5CN/QSs2ZcBAzSvGaVIJXuStsdoiubM4JLrMDaE81GmPkOLPDoF9wGuPb0+vb09vb28vLy+vTy7vD09PD09Pb29vTw+uz28Pj29Pb28vb29Pb08u729Pbw+PT25u729vbw9u728vj09PDu9vr08vb48Pby+vb29PT0+vDw9vLw9Pb09vT28vT29PL0+vbu9PD0+vb69Pj28vQ==",
					"4z8fuK/1QM7AA9CpUPvpq+w9CHDwcl3tHWOGfvoJ4Fprl9fwnLPMjzOPIT1VggtAJQkETiX+iOcKU9WoKkIqxMj2Te6M0WZs14aFPwTZ6pzoBs+MdrrmYBYtJ6yCc5p+rKp5sjsA67yGupi7f5ntt6+WYXiYzmqAt9Lp67mAjfKUvY0xFdhEBS63HstYn63VLkaeatNAVH2W/kw/Dv62NrA/naB5xQNKFjXvgmRFrDMtanVZ8DyAyNdbArgudZNQ42NTXnOFq8Gk/HsiMwJcybboS49xDsebol7mxg/6odhhbQZ+ZTbWQeY0BAuPToKA8EIFgtWPFRY2k8/ln6ud37JCHjgOO3xcrkQid3Qc+uRwK/HO5c4PLMTmUg77io5kW/MmSgJ8nZweLJeQOeRjbmwlXNc/pA7w0LYuBsgMXTBwJTQyPwMSd/Hi0R6/8P+TgPb27uz08PD09vb08Pb09uz29Pbw9vT08vTq9vL29PTs8Pby9Pb29Pb06PL28Pr29vTw8vT28vb29PD49Pb29vb29vT09vL0+Pb29vL28uzu9Oz29Pb28vb09Pby9Pb48vT4+Pbs9vL0+PT49vDs8vQ==",
					"4Q3ujueK3p7u4agEVPfeSdXv801RIJlInfDr/Lgqr5NxRAhmrY6AC/KpIjWKIGJlhGrDnRqb5lwbX/kxHQID3Hwct4lJgJ0u5H82RZ+5vzhDnrjN+Ew4qiJAHlnWcJnGgpGY736sxGJ85jC1AVQ97Qu9VH6s1w0PCgd6f8+v6twvVILPiCepuIZynvBlkQTc/W3puc9E65n4j0opvFdgr4IAccKNf5pPAlcS1Yoz7ftuQrxkjIcM1msRDI2IDicf9Ac7Xl8QtMxBACY4fRpAS64OJP0lDQ4PqDAwPQNI/xXKHlP43ab2A0+0sHbySjDCRF6jpxGyE1V7GsEcGnwsJrh5D1o+W1gBfuwvwsnPRiriZcVogt/mYan3v1447BgxzCpGEnNOpC9OEiQz/+uUApoKdhzMkK6XYy4jyV+WwZPqj7JC6v4q2s+0A2hTqyawJPL27O7w9vTy9Pb09vLy8PD08PLy8PD09vD29Pjy8vT29vDs6PTy9Pby+PDw7vT29Pb29vT07PLy9vT28Pj2+PT07PT09vb09PT0+vT27PDw9vb2+PT09vD09vbw8Pb69vTs9PL08Pby9vr2+PD29vg==",
					"4bg6W3513Hv0rSSB7Y/dQpaq7QCiHApLb7t7a2DGw/HGTYIdv3JhUhRCcs+mOdV6Zz15TusMDSO0y3Zqmpgp5ErAOE1+e+6Mh8xfd3ZxfUgtqiyM3TV9aaiO3I6uQdxBg23Oo0BQfzmwpTX9VxseHaIJBQsyQV1MyNIXouhlFrCoU4A9ScXaAuIgK3oPIgb1jGJJckMmr2DxGK5PIiKYyKdRKrU+lp3F1G6/z2bRN6TxT6AgHQ7p5AQbq+DFyKBLx1V2el7qpjXJv5WyzLYlKymNbvG/JCQAsQIZHlHdVmL4Rv3qJnIMJ9aSZ1tIbC7sXsR2OTngTzTDWF9vw4fqf+34YvJ/4swqze2T1+TqLcIwLczqiUrDYE3MMmkW/rNQnaZV/mkAg37CyHxUX5SQJE8IXi9OwRqIFRe17tbM5I1MLHA8Aw88f2jG/au+c7ml/vr09vb08vTy9vDy8vD28vLs9vT07Pb08PL49Ozy7Ozy8vLw8Ojw9Pb09Oj29vT08vr29vb09Pb69Pb29Pb29PT09vb29vbw9vb2+vb2+PDw9vb29Pb29vr28vTo9PT09Pr6+Pb29vb09Pb08PTs+Pg==",
					"4z8ZxI1+6ZkCHM4VSg5ZyIKlpE3UCgpv5GZJ3qHCB9fWK+I+2py1bPID3kdKfR8lQL0Nhi4QbOpJ50e8e8/Ty+P5b+SllHMaN+bZtqLQY2D9w2kdI/yT9w7+8DTkmc1p43b9mLzlWckZ3B+paACXk7rd1mXq0ChUSrDsU0hW4r5xQVFx8Izb+PYAeVj/W3bKPuXhibqT5y1MDeAw3IH6HGRNPr4zqMO4VuNWsXqnF4ca7KSw5SP6srPx2H37KVBfo3kEL9rAw3TEbPn3MJlPTMiRdLvgQ/uqoMJ8uXFranZqFrUehiIIoTJxi3Mw5gTmoc1YjPn3ivJA1jCTvlhkm/Y22+IqNO69pIEddWgBJx0qxRA5jG1SSi5gJz3wM35YEKOOD+pNoVBqJV2wGiZ2L9hkPiSoo1PcKOOImCGo2NdoATUy5rVucTsNMjlgeNdlJu70+vb29vbe6PT09vby9PD09Pjy8O7w7u7s+Oj29PT09Pbw9Pb08PD29Pb09Pby9PD09PD09vT09vDw9vbs9vLw7Pb09vT09vbw8PTy8Pbw+vL2+Pbw8vT09Pr68Pj46vr69vTy9Pb28PDu+vr06Pg==",
					"4pwKClHLFpNYzvWKXfNgjfSDY1A7YOha2V9t9YS5o6i+y3j+/SRmL1WeIaZcV2iUg6/QolpVpmd8dIJmme8AumjGMEtQwWFynPBAuJne3wwuXSZ2bkhOzhmbICDTrSU3PgVWnbgmemU+mfxh9zUf6iD4A7DThQChWJ7IiJ4N0FXganXfziyQUzwM1Z5XWtFHj5v1lILUnvMIsH7bYfQcG1Oou3CTl9Z/4zrgiAwE5T+fxCciTXNdcsXqYrYFmM8DNmVhcX4QVcAFMncumjFALOSWrD1AKjL5+BBpUN20SKnHVALbBJYBbpCzOnZ7NGBxZZDjfk4fU/9LF6pS9qWu2hedInMLQqFwZ28T59YsCsnSF8TIZp9H7NU49nSD2FSQiIRUkX9kbVxLJ+SWfif2KPIwy6KTV+xF7uahGHumNub/GbwC3MQKDsg0UY8WcK6S0uz08PD49Pbs9PT09vb49vb29Pb29vby9Pbs9vLy9Pb08Oru9vT28vT08Pb07PT29vD0+PDy8vT2+Pb29Pb09vTq9PTy8Ozw9u72+PT27PL09PD29PLy+Pb09vL49Pbw7PDw9vb09vr2+vb29vT49vQ==",
					"44pwXbfnaWCcQat/x4H3YlCLaCavE/hegDHSaoA2uUPzAVuUMbJpBqLdrRsNmEjow0Ap1ZVKYtbxjXLV8F0fheJAw908zryEORrKjjyy0JyfT7nUKl/WPBIVOYIyF+xEuFVsrn+yysUMgt5Yvnke8P/l/lLAFoeelv5NKxvmzrHeI3oNjEkQi6oVb9qwYKbefEZCHHZHbeg6FtYbSHYCl7wF6W6Q67bEGnuNk5NiT4fz4bEsM0H7lU0bhrQiUbW1sPbz0ASrLIO12o38nUgG5xkAN9Ll8QuNCHiCHSB1pgKVSkYY7ppO4q60OJc8R1im6hP32pRJkB7js4LAMIA/azXtWnhe7UMg0D3qF8wdRiPZg0l9tu6Lb5s4QgoAMDuueE45r5wmxxvEXNpKpAnpLs7I/w9Ld7q2yjL2WFSgaya+9CCPIb0xACojRyD+B4BolPr29vL08vT08PT48PTw8vb09PT09vT69PL29Pr28vby9Pb09PD28vDw8Pby9vL29PD05vb07vbw6PLw9vTw8vb69Ozw9O7w9Pb09vT49vb29PL08vT09Oz28vb69vjw8vb4+Oz4+Pb27PTw+vT0+vQ==",
					"4uzGemyYe5R9bchs4RxmQxYOBiYiR514e/1QURBV47O8r0k01BUmMCP7ArpN7nlzTazxhwDfpmtZw1c1xkSoiHeeJhrnO63baAx8rlbjLXFA3bRP0KeIY2gWcITkr+Eg11MTQfY30zaXD1DNcHGQQcasQYbGrjPyrIVuDDqBCr+yRpzj11tbWNDbQ7dPwyWMv2yv/TMXor+z+l6433NZvpGjKCcaOL7B/vuYFINWL8Mn2d8wICmPN+mlFd+9Mto60Xn2Ahz5bamleOSY1hDo3NIfsSWV4QKbvnv1gjAoH86RfZidMWTG+P34eY6cDnBSCL7T6xDCHrNPRkTXkHlwq7mL8lj4Doj04YBgBiESLFiJS2p7uHDY3S2+Dy7DKg4YTXw8zxwE4m24xvUeE1eespU2NPJ87+ZtoEhhPgZzF803wI0UKHncoATo6Xk1Wb+5wvb2+vb29vTy9Pr09vb05vD28Oz28uz29PT08vLu9Pry7PD29vb29vj68PT09vb27Pby9Pb49vL09PDy8Oj08vj09Oj09vTw9vL08vb28vbs9vb28vr26vb6+Pb28Pb0+u76+Pby8vT29PL2+vb09Pg==",
					"44SDbAxukefmo/47zGFW0/MlsfjiakiFkoc8PVNzbvBJT2UtAI1drfzuyiSX/YBf/ukcBHuU3PmCTPvqtNjRUDK/qMqeWYaGOk84wiIhGepTAf8sJt/zlTJ8aDpxztlB9TTHh6ZG1BtZPxEf/CGmjkNq7NfE12HcCL1L1Votx7Mj2q1/D1LoYekhY+PM0md+qgh8aSn/hLWYADVQWY3J5QecGJ63yG+pdFAlHPIwMlCShUNIqLZGejo2qlsfcz65LWZMHqG5iXikYaB04FrbjKA0fO96hBKy0mnZeP73qpMMdTl0XKsWCxwBcCAnRIVh1BO98z3+FsxapBSyRWW9CBAQ/r9E5mtkSztFzv6qEwce2MF181TWr5wnmDMna1yyDcqZoiw7cdG0jCBi+rwFPNzWWgoSARJ3h7GsZioBAmxMG+npF+C0EkXMNBM2vzebjPT49Pr29vTo7Oz08PDy9PT07Pbw8PLy8vb69Pb28vb2+vL08Pbu9Pry8vLy9uz29PT28vby7PDy7vb29PDw+O707Pb0+vb09Pr68PLw+vT09PDu+vD49PT09Prw+Pj29Pj09vT08vbu9PDy8PT28vA==",
					"4twi1pFN4Myd+tsgiqw9tVQxG3OhO2OiiXkxIBCIzF6/qQJ/Fi3yO9tlHQW6iFBbQiqLT/2hFFaWf6gkNpBV5cAwG2s1h1xxaPyVHL5IIZ5PBXcHnPmUtAP4Wet6Cn5XbbSC8xOywMFx8+ENZnVBfp/jKXRBMLlAuxCgEMG1GG+3JY/NtgL7iJS3fuu/9BbBDD5o+g6nj1tZeOLlnxm6RmdBOua1hGq4dz0M3zoffH3xLKA2DEYc8Kmz+JE68gkF6dK1Zkf5Vrt/P/RWojfFSM5c2Dk2UhkA5LWTzbpTdNm+sqBgA+Z+cmDQo/RPHIUQip1YbAKIMZfsR5x7FPxAKNA0GQqAhYR2Wg8DgsEZzHgEtMTWkHY8eGv+yYchgVhSV0ihyUHp4lMrLjY6imLUsmtE7gfHhvRCTEagM8Dh0xwW1SPm8f66ZLxuer+Zqjwc8PT2+vT09Pby9vT09vb29vr06PT68Pb28vb09vb0+PDm9vr08vT29PTw9Ozy9vT29vb29vTw9vj27PL28vTy9uz29PT29PTy8Pb08PL29Pj07vb09PTy9vb29PT09Pb29PT08PTw9PT49Pby9Pr2+vQ==",
					"4ZZo2gySyAcbYcIRxl4Ks1CYaY99gNCpVRCeSimqkraNiNbDHxWxy+BjBZ3jy/dTptZnUAzARpsBiffh8+Ewx9JzpYxbemCM3upB5PE4x/aE+cDAB28s5IeyDSB9DsCqGIOg2J+Rh20U/ugp9eZYNljZwpe2x8E90odVHNdFGSpBaWf8j1wLx1Mt0GFxn62AB+dXACkA4JZVw62OdE07DLlfC319RVyFQLQUPNWLyimH+jz1yIehCJcgY5hKU3u7h3OawCRrkoigJ9gQ3z1HQ2FVClW9MRuQALfN4wFQFS8ZXNy1UD6ArLBezuyamuqm2BFjBtqOwnDiyahQbCQ1kLHLz4mqKQt9ijFjVjQWAuDCbDB/cll5ACZ4DQh15oDwpFoIGecWmwYxXQ9UdoLvgo8URetRiE+3ommcXHKUnjx1gmAsq6b+1jZrPLEFwlp0ivb47vb49Prw9PTq+Pby7PD49Pb08vT29vLy+PT67vb09Pbo9vb08PL29PD09Pby9vD29vT28vb09PD28vDq8vr69vT09PT28vj29vj28Pb29vr28PT09vD29vb49Pj4+vb08vT29Pb29Pb69PT08Pg==",
					"4v0TaSTXx0KW4rl2yf/aHsQDc9nlFncJkiT7cLIq86dGFTAJWKPfsYGO/Hwo35Uw+HOZT2JMa34XT1xqUwcc3Vi6u4hlhgtk9V97RxVknp7zlhOmNgp0Gi9zkBtc1YXRBMcvqmpKG+ed5oyovF45Ttd0iEBeFrFg0v4r6iSbUCf+0/pOJQJfNxv7OYlj3Sgp6GKG4Lk+kQTu+CsEhMCtooyD9Zss3d1shrsEDs3XaCYpSsB1vtTxx2uHiOXLhFMqhTa+lpclhTQlzTK3+We7Jf1vmhvcGOBiCVuAp5ylC4cT1S4TW8MtT2j3VVoOpMC2Wn6TivJyFQyWlFcrYiC/JyWqEIP6+A9G68pRtVYQxNYJKEqOv0igHeH0uZ6ZKlVdMN472woEOZZW+6xp0C1MG8Z8qZQyq6vguUYtTsJllXoS3GODiIhw8TAGZNNBA0dQ1vT29O728PTs9PT47vT69vb29vD09PLs+uzy9vT08vbw6vT09vD29vT09PTy9vro8Or28PLw9Prw9PDw8Pb09PDs8PT28vj09ub2+vb09vLy8Pj4+PT09vT49vb29PT28PD68Pb28Pj4+Pj07vbs9vg==",
					"4SW2l/gpgvbNoaiXkQbijEBumVTzWBSYky+nZREr+eOuDrh2V4P+X3jevM+yXkT+Jrr1M6Dbu/r5ewQ/LD94YvslKM/hJD3uVkYEqjlw7WnpRIlK3edyuer/xvHwoI9lnbA3X8N0CpL1XjJvuMiMwfUO/jXnWER5k946OFQmtofXhJbpkuPnMfqL19/WCipxcMYko+/f3dqRNOHcvZ5oUq4xr5kPDIswVmEpVuPpcdJJ53EpKG3Qjxi7ecQyKwNbprVMeHtORb7qzpPYp0uo8Bn1EnhU0gUp7Z5yzIVrLXlmFA1GoB7bNykYHBlrrom38fSZTDBToENadOojX5nzT2omnRJB1H1PY9UTHyTieUXeQMXpgmINOyuUvF0hmfnUg4NTI78+RzvkGQjcMULEow9ZSuF/5mi3XI/2HMNxc32E8VsWMPAch7UL216KKJa/xvDs+vD46PLy9Pj69vb29PTw9vb29PD29vb29O7y8vbw9PLy8O709PLu8PTy9O709PL28PT09vby8vTy9vb09vT08vLk9PL27Pr29vj28vL29vTw9vL29vb08vb29Pb08vry9vT2+vL29PT29PD69vQ==",
					"4aJn7jfvXl6Zg3xPOmOhInZRXeIJNwZzK+/mdBjRrlpfF2/4o40D7ECY7ZrgKvPk7aIVNcZ+Ch18MoeKEyWGS+/UhWLjp46Y1p+eyE3LmG8Edc6jtH5ngimNZNLsWHRk6HTww8Kb4WY8GFpA8jJlyaegyjheKvU+/66VClt+HcPze1O4PLf9sUQqD27pS7QfKAJ9vRjCt3lYzsWm8lRhSdfztIBeiS0baY8wij9JLn1j/kdv5r5rSnacwdYj9q/nHdnk0OwemaIj5Zio+jC9sBtO7C6S7MeoKLqi/5KuD59qFQhByyiZzl0ayvOxVgqRqH6SaDOGu9lcrX/Sb/Td4JvN0ERcIvmhpGIzixiBCd7naapcbvDLX5hZJJ5ogqgZqnCXAQAM51/qv7YQYAq+sODgY21OrylFqyR58j4q7ps8xI6m/+AVEvyP1r4m8Ahn/vT48vTy8vTu9PTw9PT09vL07PD09Pbw8vLw8vTw9vD09vD69vL09vT49vTy9PTy8vD29uro9Pbw+PT29Pj29PL2+uzw7u7y9vDq9PT69vT28vTs9vb08vb29vTs+vD09Pj48vT0+PL2+vb29vL2+PQ==",
					"470MSDBzQeMOAm3LpkDQnNKIgq29LpRKNRtUln79J98JJH+ytQeK1ic/+0dCAwTyHRJrCaRAan4o/Xt52Kd+E1ksnmZXc2K3cQheBaIISNJvLwLJIUkdhsa4EFYxSZ4FvUIWCZ6/9cu/gjRZ24xAmzPuNzDJj//WAgkifjkPluRugzaHB/PSpyf8/BIXsoo9+ejo7iPXHo2jFp+uAdH7Vr6iqlelWI53+cfd+Hk/5SJ0UmWiHtmtk/iiegUDteSV/KnftQKxDhWv6YQlAAVGBCadJCl5+87P3eD1oe2xxgXyFcKKb8S0DrNeO7oLHYOLspsuLtV8WUoNAKwbjxy9/SRTD9IHjgkzrZR6H4CBLDCE/AiIewczfvP7UDR5WPZi4icYSNKU7UtSyG+rjs0+HOZXuoc+1iioNLj+utySEFERXs9WBvcUKCUxz7hbJD8omPT08vT09Pr09vbw+O708u729Pby9vby9vT2+vLy9Pb2+Nzy8vD29vL0+PT08vT29Pb48vDs9Pb08PL0+vb25vby8Pj09PTy8vLu9PT29O728PL29vb0+Pby9Pby9vb49Pr29vb29Pj0+Pbs9Pbu9PQ==",
					"44OCIW2gLeUC9kQZnD97u3DfLVk8tXBz8IULGSdPWvsNm4dAEFxbDiFfd2sylgBtONfQ4vNLO6Y/AWL8QzajXOrHNAkAMVfCSYBtgTuBSA+g+Tex4nttJ/VWKBIbg8gsonotXs6NVLMWX2hB5AnXWbSn9bTOshQq+YTERDJM0jiAiIEahuB1dG8WvV1W2vjkymExmrDReGZE54lDdBrQbSJ/oDryA3pf6gODudPi+LYL6cK0sOcFWXOqyiUoBA+HdGr2bizMHNSqj6TgrM1ezoG3OZ/te2dRn2HrEEfJEtodL+u6q6QQdx3ClBQuto0uExgGjbh6CQkB1FkFLiURciYh8X56+IYSQsQOLEbsHBasDmANQRe4fE22djNE9ek0KO+3nsgBbfIXfqvJBivaFFAYPjGIwy5CidfbFGWqqKeTWssYMYefPJYBihD6iUOANvL28vD09vTw9Pb49Pb0+vb29PT09vLw8PL28PLy9vTy9Pb07Oz08Pb09vT09vr69PT29ur09Pj28PT09vT29Pr09vL0+PTu9PT06Prw9uzy+PT28Pbu9vD29Pby+vL49PL09vb29PT49PT27vb49uw==",
					"4sFh9ghDZppck/F/R4vLn0zIyBJtzGFCUL0+xHFPpZlRdn+Ivl0bvVXriAm8+j9MASHmrXf6yZcFp7P6sn1tkIm9MZBqVjTiuXhXVSG1dsiw134LBPgU81Q1RLxXFXxxPt8EhCZrhSl5/PZ7dQtXY8t2wjZUL5KpSqWP5wbJ/K7fqxUERel6FQ7XnRt36LefguoFJqv/vC5TR9FYT1QH/XfYe/a1m6kPC/ILUTYL+fTFh0mmxiDQHjwLp83ZXWagmaqFpwWKxZNi/XMHYKC47VZ76O0px8yFv+VR9szlE9LXJDdWqA2VF8/cCx11eRInFo4yY2KHg4gn2S6C7bfT6Q5JT0BUskj94foXGx0MQwFGaehtRsEOZKD796hRIclKkmym6NQSPi4Z1AYGNwknlqNK40lbjDvWILZ6owkQYqyeGX9UGt9SKMLP5+C072o6Svb29vD08vT28vb09vb29Pb29PD09vTy+Pb09PTw8PL49vb09vTy9vLw9PDw9Pj08vT28PT28PDy9vLw9vT09vb09PTw9u708vb09PT0+PTw8vby9Pb69vb09PD09Pb09Pb48vjw9vb06PT2+PDw9PA==",
					"4pB5rCRXy5PjZsgI3Vs7NqtUYOPwZn3uy6SRJ98p1ceJo/jjfwugyH97wxTRRkVdvzn8TWXxT9HeGwCtHK2C2J8F2BCAslNJsPtO0blh3Q7uo9fQZ+Ou4TbXXIhXt2gcdRc9c8Go3RNd1jDbOaxWJ+zbpfzxiKuvBu6RUBwDwI4sXRr9nHNGKuBwCBKMde53u1JgHIySc5UwNIA9cnqiVNrio+lT2vbHUQTvw7+KSn/1sFcbEI9zcOE8lH2qkS1X4E6gNzy5OMWHsSCPJMdt/qOnZHcM1Z5Vx1IBWOYw6QEwBvzcWlKthIZCmkJSG1Ev3Lw1VwzlbHayh2xVHXoStBgHJEpPRYHsLSrM+9XO96Uc0DHyGIiwpTOttFK3oi0PGiB4q5O6jsa4TgabpDMuSEM6ZKLnRuVIChHnuGSxrAHoMgOmz7lRlhAFj4t0AjYSrPD09Pj28Pb09vDs9vTy+uz0+PT09vL49PLw8vT09vT29vTy7PD08PD29PTw8Pb07PT07PD69Pbw9vb67uzw9uD09Pjw8PT09Pb09Pb28vD69u749uz08Pj29PT2+Pb48vr09PT0+vbs+Pj09vb29vQ==",
					"47f+8W5+M824zyNE9/fQVudOXOhNR3INrmo/0gsd79HXdaZw/L1IaDo2OQ7NiERiGj0ul7FMOC35zJ1I9yOo6sqgn7MCNt/qpxJK6A43OVB/H0LGdt1CVSVDQhGyjZDvvVRqfte2XrgEjIIg2sxfSU08PTBrwgIrdExe55tCzxKF6/mh+sPMtg+lkkkyLnVek1O0Sf2Qc01Fm8YuOeDcZB9AEwGaeOE4qZXiSz5wCD9c5iMp0FHP/nqF12aVmopb2rKJFCwK4u0ZTZC+QlI/DI3s81BOWlz+XJo97HDWMSvuPdfvD1bhNMWaTz6bJGYnNgqEReJqSp2LCAAELyenVgU6iqTSYF8kE/6iXnBerZYUhge1faqIL+72mhCMgq6+Qdv/7clRXyH4B/mm17U+qSVXhDBkAXZiKEITvADwxqcDNAOWq/qHyOgLO3AFw9YbHPb29PT29vb28vT29vbu8Pb08vbw7vT28Pb4+vjy9vL09vLo8vT47vLy7PT27Oz07vT06vby9vTu9Pb09vj28PT09PT08vbw9vTw9vLw9PL09PL29vT29vT07vL69vDy9uzy9PL09vT08PT2+vb29vQ==",
					"4HxZ/DFETWsAkFqDH9r0J8cEd6IRYksTPBtvcmtWqnLNcByYmAj6Q8oXtgjl6EJAcYm9grGdJalumjhSK4WpyD1yGjgUrKyWrU24f3S+HacuZo/TwBsNUUAsskKN39KcgZuZK2SDyALjmH+lJqi2GXdZiFXvcfFJkDdj/d/LnGCc+R+EMM1SsYkusnIcDgFgN5y5dgJU7A+FoW5PRNHdg6dWCpEFTTtq+otg46Z41bNES3OaLOcCOrWbDN6tWrm3y49arabbyABaXD1utWxq3DNVC1jBJ2/pMm8/VW06VsN9Tb8aJN9kAD8TjbL2PmVaX2AokqV8mVhowAKrSfquEFZ0ZQrBvY9KFIJqCE7wIW97A6MbyoKKEik236JXCQnOIzb5JFD6Ny6CbmrqEAJFxQAbXm/OPhKjZ9w/QklOXICGhAhaj6P6eWbs3xIT8CkDSPTy9PD49vb09PT09Pb09vT09PTy9vr28Pb09Pb09vb09vD28vby7uL29vb09vb09vTy8Pb29Pb09PDw9vb29vLw9vbo9PLy8PT27vb67PL29vT29Pb29vD09vb29vT49vL49PD07vT29vjw9vD69PA==",
					"4INDjS5JPWspU61UX5lLf6TcEuS7kmuetIuAOwh0FAp23IjUsrEzi3dCU0+eGRGlZMSzbci7a0DVJHBD3pCbHlfuXtw5P0C0OWOJ/EvbcOF9loHGcI/t79pXu0+4JTtFDTWKJwmWPmuo+bpCoNzouEzUbeYoEBBWE5OrhOzfIRZoLbbYQY+O7UuU0MuRQK8bhhwqnwLXBfV9QnYSJnBTQBny1ANTPn3ffFXoGb153Foloomqg2jjnbbc5e6bdLH5S9Dfgdt9rlQi4gOpEWVyeRg2Lh0fgoM+Oappl/zwNb7bqVLofj5IiHcc07fpXAu/ZQNZKKPWezLroBbFCofkpVyLhEY9/mFQ+Ku6Kr9Q3sTOW33uDc0hpw7os59kJV1vJ9sW1lhg6vA4bKK1spo0tpgsIA7bhObFzDmjQBTuTFJ0TFd8jtAwBgoQgLKYIp7ZVvb08vby8Pb69vby9vb48uzy9PT09PD29vL49vjy9PDw9Pb09vTw9vL08u709vTy9PDw9Pb09PTs8Pb09vb29Ozw7Pby+Oz29PL29PT29vrk9Pb49PL49PTs9vL09O729vT29vj2+PTw9Pjw+vr29vA==",
					"4VYLbR7gSV2PS9KfnCF7LTPg7xZHRCMcYBmqI0I5G6XbkDiFM3+MozndSPwOTLr9mkdOJiO2lsseJlsvWu07oNW2zA9GAuanktWp9a0vwEBH11lmpUCIJEj5tfPAG2pT0BNUMYLjAJ3ibNaHx/CZrs00mYra8XWo8VT+hJsOBLlJiAGwTymMbwFi3N25kDUq5rhpoasTrMyn5Z5uoONd8ZjYr4RdY4zVJ1dAbgSNMLsWM1B8uWdOsML1+6/bmMyOXfGiFlYuQYSovzmdU2Sh/0wff+Id+RccPxcDsP6YUK051h5vgJUswVnEQC11KhFBaS27fCYC5j05A17yIUSEsyyXC8jSBKyIwv/hNkpoLmGKl+aJ0xkHPFJKtZyGUhY2hFZHXrQFtghE3kKO1KCpAyb6yB5MHmgBQthCAkCsPwzCGr1Nrm66BEKE2KIEpNAdyPby9vb69vT09vr09vT08PT29vT69Ozy9Pb09vbw9Pbw9vbw9vT09u708PDy8vb26PL29urw9Pbw9PDq9Pbw8uz69Pb29vTw8vT08PL49vT29uz49Pr2+vb29vb29Pjy+vbs9PT29Pb69Or69vL0+Pg==",
					"4G1tN+TbnPurx2YyKV6NhVjVpdnGNbdcs8dEz/gehaI15TsxEKCBk+KkmtuSUigY3Z04U22aTdZX85cxnVyufFCN9PZsVKQta+K8wTRGyY5KFbMm/GzSoxlmQ+Or0cvyRNIyTcabsaePLwHS2+c9ydGYcRR6U2nnnPFy7QOwDNZ+rVaLt5ScX0zrsvQI0cFTKAYSFpfwWjtJ7WfQub3Cx4RveiWFC3ain+xySCgTSebx5BeSY84mq4cqWyBsIXs80eItR/DSgEKqOYsKbp8ntURbqs1qtGfOceAZqZH8Kb3oQHrkQjTYVD3nYzoUz4lTaHkGkJTmgUb65usKWhgFe1jLRmUyM0g7fHU761OJOofGkgeifbN+RltMzkYeRJBWuLXIWP1ZVO+bPJw3n1PJhi1/GOVpfl0/YbCEKNMCZ4XIEZY8ursqKB+nVeJGRoS7ivD69PT29vb28PD09vL29Pb27u7s9vby9PT29Pb09vD2+O709u7q+vT49PDw9Pby9vb05vT29PTy9Pb29Pb28vL08Pr09PD09PD09vTy8vT05PL49PT0+vD4+vD28Pb28Pjy9PTw9vDw7vb69Pby+vQ==",
					"4HLc54hqTrneHYYHanD/LphODmsqZvjEF2QY2wrJ1mF6jBVoZpa83wViXolgcn2LcOHVApur1RUsO9/4Bql2ZjcrelDGOvu+j1Hzx63tmPntBHetNF+9p3j125PpBi+GV+N/3q/BNh7rUyxh1HBGcMolK74F0ZsnWqONJSGkjkW+Jc+wxv21zjdgDabvdV+lqO60sXitQMmk2lXTvbdNoSwQAdHyCBH79yRzc06VWjzaekaL1S3m7AbvVzE3uIodqwI4PCZcUU3QivlTGsDO7Ok78Dl7JHjHeSL5g8n+1+L7YsMZGFHUmIO+JXb4GxpH2Z3YjlggOcWbWo/S8mZ83VCZpfxFeEzZ7jC/CtU+5Bv10lO+RCNwiT6UCjavWmHkW19CKpIe5iPEpr02D2OEaHJpCNiVLlvkmXbOXSobYEhZIu1MYu8giDruHUpteyGcLPb29Pj49PT67PT48vj29uz09vb08Prw9vT29PTw9Pb0+vT29PL26PD0+vby9uzu8PTs8PT69vby9vD29vbw8Pr09Pbs8vT08PD09vDw9vj48vT09Pjw9PT29PD29PDy+Pj0+vD28PD68vT48vby9vQ==",
					"4n3cX/O/84TZrCD78/lm4MvkiVbyud4lzn+1EYKNh4JPmtXBmv9fx2oviKVc4jwr/A7KgQwCwVV8gIdRZB0nFgI/qkk5W0+kVtqd49t+v4HTFDVjDfm/QFAJlJf0sE5T6rzyB8i6uweRTbK4wcVOmdStX5xMvFysqq7WGzcothvfQa40HacrBXZa+jzmMtQgIskXjLE7KPbfvyG/KWbC5tDrwqGVDI+ACDiKmgR4q4YCd6AdRfx0rAsCWG9wnDGi5iNEvOV7O2rSX5whhn4ryobmJkB0C62jNZxbUH9chUhUsF4xcQBeRAf4edYe3jYQllbH81Apmcvwi6IYG7wEilNAjoCmBtSCA1KiqQtgGroWdhQtWuklhstOcI0m4FitWy/Zapam+q52/n+XK1J8kOMo9Qrr9PCGACohWBR4Jag/gItOC9wTQNRWTjiuXBBcRvj29PT48PD29vT09vD29Pb29vLw+vT27vbu9vLu9PL28Pb08Pb29vT09Pb29vTu7vTu9vTw9Pb08PL29vbw9Oz06vb09Pby8vLw8vTu9Pb28vT29PT49PD48PT69vr0+vT28O70+vb2+vb09PTy+vg==",
					"4+x2MFgMVYrEr9JByTLezQFkGipz+nb9BRW4Z4VAnskxPeZixinG6Xicpridzh+x5udpWGOkZeCwH5SCnU7jMp3yCMGRpfzLaEdWD8lbvq2WFdXZc48YjXxCoGBqQEKRow4fM//V0t81PXsf/p+0ZLbKBt7NPYtvPFIv8Sm2lENCSC8BnsXM8Rg68WkcNwWbCT0KOPBGRvtWeN+VhvUD2+z26JHVlhGDC0ShFjHdhXmfhIHij9iMPJ5JASNTVVoMi+G+SNvjH4pS5uE/dnCyUL/QFm0gh5dygIAsFDzQXNrpOv0W8Of8IvZ57fIY2LwLRJh+TeAsVlZ+59mOMmzjIGb60uLAikqPsg8eVONazyrGIdwHWpHWPSMASMUaK1puj+JNoDAWSo6zsNJussoGPsImelqb9EQ6Iau4PZAs7SfWSMJfXbV5iIDwFc6/CA/7Ovr0+vT26vj09vT08vjy9vbu9PL28vTw8PT09vT29vL69Oz09vT09PD27ur49PT29Pb0+vTy6Oz29PT29Pb08vTs9PD2+PTw7vD28vDy9vb29vbw8vD29vLy8vj2+PL27vD09vb48Pb49Pj28PTw9PQ==",
					"410KEeS3VOKYpXp0zEcEqj3rOR41nRhFWsQZ51yErOUzQ9R1yB34tUlka7RI+aHTEHmV5fCxjStFwVKmkIAiNMPZtJNfXDtXlUoe5COx736fNbEp0lyRRKmc1ncilcLji59aAg94VUnhiNKzyo+e5K9D5W8yzzQ+icYtZc8kRMc0l4VdLSoKCY1+JZXwLe4L2KZ8XfQZL/AGUJi/NkFLdZxD8mY/JUYLTWEuRatzU9hED27+GAXenY+X4ifTwvz7z1Bevcdd0FYqqlLBGwwAgeHL63X/bV7Q9+0xpTHydL94opQVJ1omoNwSGEaZsIYXnnAboAp6zfPN4/gcH8SPWC4qsBxMLLTPDBuQPPTlxNqabKWQQnao8oTLY4BWfoIXglgctkUsMA8joTxUF1vLm2CRYfkyxI/V29nlF3AoCZQqJrKbrg14qR+g1wDzlv+RePrw+Pb29vTy9PT09vbw9PTw9Pb29vb27vTy+vr09vL69O709PT05Pb28Pby+vT09PT29Pj09PTw9Pbs+PT29O7y8PT2+Pb49vL09vr09vLu9vr2+vD07Pb28vjo8vL28vb09vD28vr48Pj29Pb28Pg==",
					"4Xn7P1gR4nMICr+022Z8+C389qG/Dwi46FOnGVKfgywEB2l8+eXxzjNABQepRbyFYq/baLxp8yyBduynawrLF89D9BQbhqHyVqKmaJ1EdU+IUnge7i/dR4jfWriJgPACpMSZGj7cLcTkq+hpWKiy6wYap2ufue42MGqjmF2iRWye6AAihVgLa7WMboP30MPmNnNdiC//qgiJwC1rRI0ZiZUGDsgkdn9xfge+U3WyFb3bOQZtJHFvi1+fQwzz6OKNQpmHhcvb8oQEDK04B/M8DteacZYltGYNXex/2Y8ANYtOoD7ZUcAXMNt/EXNte0swOLrtddp7FDLQc55W8L+LaEQyyplob7PM/vhoBAdiKg3I55AeQsaauoyvU3XHb0GDZRClmH9aujvyDsxVejRYTy9w4iLjGUED+DOQ3WbEiSDA5F1/tnWONAjpnRDYDz8V5vb68vbw+PLy7vL29PD29vr29vT08vb09vbs8vb09Pb08vb29vb28vT09vT09PT09vTw+ujy9Pbs9vDw9Pbs8PT29vL47vb27vT09Pbw8vj09vb29vD68PL49vj08Pj49Pb68vT2+Pb09vr29Prq6PQ==",
					"4SNRbYuWyjqaqLT9g6vCsvxOEosxOZt+pivMkvHxEvEM74TbkgGP/mrrdebHsFM7Ff5fO/8OsS3En7TykyV1I95+eJoSPOJHLisWYCBHobURemZjJdPizUM0FC3ib5kqryfioOLX33/uraJPNkbjaHB0AY9wdef91VRZoLtpGtuMMf5viNBt5Ro55a2JOgbnIeOSXa5qbaq/t7zEABjARhpPch6egibbFOghCpEEXmvl3gSN8Dse6cTV9zOeJR72+B3bVuWEdLOSPyXTfe4zmpzOcl+UQ2y292knAySLWDm68inVbzOZSwtOp1rzZryvhN4r4Hafh9BFhFMN7+jEXjlQDjy8gu5ys9uFqwa+TGrwntc1WbgrYGNkJqk6HDQF/9KyY8seT6QUEwoiiQ3wp+btpxJ/fCoZHRFkNkPAuhhNWo46WDgaLz0UGB/SDtQu0PL0+vb28Pbs8vbw9PTw9vDy9vD69PDw+PL29Or29vbm7PTw+O709vTy9vbw9u748vT29PTy9vb09Pjy8PT49PT09vb29vLw+PTu9vL2+Pb29vT08vL08vD27PDy7vr2+vj28u70+PL09Pr49Pb0+PQ==",
					"4mMy4TsMpqrlWQNJOW/8/buBZpUsi6czd7MW7q9s6drHhpLbykCyqHo2DB+Il+RBFukAtW6YNjwPtzu/43f08XHRNeyMiez0bgr9C2Lw9QAvvJctw0MZi1iQfUNDRimMz16DYjYxBXHZ1OT/qmyv94PYflcfSjIsccdQB29NQOXQ80O97GIGXY45rJ2fc4JNQ+p9UUiqDvpoaTgpQReU2LeZ2ALByNsXuXVhP+S80IDZNTneHs97Lnn6mwU2TOo/BmWCwGWvbiJwGSlnP0nA1IAz/dw9LPUoLuN2Ic9KHtM97LF0DkDGGXpxThMaNJoLT3ZvX+/+j06jTOhVfAXwitBrzE9QG4gcFEcBswD+uwyI1Xx2aHgUJj4Kb96ouMyIm92LYBuw+Y4OMMr1NmoiZhSoxOpT+a+WesDMUsJrsPLFuCCQjLnodd8ijChSy+x5evb0+vb08uzw9vj09Pbw9vL09vby8vL29Oz09Pb09vD28vLw9Pjy9vr08PDw8uz0+vb09PT09Pj08u707vb29vDo9PDy8Pby9PDw8vL28PTy9vb49Pbu9PL08Pj29Pb09PT2+vr49vT28PT49vL0+Pg==",
					"46l2JLQU9poLcJTuU+tsHfRH7r9DBlFfdym/f3fkgyQktJulOJXrX8xhM0iINjB/5s57S3NWnYV/rrsomwJdunMiDSdk6tdcMGGStbopHk3tlOCBg+lw0PRRjdAUGaLPQoEX8IsFe4mmZMOKrA3DYysJ/s5HuoB0/xKTBEiaxmUNIXkKC1LLc/GfY43r9uOZFxj+YhdoRNd/XvmyoMTOjgN3Zw0ucTnGSKItjxEGUoJxp0s3fbA/MQjCVV7VIUSdlPGT6XGORFHqehxqV8YYhz4mvWHob1mDHrPxcRcQjM6cIXjVqtN67ALzI66a8r7cKMLIFjIkTuwf6J8EKs8MZmNkYr9DwRzUuo83Z0p1qoVCQxRGF6YrUCtOpwUdeO4bYR4ms+fOodYVh4Q8EBl3x35iAG3GGjRyOOlUnNG9TG5LEGm5atNvMB7JofpOT0IVAPDu9vT07PL69Pb09vT09PL28vry9vTw+Oz09PT08PL09vb07PD29vby9vD29vT09vT08Pbo9O729PL09vL29vb09vbs8PT29PL09vTw8vTy9O729Ozs9Pb29Pj69Pb08vL49Pbs9vT48vry9uz09Pg==",
					"48fW0K9XghCmM1VE5IFu2NVqizq6hEmO/FnVwzT2TD2f0ZGb1J8Y0upD3IP9joK/lIHOhxsr+vkqtN3n8Rfrycbv4T3rT7KMQB33r7ekQUS4oUxFP1nfoBM6g99fHv/rtdzlT5gGJggMWzdfAqQCBUoWCYkx1HVEKeE8JDEjP+1SOx8C6Zg1OEpwZ7eSJ6klbMiWhulBKCrgMTBqoJIF24FjO8AJHar+jVbBLHkMsX2QDNUIUGShKK0JCsRN6IHI2n2rf/yILbs8kRZBvFCnCP6VU55sfXLME4dk8FcenwlMmMtODCbKOJSqMDJU0Tfqz9wtGCqo/FklZVMogtU8JkWyet7rASYvDz85Vr8i2PIJmhvkkomV3XgGUgRPAyskWQ07ShLGrG/4HGDNwjgrGL4IzFUeWXWhTGlcOIpgCJcHfAIkaaxIrv2yO9RPCytqkPL29PT69PT29PT69Pb08urw+vT66PTw9PTy9vby9Pby9Pby9PTy8vbw8vT09u7y9PD26PT09Pb0+vbq+vT09Oz26PT08vb48Pj69PDy9Pb28vT4+vTw9PDw8vT08PL69Pb29PT0+PT29PT0+Obw7vQ==",
					"4kqG0W9I56F15jqn4gI/EwpcyodQnjWRdzn5oqQyg7/P17udWS3YAuW9rfzGKagpXAtKDOiVhlk8KVWp7TkZd3keNa/gbMgajNMUh9vCdinCp3v0pucnMOIbR7m4Gguq8PHAQGy311JCvWTCcjkBYo+sI0i8ZUY7Kq54zUOSwk20vwsJUGyefVSdsVevVrLy/gsq6oxUlZCIqmCGntqJUMRfE9c8w+rpAqXCiWc3VZiGPdiAnLjiMtucySyYmUaIdwroNA1ClMUu00hXPZkoqoAxIdtdmRM9MItlSGh9BgqJ7Uj+3GncTBYKBP77MixiQkGjaaR6ZHq7PbEnlkmuKAEEQY2Td7f4WhhyMAz8Ga/GalLULr16NlzePCI+PE8FItr5CEbEN+aIij/kDdRGTouWIgaqz83OOKpITPS3t9hcsdUdIr6WBNp077YN7SQApvby9vDy8vTw8Pr29PL09vL29Or09Oz29PTw7vDs+vb09vT09uz29u729PT09Pb08u729vj09vby8vT08vbw9vbo8PT08vjy8Pb09Pj29PTu9vT09Pb09PT09vj0+vD29vb2+vb29PL09Pr09PT29vg==",
					"46i1J8sE7QgjKa4TH+SixV4OkfvQlByGhTFKMd8DTmbolEpGqsAqaYH7eH5N7MGeOZI79guZAm3FjtAP2CA0kOZHQYf3hdnEnVGdxmvXD3fAaMEI/DkwXGSf+f61zd/Zo9hMFcY/uHUI2pCprKQi72ZA82i3YsTzCQmOdVEvUZ3ALHLE+akXcQ7mEyZGbw2VRbvocq31mNmy4A3duOFXPoslSkn6oXXuKLav2VcURUpR24JzfthxsDiz4e+9S9bW1OYPhmwLLt/mUv/WLgptFPRA2J60hy+IMwIGy//kP6W2fWh1dKYbfcs6htw+lafuxavEFBmMaTemGchG4VanOaXsX4hUbXs5LEogMYNvEtcDtruzVi2FyMdoxidT1DSilOJbOAn7BmeAkr3d+YJMvyZAyI4OIB3Z5ZoeOkMIxgwRvvIRTXIzmbnZ2EjQhkFQuPb0+PL49vT28PT09vb29vT08Pjs8vb29PT28u728PD28vbw9Pju8vT29PT29vL09vb29Pb08vb28vb27vL2+vb29PL49vT08Pb09PL08vb09vb69Pb09vb27vT27PTy+vr29vjy9vb0+PT69vr09Pg==",
					"4NF40i4HDEQLHkxXkxYIejN2yoaudMJQ5HH37KihtjeaB0kacNNZLvp26wjUWQMsBrVCt+UeZ8tVpPwkHtw+RNlA0Eyj50peru1L4ugb7bedmMy8qYYioRzRwMJMY8cSsO8PGbDlMzHrxdtv1OQ97RMsjPQI6yTakSN50dBTpBm82aAWr7DUtPqePUmaGVUmvqMJ95S3USb4Qn6hO81eHRgIT+2qp9VmjX4DAsEwY+IwFnxY6klJsCiywrLxH1PBINY1VwDdGpZCar10dMBzgd3agJHkvVAtuS3yCeiXKjZWqjY0sj0nT7Iu8igOQhfofskDSPjWyWQWffdSQYIfep2YLH0hO70YvzQw1hOsLg0UeiiO1Lad9WwDjHZ6E9ISmqxAh1LcuyoXsBtn3nFLmPzdlLC3JixOq5wCE0dAOhNZZGBFdM9nI2q7C1wtKuhU8vb29vT09vTu8Pb09PT28PTs9PD09PL2+Oz07PT28Pbs7Pj09u729vT28PLy9vT09vLy9PL07vDy+vLy8vDs8vbw8vD09PLu9vb07vDs9PD29PT0+ujy+vT2+PTq9vT28vT2+PL49vD28u709vT09vQ==",
					"4YI2bUvM+Bp9wR2mMb3DBlsMNCtVV5wCVC0QJklrQxW9o4xF4iuWc2G3b9RPKBwVAcrx66hNtvpkGb2HB5DKIA4g9GCy85A5+mXzf7hzaPss6Bs7RN0PmlIPTwHhBoU85UhDaLEQdEvhRWpBoEnobaV6xf02gJd09HssW6bPmH0LTPNw/npSSAW0XHqlb7yGVYW+MGUCJK1JTnztpPhaSQ9PwWRksP1u0cQ9vRxtDYaHTs6PHCViaIiUhisOaqtM6JPhGvy8Y/vj6HX0h9GrgyJtt0dKfEkrQVOw+9KnN+/iLjhnUjWIFkpA4cMym1fcOOUMfs/LWmDMSjUCoaTxLBz7BCRL0HwLBhYAhIw4QSPmbjeoAVOPqvAanhHVzrwig3MOea3KJYYc3iOzH/KBpq7KLhMuQxACCWgAWidqamiIlpvNyKI4/CvnYD+ZM6ZOovTy8vb29vD07Pj28Pbw9PT09Pb28uz29vT29PD08Pb49Ozy9vD29PL29Pr09PT28vT08PT27vDs9vT09vLu+vb28PTw9PT29vjy9vTw8PT09vT09PLu9PD29Ors9Pj09Prw7vb49PDy9vb29PLy9PQ==",
					"4rHR45WD2zaHZA5S92uiQeWEg0IJbN8RttguAqW1j+btRo2yt56cS8EP3/7qZee70cdOyFu3xCfLXVyERQEfTR6cEyJvlIQQypSrQ/IJp7rrLhdYhR5hOMQlFDW5o9Eq2GzpmOrxxiPXtKwxkkgVO6DBsBzF9gyrJrya3pEVE20OKxA3BHLcFvmL/pphsPvZ05X1ZriqRoudUZ1ViQWWrNjh37IIR+VLDycmtyZjer9PgrmkJ70yu0ETIrY936DQxfEr9W7C9NIKDjky4BADHHc2BCgjYbIeJ54vPn3YYqNSmppW0lDaisknyodGYAj9wSh0doJZarSEjeRAK37rrq8nNI2POl0mX/yvVtqCdKRIi/c3xwkgSmEaO1edIq1+ox9r5oWDAzXcD/Uz0iCMlHW+bh6MM/szMtQbj3IEhUmiRdeDfedeEhc8jx7SQ/xrJPT0+Pb08PLw9vT08vD69PL29vbw7Pbw8Pj2+vT08Pb29PD49vby9vTw9PD09PDy9vby8vT28vjq8vDs9vT09vT29vT29PLw9Pjs9Pby9vb09vb09vTo9vL2+u729vT09vD28vb29vr09vr09PT07PQ==",
					"4sIQXW7qrTVfvZ92voKfBGt/7YbEanmbnMrdjxvEZBWA159RknPj9CLAidHHHKzClPhJzRb4aC3SnefjKQwfB8jpropYhC2N0WN/pV1GDHQuYYRvjis1iGCNZjovx+XekKfxNDsooKztgZDYxPURcDCLtqfyHMU1AkBMqSEkXywjZLYKi7iJv8vJr9ns70LhU3y9B3qNXpIbnnXPrpybgVp9YVDCLXzX3uvSr5lUPScyg4phmmihoePG0M2FHl++G8sKhrIeERnXspYwSY2R5cT1kJcwg/qWCNkSqwWzY457cBb1ml+cIfkm64K9MRFWHNmeO4BGvLyx4ZY/7NaOzxyucAi/Syae194fAcwlCrK3HA5Z5lqeibUGtoew8DlGm3Kns+2rtpsKoLtHsZJ+Hd0Va8AQHx7Rp5a64LlDOIfVamADN3STOhH1TCa4WCvk6vT49PT09Pr28PL07Pb08vL28vT2+uz0+vby9PT09vTy+PT08PTy8vT09vL29vT09O769Pby9vby9vT09vL49vTq9vLs+vLw8vb69PT09Pb0+Pb29vr09Pb09Pb49vT49Pb2+vT0+PT0+Pj49vj49PQ==",
					"4NQhGXzV2bFVdYD5h8dC63MB1hmZfQ2zmC/xkubyzjbpEyF9edB4C3wCJRPAaQ3+81xv08o6dC2XWEmMcbtyFSyEWSO2FBqSv8qH6x35tj0KQ20E2R1z1nDDewdtYr3aZiekt1c2CTG5lER5I9z1crcJE+46FFzE3cPcVKohJsrRuCIuIlMraUunsSwkrSCLAz5+HNMvgI5tkweUJzCToPRRblYDJQHejjA76QI3DC1Eg63e2e+iGEzWxdTIdVj/Yc3AifX6Q7UCcUnrMHdEbg9/Um18lquC9y7h1UijUJrfzuVS25cVftU0pgr3ohMIeTg9ziRqEjo7k6KWYp4PNS2JBlU58sESwNTXqBgJEwmKBh54fHwoyVpXMKb8BxTYLAkcJgyoD0soszMGAqK/wLiKVOub2sw72WOQ3Q75FEKtE41e/yIeEyHwfAmsxWxj5vbs9PTw9vD28vr09PT06Pb29PT09PL25Pb29PT29Pb08Pb09Pb2+vT28PT09PT09u709vb69vT29vb29uD09vL69vjy9vDo9vr29PTy9PDu8Pb08PT2+vT28Pb29PT29Pb29Pbw8PTu7Pj4+Pj29vQ==",
					"4Mcf/63pTypiyGTZLxkruSgeKB1/Z0kTaVbDhYs7ZAQdEa3kR9WVrQy7dtzQZUHDHXA682WZL7h9J7GIW5RzSf8ytjYlqbWDaURTDGyzQ00QMEliUnbrEkBcolYcuP/D+Cma7JKCow1yfuKpSBQfsz7PfHZEbkdIASIpfpYIPOECrrMWXRK5mFfhPbyiBFF9xpuk1wfyeq3fbCjLIq214wXoQuYx28yBTcpNgz8ZgY8hbd1KL8Lo/gsBFwYPEHPZpUwJCdXIaBufIUgB8Yv4/uy89GoyebJdhFjB1LTRwHCk4pdRBighD68g3yU0LIu6GH2dAGJnVCYgFLVSCcSztojHRmCaPHtQA8CGQhugMeLWbpO0Tx4uGzuAYUeA6MI39I2+YUmsftiHEoTm8DJ9pWbShjZSxx/cZEeoGI5fQxgdbe69ogARq69lTOejK47lEPTy9Oz6+vTw8PT09vb29Pb09vb29Pb08Pj08PT28PT29PD29vD28u728Oz08vb28PT08vbs9vbu7Prw8PT29PD29vD28Oz29PLs8Oz29PD09vD09u709vb27vT29vb0+PD09Pj29vTs8vr09PD29Ow==",
					"4VereiAdJhCQ9N40enh12YHO9ui9zOjkxnRxKkFnL91qMgNJ9JPdjzI6KE2iryv+qz2yS0Ny7B0rZ8YRKm+17wuTW3dZqOTtmgZd3tWRnHxHoKeBTeys1emWZy8ThLJAWNnbxu2oPprPD79acLnMknaQeSdcODWp5dQyoYFASynwj6TXTzIWIiT/r2crThRAeEZTnmE0lkN2Fx5w7rsocYAm/HkZ+s+ljpTKiJImeuyMMYgAzLOgHngi+7e/l8JpPhyQksmk9V7j2YLLY/FCs4V398wmI5sZ2gfwh0t27y+mHD4HiV1MurtejoZcBVS+FvbJipU+cvojRx/36qAKhOTMjDzW8p44UiNpKbEOHm9W7rSNsiyJ4tRiVCzkW7w9+qI6kvCitVljBEEtwWiyNQI6GrYYGHo/YKV8FSYiubcD3li08Fu6DCGnkR6fUYc8mvb4+PL09PL28PT29vT28PL08vT09vbw9PT09vDw9Pb09vT49Pb29vTo9PTw+vbw8vT28PTs7vDy7PL0+vT29PL29vTy+Pb09vT69vb6+vb29vb09Oz29Pb29Pr09PT29PL09Pb48PT09Pb09vb29Pg==",
					"4BG8WVrfYfu2KY6sc9E6PIoe8hgveESVzYsuoqy/wGE9SMzEJPvGBXcbQZ/hEH/vnAS1SCxBs++kDxKCvlEv3jZL4kaSiMCFRq4gItyfshfuUTew4J5J8R/CMXFB+oDBARyQ7Mk+IxhUXFsr8iQtgaOZG5TJSVOvRLYHQe0c91oejb/cBnHj+e8yR52wSlO7Jxo99aTP11j0+VkfkdvshA9ZAsHNw0pspSHoB70xFJ+pdCxpR7E5CdZF+GzqXS0C60Sco6RmHfq07hE6B5EG9xdoBXAoSB2Y5GOFoFbVS8E5xBWNAGXTAQyUFh8ztS4JpBMSWSK5BSdjqJcPJ9NZke5HPQuAaMcWQof6N8lxbENkaiaQcvJqjZqGUGpH/vQ8z4wNgWZg3UDZ10zgVmJcihwq5hoGG6hGK3XgIoLTMp5FMvvJQU43m2gKsvvI4RnNNvb4+vby9vT08vj09vDw9vb68Pbw9Pbw8vb29vT09PL29Pbw8vD28Pby8uzy9vb08vb09vT09PL29PT28PT09Pb29Pj29vD29vTy9Pj29Pbw+Oz29vL2+PDy+Pb08PL08vT28PT29vT09Pb09vj4+PQ==",
					"4Acs0dPNZwIBZYhX5CebSz4SSJtRx+x49kIlce9kpdksiznj+6LBwbg0tJ24nRZ5apoHLZDg7wsrA2ZNUr/sX1fgB4tI45MClVijfv1EmOcQZ23x3FPsWhXAziwPakgbUHVnxSOCueGGxDJE9Dehm8xO9HcMFcwCvMJN7cQGka8F4PkgOeaAUC7tn/1AwG2NgYrvjF+8LlAOB146Ug6l4D4q+EE2SfMsUosUZc3aHUl9pbZVfMSyrskiw8+x6pR44mW6gc9ysvfBatX+yd3XEfANcSdycE9HNO0FcKOemzyg6yAJDbasGd1mo/KZsVmU+lnxgZMSKbiEjcFKKwqJrpoz8jjtu95eLQd2zEhICB6c+iqCVhUXIGn4UFBF82dRXcCXTIZgWYh67kYPTr0OZ7c66PNtEWbqiWBWpFVzPuLdHbLSmDnc4Ves21ecNAOoSvT28Pr28vr09vLy8PTw8vbu9PT29Pb2+PD08PTw9Pb29vbu9O7u8PT29vT49Pj68vj07vbw9vD09Pj2+vD28vb09vTy9Pb28PT25vbw9PTw9vTw9Pr48PDy9vL09vT09Pr08Or69PT28vj29vbu9Pg==",
					"4F5rgh1U17P5azNM8Gl+tYYqKteqessj0edCN+wTrlf7rIzkwVPqkHng1ORA7h2BGdjQUG23LaqWXno43wFUjleCpPHF3eWBUl3pK0ORCb1iWeWoY+ViaXhQcGOvzIQwnA+ePRroopsM4BjVKBMhiHxN9gxIxChmI27c5+sgueqqhi1IuQ6yVaOorjWxJ+sxlKxe35obX0Pnv0/ui/AyY/q8RjfxQsJa9tQsq2PWdXfI4fI8yc8otj2RhALlRuGz9NiAMfJj82IfGp8g/5cOQhfW9Ls9vkXPYW/cxo4/ACgWEoCuDGyREb7YCIwawO4rH6obQ6N57raSHnT3fxovkntY5FBsvw+WYZESLOtlKFOHJzL+ztLetnpOgnhOXJYXB6wQAfQvCyobcAeSvHIE0Ti04ws2aNV/isOmgHBORpQoN/zIGUZ5odQZm3b4OMqgkuj2+vj69Pb28PT4+Pb48vb29PLy7vTy9Pbw9vD28O728PL29vb29vT09Pby9PT28vTw9PTw9vLy9vT09vb28vby9vTq9PDy8vL09PL29vT08Prs7vby9Pbw9Pb0+vD0+PT0+PDy9PL0+vb09vr69Pg==",
					"4LbCSau4uhUh+ej9CUX/kwVYCQWTkwONQAyVvidyuZFEEabicljnPKnUfLSEFfQpMZ77hi1fOzsQh0RQiGrf6mtWYVCUaoMqotDkN287YBPnAaEMjMUiToH0nFc/ybEMRjS1ZxRUlK/xaqrwdhxDC7k0dALlRveq+Vv6M6d5+/ogZ7qp9wonB9aaQEpxz2WkJcHHpjSRD4e8OukdbwtPUljd7UjYvDJanqu6gG00Hb5pXYpRS/oTc2lupecerEY9g4+xgX+CIrEfjA+VZLyL7sio20Ofpk3XNduai6f/lkUKPZJAfIsGc+3X2WVGhJm2+NbiYEucjUs8G5yJsUHLOCLht6D+jh3ZyIcYg2JYRqu1tKpb9r+uANZOZbapSlZ4qJYI4u62xDtbJscdb/tVJ3NTuk0ESj7GGck37sY871iQ912BId5yIschl9EQxHlgfvT29Pj49Pby8PT0+vL29vbk8PD28vb27vTw+vTs9u728Pby9Pb29vT09u708u728Pb09vT28vb07vb27Pb08vD69vr09ur08vby8vLw9Pj29vD29vr09PT6+vbs9Pby9Pbw9Pb29vL08Pb09PT49vg==",
					"4xxIXO0eDWKM9d1cGyxy//4572syRE6FPl0eGEwbY+yUnzDJk7dCkeDwCciLshTmkQtuBk4LTwK1shHbk12/BsBACJ2xdtfGKAajGsR2crqfIBd29Efv1jO8c/NXREhj2PY1Dz8B+pwsxgqwmXgeANUJYHF6IWQGL1OrxdZbzQGTJ179e3l5/xCBH/ascqGU+nRu4wh4AyK2+7kRvdrAgyaoXPSbbdNqpqyjdOnhgBdBql+Ai8emFTHJ1Nebn9zLm1OB1BgqeRvSB3h/FqdKLNmuAO+mCnopREQ16gwMaUBaYlxkVF8YQb5tP1HxOvRYX3sdlJbR47KnhO9e39StxiYEMse+UjERYs+PD5QPVALX2kDC/hAA0zw++iWdyo9RKPkZAntJ1EXLgk9EiHygZ440NMh0LIqA0Nishz/dgK7xbUKmdMRVlk22QvQ0kgGhKvT0+Pr28u729vTu8PDw9vby9PT29vDw9Or07O7w+PL09PTs8PLy9PL09vTy8vT29PT29u709vD09PDo9vb09vbw7Pb08vL48vb29Pj29vb29Pr29Pjw9Pr2+PT29PT69PD09vT69PTu8Pb29PL0+PQ==",
					"4vfZmUtgNcflvYgmXDBQnq83daetENFIHU3mELJMySOTmwRALAanKBKCcNwCjNRz82UFHgBzIFW7SDUhFvrfH39YbVcqwde6BxSEzmn7lYArs9QYhzpC5hfDJ7ATdgyfJgZ4vmDueGImx3gjr91pri1xcnClQ3B70EgiaAzjnuFYbNKqXCIneixF8lMK3jm19Cbq44557Zq1WPXLYNQOMbAfrVk9pQb+t80+CWF6kxV4c23xARR1XEg4V0K1n/FkYRZx4Lzqgs+T1Ckldh5CvThre6z1cbkcCK7ujA8KElGhH7CXJgMs7DVr4LHaiw/UOWS7XXIglA9QmCcdeFGOEqQ7dSssbBrh1s5bmkukPmFl2WTSoxAQsFg4AFOSRY6ncYWva+i5519d+dr3hMKLt3uWjmXxiqbfKyPQv95wGw5utCL3+CLNtgUHgP5xgFNfyvr0+Ozu9PT28vT4+uTy9vT0+vD28vb09vb09vT29PL2+vLu9Oz69Pb09vLy7vL29vb29PD28Pb0+vT29vT08uz28PLy9vbs9PT29vTw9Or28PT28vb29vb26vDy9vjw8vT29vT26vTy9vT49vb09Ow==",
					"4ElhvWV3Th4tttxGsXfs8e1dr5ojL+MlqMWbm594igM4stDeHvuxEa1qfI/v2CNYk68Ft/vLxiFbQwL0htfaG4iKuBdiZ5GY08s0vKer0JBHvQd85ziLKTuG1yBEzxsbk1RhXCfWDnIViJQMZbBuKbcITaQ8geY63ShNLLAAfb9yG0H7GU9rEGTQ5DK3DdJvEltHkrMEi+DsZ7sYPA5kNCtLr2r1km8TKreLAqMQofbtbZz7fMNQP+gMvOPSNlu6VJHrpz1JN5KZDg2ScDPESMhPDyJ11qQ6IO1cbUAk1cXwD1JdfU4676K5pvVEhOHworyDKokJAeIpwB6/Nc0wNqJ9KSP+s14fTjzQRr8GD7G5Gnqeclk+wvL7S0bjXjJmQJdKVtXbxZDa5O/Q06jNEPAhgyWceI0GynpM13/nBD1o0ywpQAFWwVOdO2iEn0M+6vjy8vT28vT08vb0+Pjw9vrw9vDw8PLy9PT08O7w9Pb29vb49PLw9PDw9PT29PTu8vT08vby9vby6Pb09PD09Pb09vT09vT29PD69vb29Pjy9Pb09vT27vD08vb09PLw9Pj0+vb69vL29Pb29PT29vQ==",
					"4rVg07qO4ToZmHHuJBN6YporGBde4DzCtDk+JmiaBTkgl1w/khDC7gqe8DDVDhtM3+ei3ZHnYg/kA6S/RvgVnIccfOBuv410AHNUg6GzcDKPABpbwcvtvgqfwuYinyF2gTsCNQp6dS3yA4jC21ecM7hWSgHNgS4ij7wd9tuHHg5q4Pujpa7/wDInf023S/fjjXSORLqEJzHaq1ugrOR07ejY9iNj9mj4zEZi4If91JN2n8jwJQHhfJSiU8iOu2c4XQLNifFyyAkgLhRwZ7q+wPcYU3S4PfVqToGG5+74O1woVrIWBXpPNklDtgZZzhLYXVnQLNbclaAgmi8KLEK6NV+6WSQN8qw3KX8EfjqwdiVCLpw0Dr6EtXAOXKpcayaORZSGj4BEWNqJc+I8dMiEyDyIj1t2Y3VTcUT3u7YVdbJsUYaVYFEcW1lazXMN2yQFCu70+vbw9vD28PT09Pby9vbw9vb29vT49PL09Pb49vb08vLy9PTw9vL29Pr29Pb09vT29PTg8vT09vDy9Pbs9vbu8vb09vb28vTu9Pb29Pr48vr09vbw9Pb2+vb09Pb09vjy9Pr48vbu9Pb29PL0+Pg==",
					"4lHwxS3NyagSYE6qgTjr3Eln0v/RdjpT1I2iJB5zsNiqMoSq9jc8hPIoOFuN0UJhi/j55dzbmfuHBNDx2jbcY0hJzH6vBqO171x7rRi6gGVbTOKAce80cXAHizNJCBtrQyLeD5obJNbvuJ7U6ukie5e/FQ0o5UWp9Kca/j/osmC7QFDlvPb41tv8buWC121jmZc46y7upuQ3J3o2CDMGCnDHu36R46WwXJune9pwngOd7QL6ZIYi6DV/QlxzBaiNu3lFJo5UAUz6+qCQQ9RZ2k5GK1IG3TdkPdsLCanjCZDDgCK+cM99LcIDhp2OuNRZ83T8F4usVU8EjU4tFlVuPFAsGq129M6sCm3DjHfYV6B393xKZLwtRt+n11H5oShrP3r4fgleHuFm+km52hLD8yk2vVd8Vmg5dlooqOrTonlOfTeKnG/NSDR3pio7jHymivbs9vL49Pb29O707Oz28PT29Oj29vby9vTy9Pbu9vbw9Pr07PTw9u709Pb48vr28PT0+vb09vbw8PL29vb29vLw8Pry9vT08PT29PD09Pb09PT09vry+PL09Pj69vbw9Pb49PT28vD4+PT48vb48PA==",
					"4wNYC6I7sY9+AjBC25OR0+a8C0Po4U3jrUJuSVZomFaKB3PAx01tcyP9WKnS76Uh7LZtUsOAFIzKVSOXmBM/kVu16T+qIJWD7b9+8+5NjzR4xeDVIXITF6juZjfHxo3fnm2lblXhN5JVzs79LaDHlD7YoMT7fTzmLQXlNqFGzPSRjBlEpN783DRdLKA+waE9QPyy2QjvJjCaRfB3G5Ksb+6RayRg1ZQf4UtmTkdPqQYU1VqTAk8xgWKEQhEogOXlwzA/X8VcsyYcnOqvCrXJIj79AnJx8nR/+ip+hfYdwC2i/FhUb+OhOckTCQxT3Gy/UQ6m+DCiX/ABGKcjYzoEBzdnuBgdWsZs6toEkCo/5F5wVyca4fhRNcoRaIkfIRMWiYC2gkxkFjdCIfrsNsqneioYtK7U3pvn+5AC/xrQqa48nw2STrQFNGe0mU7JiuHmhu769vjy9vby9PD68vT09PTq8Pb29PT28vD08Pb07PD08uz4+vb29Pb09PL49O729vT09Or0+PT29vb28Pb09vT09vDy+Pb29O707Pb08vL09vL29vby7uz0+Oby9vb49PTy8Pb29Pb09Pr09vD09PQ==",
					"4dsuSwrM+wu9mdIe0zncdjLZQ3MgzT4KjCMfKBX5/7hC8myL7+1Lhjh4xR9A5frZRZU+Q7hNxiOp00ByvE5sKni+SpAU8rXd+UFrwp1/7GszuBWcd1YF3c6CI+HZwYy9lMOqOhfcLlvbAPU/BE0QbiWowHvCcBYveAXlWj1P9+7Tb8RFKtWILPz47JLgQUeaF+kMNn9gwjzfhAQgzG2h7R1LMJbqwYo2wYX8lPZVmAgXYExRCwjXrWgll97CUAe9IXrz2ACRNVHg4QLntJpakJ9+SO23Ag/cnqBnsD6YIsFavST2KJCqbva7jsH4WmmLWqSu8q7JwfIwoY8ogGoXqkJkv4QxZRRCMYZ+fip8TXVG19l3b9QFgP1YUKIg2pxGSRBqd5WKyr2BHdWDBfF1kLozUq9qfpYgbIp1fNs6YIbgIhLAUInQcW5hA3NoKt6Kovbq9u707u7w9Pb28vj09Pby8vby9vT07vL09vr48O708PD29vT09PD09vb08PL29vTw9vD27PTy8Pb29vj2+Oz2+vT09PD08vb29vTw9PTy9PT08Pb29vr47vr49PT09vr09Pr49Pbu9vj29vr09Pg==",
					"40SXyO5E1gJbYn4ZIf/LYYQUsbAU9rOSDJ0rwavoTaIqhBANEY1f3OLZ1156XBQB1ehxVg/rQ+2H+DfaEGsXdG23OCN/d6j4Fz8Vbq8CTdlSzJZMYWGkqmVCNSwCh9UXLG8U34ZjLL3/fe2P4ZZrXGAuI2iDNITFAoGyO2WBnRxT1n5G9ds058rn5SoG8IYcr1QX2Zc1Ig0ON+8SNKQ+1VfBQGDS0RcCrfmvvtjZiEADcEWruz5P/y1myKo0QAnoe4J1ggG7I8BLP+qac0IY3OA2+3oxkLq0LelaDY1m37kyP6fYxsZeoDJAVwRKaVYqQGgORm7bPTFH9DQZaB9T9BpwCtgaG3jEnnI6Ia8CujGcxXnjQDJYBstOwIl3HYzIV8kwymtmrvKRZXwCw14ikchK7pDqk2PcsrCnWlOWSpxofbaC2KYIk23xEF3caodUAPT29vbu9vT48Pb28vLw8PT09vTy9PL29vLw+vT68PT08PLy+vT29Pbs8PDy9PT09vT29PLy9Pbw9Pbu9vD69Pb28PTw8PL29vL2+PL09vb2+vL29vTw9vj29vL29uz2+vr49Pb68Prw9Pj29Pr09PA==",
					"4A0MZP0NyK0ohnxlQJ4Yu4O3/k0JOG4z1SVv726M5r2HKPw8dvo7+xg92szHOQNGAqwuB5Tjk7WMvooI4MiuflwZpPjnQ7KJQk991RBpbnqhZ0KTGkxe9JmqwKTjSDZ0UzHxVVj+YP0PNyNJbfvR24ew2NCcwlEMBge9eNhwTAjMAIeHhDiAxF+4xI2L69goG0v2p7xj1fC9O+MiYIIU9pCQL41qM/86APcfl/t1/wWV5nEgORQXytcTsJ9A0Aca+KMOAP4nV98saRSh0f6UcltbZ+mXjrwHJle5jF1oM7Nt/gCrNGx23ywbzkhr2826MmbXX4xAbmXiU0iHH2XqIB5r5NnjJ4TfGCp2/gMHHeTPgRyyzB5fYmT5LubyF1g8sIB+EngqSAZDRgxezY53vIofUsd51IB1WBi0XoG1DVFuWAdmEw3nR208aFDKsEzBOuz2+PLy+Oz29Pb09vTw9PTy9vT0+vjy9vT09vb29vT49vb28vDs9PLw9PT09PL29O7w9O709PL0+Pbw8Pbu+PT0+vD29O749PL2+Obs8PD69PT08vj29Pb48vrw9PT08vT69vT2+Pbs+Pj6+vT69Pg==",
					"4HdDmAJBkOKHavavXhN5GS2z7HkmdNxW1WNLg+EMAqKDGVBAXXqQ3NY2Q4yLdFlooWkUaLHCWzVjvwOUujCL2hukc68UMmuWOJFphK6Y1bfvw88d3rAhG+ACB9UaoKzzXExQmh1oiqQK9MnUz/6wq1Er7+OCL+D+ItfyHVunLqL7njTkI6i2VyRYPuFv4mbwfF09qmCkitx1jtEhsJ5Gl0+sZAPCbNBO6VZetA0mSWemExyHrERqpqWKV+niZ+fyNLR3nrVlwANO3LlEKTVbMQEWsFPUz8iexCI5eQpHjh0THDGmYAj7fNGaKE5xyP6rOSsggaCfMg/7rgfhpah4RmpSjaQ2MwOFf+AJOhMSrmStisI7dQ6kC55uxGzXEBzYU2rRk1urQ0AeMEEiJa0tQlAeGDg4QONCLkf2ngvBe/7LEJmy5H8P4K/Ac6TLpAgBEvTy9Pb09PD0+PD48vT49PT09vT08Oz29vT06u709PT09PT2+PD09PT29PT29vL09Pb09O729Pby9vb07PT47PL08vbw9vTw9vTw9PTs9PTy9vb0+Pru9Pb28vT09PT09vb68PT49vb69vr26PT0+vA==",
					"4b19GNexZoAhLQ3T1y14c935TFfKpbeMP3wtwAD5ctoIYIaLw8dAzgxFClTFlypM6EO3K+7mS9aNSNSZTFSrdl91txJz84Bgi5mHDCEq/FPfxsknxKPkQ8sKfYCdf7ObvH5voeCD9dq3hboRxfz1T+wrL20ycKF32Oh+hmgx28K6fHQzQeBNs+bHxIhqb8RzWB+nCwgEkq++m/Xdz8EvW+vAEr5/dyxKjtkpN1FJX9OkT3XhJ3bEukMUQNU0jZO2iIlq+rzNhBYITWt05cmTjhPy1kpCWAj5XcWPKxWA8Gi0qrCzqsvdPEtyhS2oSOoIT6QR7iAKDT3OzLzsYonwZrwWFC6GLc0ZniqigJ94C8om0rhk2tjy0Ht6D816xaPIVB79MCb/s+qmmR0QWqJKmm6l0oQlnNBBBKyhQsxt5DCUUiJ32rzfpMdGP0jDV1w5Nvbw+vT28PT08Pb69Pb29vTq9PT08vDy8vT29PTg8Pj09Pb08PL09vby9PT09PT29Ory9vT08PL07u7y9vDy8Pj09vT29vT28Pb09vj06Pbw9vb09vT2+Pj4+vDy+Pby+vjw9vD2+vTy9vT6+Ozw8vg==",
					"4+hSu68o727rSZVcw18WXnFzlr6YelCvyERUeCcm775ST3GtQlZXoHzVkfQcZ660tPdnVavwY5skNpSUbqJmUyoLSonVoOwvGIrB/pzD9JnZOC8VC927Soea6d72hA7KdXym9Ki0ETp0717Cy2YVH3H5OD6hTg9xOlzspKHmaJVQ+zqcD470+o+8cKAuAx4MYp/XbbfMBPmKzok4LrQjXs21PNELL1MZSsIXQiZuRprn6G2gcoTqLluQMqvQdplH/i+8mFyiBiWW4+RWzYrtFDB/1H8g4a1h6WhOiMDU7zXhd8CB5wK4W02VXrVs/spkZjVcKbTZhSnkHGxrNiDYyLv2cib0Zb/wKL0MRgstwAdlZibKUJ/nNgLM9ZJYcTF8RR1Gq8YZqzriOPtwZ+nROM6f6Hi29UZnEgJ96kOMfuTbYB7EfgLlMwVScFFdWGo0uvD09Pb29Pr09Ojy8vby9Pr07Pr28vT29Pb49vDy9PTw8vTw8vTw9Pb08PT28Pb28vDy8PL49PD09PT09Pb09Pb29vT29vL29Pb08vr29Pb69vT49Ozw9Pb49vL08Pj0+vb47vL48vb07Pb69vr0+PQ==",
					"4+t213p/F9jC15X8qmpn8u2lrlHRmS7ZEwl8RK7HG7LUmJ3mGc/N4Zu4bVsV8sKdUft00UWeNv9+CITOXRdrhSHxvRIQsU4wplLHzldrSmt5KtldpVqvOK/7SEAxTZkIweCRPC0Ueaxt/eust1nlgbgQ+CcFXYUzN2/o+bP1NTNBqbJftXPorvKDWcK6X4/UEkb8/26hLDYH+xm7Wc2VGQyXRxo67s5L+xLPOZD5d8MFBchs0qn4nUJFdYEcFEtLkT6h8GaWNp1qmJ+SAvuj/j6DSaqAA5WZBHQcnyU4ZopWK9O4+O8HbhlHPuJ0SgP8SOfgBIWS9r9YhwKc8bG9nwSbx23KxPGO1EgHPmb3ycOm/cs6g2MLdWY6gTQ75J2VQlZH93DSSHBXxodHC7att3M2LhWhSsFb7H2Odn4rNNhG4japUiyph4JYOg20c6bIIPT29vby9vDy8vbo9vb28Pbu9Pj6+Pbw8vT29PTw9PLu9vL29Pb29Pb69Pb28vb29Pbu8vbw8vD07Pb08vT27vb29PT29Pb07vD29vTw9PL09Pbu9PD09uz49vT29PT49O729vT09PTw9vL09Pb29vg==",
					"4kI2cL0qAS13s5HGmp8Ls7/AIMiAKiyJtbgoJHL7fHiVUWcmpcxYkMmbWpPXBaxpEAcaLI+9biNzYIMKF2mYE8s/vOA5YOmnc/PgvYn9oEbbVMlGRaPLGkvktHzNqAgzg66LU4G0T/lXMcElT+cz5xv0+p3SLn2Lq5Ovum5GBcZZQapetswm0SG43ahattGFXGSyoSrzN/TNDBW4qGBjiZ5NcSLED21nkAxAMBzrmsxyJUUmup3Eh49AMNMtCE7c+CwXbdaTDhir/PF9C6RTAG79jRdrlfgIwZM/kpiwnyzSYKZmaihlz0UQxG38PFeNJCiAc8bndFzUBgxwgWi0kLQqPEZGZgfMSnWmrx4cXVQHCfoyh3XJLlhms0IF84AcKvDG3dgZbg+odRIWfM8TOc6cPWPaubk2VGZXfHKBnEfxyoj8iFc6/gzBKUHeckaItvb29PTw+Pby9Pb09vT69Pj69PTw9Pb08Pru+vTw7Orw8PT29vDy9vry9vbu9Pj09vD29vT29PL28PLy9vTs9Pb09PL09vTo8PT09vb68vT68Pj28Pb09PT67PD06vry9Pbm9vL09PD4+Pj0+vDu9PQ==",
					"4kpK3NHNw6S7DXABdJjCAVUUouMNOxK1OlIQkJDZyd1MwgQQVjFrK6X0VOT1H1cWadDOeOVUQ3eGgqNRphYoNr3DmSAavNQcLL0oYjionaC8cE0/b27kwl+5Z1OAqNiizcPPCLDnSBn/tiUf0iTTiSPZ4nEgk9rt4WAL2qa624wadxNjtUYPgBqftV0okxSGuOoAZz044KrZlcGW1C5X+uhYC0g+dpPF/FTqG3n/oyNrt2ustJqm5GAqzobXDM12jCqaPi+4ndo4Hd5M08+e6HefBKaYwwj08PgcEhmLnwL7TaFXdMZYFwq+mkMvaGETho5nFqbPHf0Pmaxm04QqFbVoGohjlDa0gYDSWQ10kEQMSImhz1S/K/RL6WTFfqikBLvDbiH++iJlJfLu0fMjrrYDQ/EMb/ySqSIQciQALriFm2TWUlMeGlFzIbx+05eqHvL28vT29vby9Pb09PLy8vb27PT29Pb26Oz29PDs9Pb08Pj09PL28vT29PT28PTw+vr29vTw8Pb0+PLw9PDy8PT07Pbo9vL29vT09vb07vL29O7y8vT09vT68vjs+vT29vrw9PL29vL09vT2+PTs9Pg==",
					"49dclF5oNDWDYpUGDOh7Xz39eSVY+d+XZIvzB01A7lfkhmYu+TFX2BKhQdtgGGiU0/PFK1NOscPKZI90z7Jejque+OFyrRWVPtemrgc9v5cjEJkk04DCCfQ6/QILqrZ2Zwk9hg4MQI9RJcZzYvLILhQPUMC2P8kRkxifTh9yzN1V9HGRYpK5/L/DfARlJTs0xEaHamnyRTVhFOr7GW/t8jsABO0d80REeycQUGo/AqvC+ynLqXTnyB3nlA056OSBk659kuVULtboC/9COEVU82p+djnOYvRLykOpvuZxgQ0AQ3qHogSo7PsuiX9bVM1A1S8Rg4rk0t0GQB1iB4Zkm4t+mvp3vEGA/acgbnNDMEvKinMgqBpq2PJPNSAmD3GLFGbEhYLtXhC1NoRTPvYsMPLfXOy24Faq5R7wTibREfY4UktI3mrLA/is2Lgyixw7nPD0+PL29vT29PT28vDy9PL09vDw9Pb09vT68PDs9vrw9PT08vb29Pb08PT28PT29PT08vj08vL09vb29vbw8PT49vT29PT29PT2+PL29vD29vL6+vLy7vb49Pbw9vb28vL29PL29Pbw+Pj48Pb2+Og==",
					"4FtJsAYuDcjEDYIoLmsQVgd8J8G4Nyx26+sNlnbMHo/59IspxQTEYrCWNRX2/EdiqKKVfl5whgFqMdwINhA9AGDrtUtZR9OdtXBMrbrC76Odr2zF1WWgdGKY+AEeLaiYj8EtHT2ajoi8TUe/4Sk7wvjlp6kMnySoS/6V5FmD1Z1SZGAf50D38k9S6Ktz1Y5aZiyKf32dwHmStuRQvWiJDAAAHg8TLYUBRysiu5JLNKyqWdXsmOBwWMyRSLQWKvhWvq0WL9PlAgDJffbqHbYmF6mjS2dwUfvFcIpXs0vcPWl3cAxROZRuXCRFbFqwDo+AigvryOFEzfBSYqoCRGA29TReVwquJsICZoi2I94mR9ve5L2NY/pAwR2bXKZLqEYo+xYgeIxETCilNwXhju6dU6yztXRZwlJDO5LIW6w9IrxOS3dHqYaKYO9ipESovLZqTu727vj09PT29PT68PL29vb09Pbq9O70+vLw9vD29PT27PT09PT09Pb28vbw8Pb08PT08PTw9vT29PTw9PL48vb08Pb4+vb08vb29Pb07PD2+vby8vb29u729PD2+PTw9vL09vT28PL69vT08vr49vA==",
					"4A12eCX+KG+gYpnIsG/6YpDfyRhq8plIBKq1SWEwYQ0nS9FCOlYgu746bbdi59eMMl1y29onKOMcLx9YalzQd4YYnI6Hs5kUho/iWRJwJLCmRdj+lAI8g1QmYi1icjWSHHu2ZIrz41GA5XBGiNHTvFmQ2zdwlsV7qP/py6Zz8nF3W4yEnYsjwOK2nDT1lEpwugDecPgldUhBA5P0rKhf9Xixrly5ex0SJfeyKVa6pXRDtO0rC70ubdE5X0uPb9wZb7nOd24q8YJSaMTmc0+zi31AjZ4xjfhjxnhY7hc1uljCfhlG+ah95SBOjPRrqJvWvg2EhAgWY5ok6uO6y26goXIemjCZ1MQ0jkoZlPEa4IgWPIBZ2o4qtVRC9NpueEqOaN5SD3taBkOytgpi+RdHZfqQL/B25W6QSMzKcBS/U+aUJsMpnUChFMyMoOlqSAN1svTy9vL08Pb29u709ur29vT29Pb29Pb09vT09vDu8Pbw9Orw9PTw8vj08vD28vL07vb48PD29PTw8vb48Pb08PT08PDy7u708vb09PTy8vL09vr2+vT09Pr69PT08PTy9Pby9vb4+vr4+Pr29PT48Pg==",
					"4JL914mjP8MEfGzROIR5E+1CjSJ1NwFTv+gi5Npdwi2Upla7JhVL4mE0tswOW5JkQ9KAjUaTUrIV9MY0K+KQAKtc6to69IJtI68AHSzYsBtbJ/t13P10cJDJeeNHhVJkR21Esy4hkK8CTNhmzj0efJ51WZhExq54Pz6ysRpJu1K9Y1EC2e2YZxOVXdiNVEHuo8oR2lWkXVJ7ioorZUa3qfFfhfFIXw9zNrWMud62WCm/q5lKeOAGb/1q5WA02TRB1J29aYnLD57bltFrBviKUrJYdHZnOLis2weU0vaJJJeD6nibQM4C+zfBKsoHObfpMIzkc+LfJkAWVSM5yhiokNgner4FbPxGxhwkCOzQBuQvo8qoGj97OCkBYUq9XhLgmapvLjrbCsmdRFkiIzGv9g79OkzRQLZnyCkOSvhGO3lbCA2XXFoYAMGp1NQIrDK0dvbw+PT69Oz09PD09Pb29PD49vTw9u709vTy6PT29PT29vD27PT2+Pb28Pju9vbw+PL29PL29uz69vL28Pb27vLw7PT09vb29vDy9PT28vLw8PT2+Pr07Pb09PL2+Pb29vb28vDu9vj09Pj2+Pb49Pg==",
					"4yoRMGZWAqwD9q/aYhrrpdKRxiX6DnYQX77uV/cKzg6R87grLTZBxnZUnjloEhnZXjb2gdQONiG15ZiV7Nw8eVTQuL9FoKh0tWtc06DP5us+2GC0lojOMh10zg09PTajTskh8eVOS8lqbExpHLowCUSOGDBC56AWAZ7yw0r1H5mgolK2Wp00RlZIPgqFBmRq+yYr9xSqFLcC1SII6M6IuPTqE8wg5FkPcvpiYj6h60/Ca/qcW7MsapFMOzC9N/1sbF13SPEJSKiyQeSpVmRXQngMjyL6gidjnCy1mAsDhDjcAiimwyWyz6ATwd5tBpZFbVLe4/iGSp0gk22Jqo1yFMYTTKHN/r5KP5ogvNz07zs63zy1cFM5osoSfxt2G5pZWbZdYJGLHxLXuCWYBAqG6TdNL4W4XD6nHhcKiKlo0K16LuRLYJhk7E1LFqzGcgRFQvbu9Pbw9O7y9PL27vTw9PT09uT09PT09vby6vL29vby9vD27vL29PT08PD09vby9PT09vDs9vT08vT28vTw9PT08O769PT29PLu9vrw8vT28vb29PT28PLu8vD09PL0+vb08vb6+vD09vT2+vDy8Pg==",
					"416yCBttGFUoT5GpmKo4YFuhpkJ0arjc2Y1sO1we+W3ihwCXPwK89x+Z7r1mMou7ZUF4TptXlIvQsaOzLeSsBNvISDBQrSa6ysYtGXzEVBhVYRFZaXYQzSQhLpdeYFCjoa3DlGml4LN2bIbBFNSzzcNs5X9cMRLgVaSSEauRh1xIJpGSFlEh/WYWbyV8+rYNkfXiRJnOm7511ly8qyP1dVbwM71dU1rcLl1s2e4H3FFfps7b5VjqdThTN5m9y1/cZFqKUNrMpMvYXulcyPMAB54jVOCsWhywijbH/Cx3TvXt1qrr5rY0hzwBPj2EEML6aBs5mNiVPZQMPsy36GQ6zByuejLaAQOUI+uoXheWDLbeWz1i8/BS8sawT8RmW6d78XTPJBu2SqJn4jgjWc65UAjc0tDvjfaaoq0WKsHGVh1ikGYU9nOJ/J8Q2FrinEmPcvby9vL08u729Oz09PD07PTu8vLw+vL09Pr09vL0+vT08vT09vD08ub27vT09PT08vby8vDw+PT08Pb29PT08vT0+Pb49Pbw9Pby9Pb28vT69Pb08vT28vby9PL0+u7y+vb47Pr09vjy9vT08Pb4+vQ==",
					"4tBl1Q5A4fKMh1z56VZn28uEM2qoDOLachnigKDvTaoKvOBUAGS69QyBweek3gvrEA5G+IdsTmH9kfImbc0KZWtGFbNaGP44h2Zj4X48lIl5BeD3F53QWrGbNOCOnidctXbEioM5kOK7ZK30gv57O73FsBmb7ZtS36F84b0VGY7clgosEwO81pwc3jODOvJ5D1PULoGyqDf7UxQqmU/nU0opwxur0rncKzpTXOV0GgmgFFqF/G8uXZDZCLyj+LyMqSXrruIPA+NCwyP+DSKiMTJtndqNPxQy4GRRA9LhAI61HlvwDMi+NmYMJHucZSt0Y43vKtZct9P06oBEdVYpwp6hCM9j4gP7VKrIDMJaByatdCp8SVaOn9gTpqV3CBNcB0IUiemmPQbjsqZAeWQ0tn5UaN4+NH4miKDu/VN7l5kHeYX66LAec+q2/lqUSEJuNvTs9Pj69PT29vb29vTy7vDw8Pb29Pbu9PTy9vT09Pb08vby9PLy8vT09vj29vT08vb28vT28vDw9vb09PTm8vb09vT29Pb49PTw9vL28vb29vTy8vb29Pb69PLy9Pb09PT08Pb6+vT27vL07vTs9vQ==",
					"4Bq674O56Ve1K7JH9sTRgfHL7BbhVQgISqaJxwbEnGnB6qb1o369gq4S8JrTMnu2rAEaDVOXhxeY21cudzz1IyeHB7JF2xW22cuzYLnvC35A8PUwToSvEplkgx9Zjwn34ye1xJShMehi+1NoVPCxj1cEyqvWcuS2bCaomjrDYu5r8FR+nqZLWtz2pTLego6njOGNPrekyAMOhU1pxHTHc2tUq9i75mbLioIFJvFT8EXLStGl2E/cJuDZRPE8Kub2ind5dawxraQuQP008pWLvCmpXlH5PUjJ8ulp1QdYRDxkR8vu/mbCWKDC0N4gX3YXbonQSqUVNY6KuoKcDJQSfz8+UQA6XMjKduW9VCkjfuStQW36iYJQOaUhCEdzsAvyrJKOyGJLGZRcHjwgcHckQAKin4bqsOrrigwC6c7oKKlyJNWB+QImPpRVwLNAxAj26vby8Pb09PT29Pb09vj27vbu9vD08PTw9vb07vr0+PTw9vT68PL49PTu9PD28vTw9vL28Pby9PT09vb68PD69PT08PT48vD29Pjs9PT49Pr69vT08Pb09vL29vTy9vrs9PT09PDy8u729vr68vry9vQ==",
					"4DWV4A73c4IAQITNUfQON0fs13yK6pyvE+rm+4NABrCIULrV2aTpE1ZzJmGQxjTqlcpml+EKM7P7SJ6jN2PZC9ZcaXuZnkfveOWB6E6DgZbe24jBQPNmnFYcuU/3Qk1RWBucyHfortCqfZeZI/Lz8XebR89/78azcLCql4B2rXp8Db4KNpPtRt7cL+Cpvi2Tjwr2NdoxUXjQjn05Ue0+CIulXNdbwqsbAjq8MXd09OKol14b8UIxl8Mh1GgCpg/d/dwPhpd/pNeCQxxraZ+98C/hrQeXSEj2TGr/e6cSEn7RPoquTecSAnmYOjq7yOvGeh5dOHoNGoEvqjTMRL5vRxo2VdxuNvNfdxkJfsIATDpwL7MMAj50W2TG/o8EcH62o4oxwU7kgyjieoKhfjUBnpSBIEESk9alThmgE2ht/A4F7SYC7I8IeOY8kz0IuCQCEvbw9vb08Pbs9Pby7ur28vL29PT49vb27vb09PT28PT29PT69PT28PD29PTq8Pb28PL08Prw7Pr08vb29PT29vT09vT09Pb0+vD09vb08Pr09vL69vL29Pb69PTw+Pr49O709PL49vr68PL2+PTu+Pg==",
					"4N+4H8lysKr/GuHIOgVwsYYlXjO31//s3ZtMeUtQdq6jsl0y9z2ulkjPRsWrgAXwtugIuTA8yypOxlTnAkVd65y4oe0VTCj4BeSV6GfQdV2r538otiznR65TzUHwJJDPNZW1jY6xGyAh0OrHVVFkg/82O3AHaz2T3LXl7y0k/vkrKz6pwcKO+gxU44bG+FtbM5KTsFJLVnc3ezUrCRVdIorw7okgoHsOmEdbWuS1p6J4BkMNhsRvN2CRysC9/x6slj6ZyaCEinpN85HaTh/d2sy/L5Qj9+pisn7mn/f3lybk9ugMannScmRIhLxPFvVv6z5e3KRFrKntWwYbv+smCW6wuAJGr8WlshOVVKKDtx1ftFskHZA+VAybuSa6H5Jw0Gx+/CaG9iczq304o/5yqAec/wPKQHtQsl6XPGTNYY5uOzj8SRpp9CcSF+gk8g1cdPj09vbu9PTy+vbw+vL07vTy7Ozw7vT08vT28vLy9Pb29vD48PLw7uz08Pb09PT07Pb68vT29Pb69uz09Pbu8vb29vb29ub28vbu9Pjw9PT49Pry9vb69vj08u749PL28Pb0+Pj69vT49PTw9Pro9PQ==",
					"4gEaHjTjFDyR8KjBjWPp/dRnz2TlWKrgmV4zx6oMglLwyYVk3nB0QDwtHQsRoU5Z4AK2VXRjGhyYXULF4Q/9aVMLuYU5HR2suHrLT1DbhkP8RL19CaH8Te+i27LyZj/SEbcnjgXJ+nnArAiK/25yqCvPU967MD0gkhij0CUFTLzeBW/GoZWYeL1UPKB+qdZwWH4WgMbzlVAdt55xXjDLvMCSHmQqfw4h5EnLHF6TTkIeaYjdLH64qGZtCjwT+VoCbO8mLsalJEI29ot0l/PFSJoerx8hTvE9A/MpAU0/NevUeQ+MKDPxQ0BoPZnNwr2u+fd0mhXZut8CTzQSLG23xT1yhGQy2ndW6gq6k3bhQO/Q2Nl8JMSOyt8mUF3Y7CN0P8go7epBlIZd6CiXXlqYbKrD4gUgZT5ioj6+8Gw4dcRS1RSojg67tNk2A3dlZW2snvr69vT09Pb28Pj0+u709vTw8vb09Pb08vbw8PD29vb27PTy7PLy8vby8PL09vT09PDu9ur0+vT28vb09PT66PT29vD29vD49vT09vby9vT49PDw8Prw9vD27PT6+vj0+PT0+PL09uz69Oz09PTu9vg==",
					"43v+i1lMRiSu/lXhgrXdcuJKVPxOPYhHqP+eQDUBzCp26xb8sr0ufh56abO648rg0AtgiHcs+lchep1vMzqJNgB25yBHVlBaMjcNV0SfmBJp59tJYGD3FERBx5Bmys0pz2pV9ltGDIQtNAicVQaB/ts6GT6PqJaM+WqHHaI5T5Q2RZpG0QdYbtCe/QbH92FmzwnTQEMjZDP9LkE2KTVzMY6V5iaJoq0jTi233bHo1HIsTDekPzDXro0vOWc0kFFrWmQQtzeX30gEY1h6a705UYPq6poIRCkiwVb4wmRjuq3aKFz1Ajbo1mm5yAehyE5DeL9g8wkRMxQeIoR0KpGcSBq6MClQCAELsIU+OjoGF4szVmNfw8LSS+FUMBq3dA0NVtN8BcDA7JW2fV8q7MpALlMBojtWxRN6k3A9hEYNAmkpzNJW4E+PBD2QzAG89sAAWPT69Pry8vD26PL27Pbw9vT29Ojy7PD0+vby9PT29Pb68vL46PT49vb25Pbw9vb08PD28u704vL29vr27u728vb29Pj0+vL29PT49PD46vLw8PT49vDw8PT0+Pj49Pb0+PT69Pbw9Oz49Pbw+vTy9vg==",
					"44+206gfdIemNkOMB2UzySNzyDtOiaotVmDabn28pNqvGX7lpop2cNnFM5gOjMTqJF3MrxgrCJb0Nhr0w9fH8Ubz/4dRdtTsVpb/ocDdJRHqMjA4t2kFmUCQ3pWODMiM6EmZamsKpHxZd3Ne31WrsPIj1biXBiBJ/JsPN0f6ziJ0Tw5rm3xfXl19PlFgy1+FGRjZwabdX1xbj0uypl5ieQ5ediHZtnWmKJUKHz7tYiIklhWpoG77h8swyaejjuPbzdyjOCKtTJjNQJ5I7r/0m055Fvq3sq0ATRoeqYvE2m613LqvlhYuWG+lgKae8i30K1bUJB2AFwyMCxRMo8SxvG4SRGDWNvB3jRBpZTqMrsSi5/NRBR0Gcwwph2zgNRxHAhGeYBqI70Cj+gfHzsTDFNcAD3n+oNWRyFGQOdl0+Kh4772N4EosA6q9OTqSBHENcvb29vLw9Pbm8Pb09vD29vb27Prw7PLw9vT09PTy9PL09vDw9vby9Pbm9PL09PD29vb29Pby9PT29Pb08PTy9PD27PL09Pb29vbw8vTq8vT69Pry7vTy9vD0+vby8vr2+PTw8PT69Pjw8uz29Oz2+vg==",
					"4eCB7uQ4Cm1can1Kp8VZTonKGLdzHHUXVEIDRDtuEpUET1JlYRwRepiBnYnJW5bLzDrNfkSKQhH2BzOCovc/u6T3lovzt2dprtr02xQi8q/XgpXJQpRE3aj6oc5aFwjuo/lnyZ06s/EqKgzPYzNQbcf+l/OCZxt0pxH/Kk1uE4VB96Qt9YlSUKOyr11TsHgDgxYuWOWf5EtDrXBL0Ir9YmGyUjLYGUKIe3m2eqsOb+QajDY5N97BMX6Q6xT9gd1ZjJLLM8ifYd+RC6DgTEbsBfomRovR7bnMN7WclQK5+M3u0CKsBTgM6S0uno8Pek9CuIRGQv14hXruHGIBNwrGbBQSg1QED0S1LsmoCUEl4x6R1L6BzTLzsU6mlMpV3SiuM8a6fGZIbFXrwlbTJFAP/2EWCJqJ0HXKhIdjcABPSzj2fIrKzHY7bKeqegxiglHsBO768Pr29vb29PT29vbw8vb4+vb09vjs7vD27vb09vb4+Pbw8PD28vb29Pbq8PT09Oj08PD09Pb28vT29PL09PDu9PD48PL28PD29vT4+vD08vD29PT68Pb09vL4+Or0+PT69vbu+uz09u749vb08PQ==",
					"49wTglB9HnSZu7TXhQKefAAbCnLj8hLRn4vXiiI45RIiVjoOW0OfNbOyTkkXEiOnUAcxATVed7ifGkdqw9nR8C23nyBcf+eXHWk885VgwmUOmlDwDz8BP0I4wal2ot6nuOl2KmdByaiBCskrMPkvQ8ojGH5R99BCExVjZW3RBy63NDu0sdl0zu3dzswZ5S+JwXPLuqH7rrBm+7Fyhb4MtW95Bu1/OHO+24pn1DShoDc7Ru0B5CWquqafwua0fXoyLYiiBnUiIh2YW+txB1+WD31Gjc2o73b+VjJriWw9/p1/yQyoqXpazRWkDCQtJK4EqxpwudvbdpkMXwOTeRrmAgz646ZDJf9qeWzSl/BLzKMHBsLr3wWkVEYrkMa/R4gmPI+LzAVurxJuWxVgBJTOvQ0CkfxI5fGCSsYYC0Re2JUdVygQfpAX3qiEyanl2JvBpO70+vTw9PD09Prw+vb09PT09Pb29O7u9vT29vDu9PT28O7y9Pb29vT2+PDs9PL28u709PT09vT28PD49PTy8Or09vb29vD29vTq9Pr09vT29vTy+PT29PDw9vb0+PD0+vT2+vru+vby8vr6+vj09Pg==",
					"4oA/nMvejZojiVFvg80EHd7SKGB5S9urXnwBoiO4fkt7WgCgaqm3P0vTFu/Zj1UbakiER5rrJvpwB8i0MR+QjqVOofX30IwPrv1jTili5eqdmBLWFhOsNoSwJ4BfO24a2lD/xUZYhADVNsiZaOHnSdKMDaBO1deU32PbMObbsCH25C6aCzpR37LqwwhvYBGCE0j2jzjXT+79yGtxGASOcxIV7MIq1PAs38eBgyBcKs0stQ2Cn4oFJt77JrAuGdLHkfcJ2Ew2DflzGV5yu5Ox9YhjHrZQv9OxKuMzOlNNP98w7CFpmMA0aaI2MRonr99DNQIQMDa4rsgg3TgxixF+erg870e2QmX8qrACExEqin3vJlOYmWxSxHDiPvO6g7aoVxiobcdqUkAjkryoe7LC/hKkyJ9K+agtH54X7KEkeS4yTmARalAgDgX95/OWFRNGMvTs+PLw9u709vT07PT29PT29Pry8PDy9PT09vby9vb0+Pb08PDy9PL0+vb08PT29Orw9PL29PT29vTw9vb28vb09Pb29PT0+vD29vrw9PDy6vb48vTy9u7y9PT09vr08PT2+vT07vj09vT09vbu9PQ==",
					"43Mpxi2HlhvxselUTuO2kcV7tth/5Cgj9KffTzedB/27GolCKVYqPQ1GmT3cVxP/AnxlpK7J+roLSnvZcaOZyZ8pbUwrsGJ3ZnEHJ/MpI1luxVOkxUIpa+7M/lDjH5svWkz15G38bGCyFevc0dgX7vuSaaSARq4fcihVeEJs8uGhX26fmmz8MDP6Vv35wLsemxau6hOGjn4F7twz1ciik+B8nqr0EB4sx/Fnz9RhMQ/zCUdL6/d/bQ4PcIhWPmeDpPCcfW/0RUseX/oChyJGZQfAERgE4U5v4M7Meh3VYWMMCWKB6iofwfCwtw1LmODb9LUrynp/HFnKgXAqD7gbi5l/s2AHP+0p4s+PgibCoMM+bmYCCLLVx3p2JDvjq2xBrZM2/hkkiEP+nwIETdOaRh8HFx1Ii9sI+g1UbNqZ0yVkjTYzu7cm02cBjpPaChWrTPr09vT48uz09PL09Pb29u72+Pbw9vT49PT09vb2+vTs8vTu+PLs9PTw8OT09PT09PT08vbu9PTu8Pb06PDy9vTy9PD29O7w9vDq9vj09PDw9Pb29vr27Pb28PT67Pb09vT09PD28vD09Pj09vT28vQ==",
					"4sO/w6l2EqVE1H+yYhtrvKgEkHUggnPJEOX5Xa9o3clXMrRKLa9lRvOuM4y69z81Nbm5/SnAISUnBpzG9+5EUhSz5DTVYRSWEYwKJPC/+hRFW9R6d+f2mxsNQHSkdcSoNRIE5x5uhxG9iQY8HFc7TMSC8JSSoa0Po2mL8ZygYrQI8vJ+gWYSB9cjgzxbBxJkXpty2E2L5EcNeOEv6Sdy+DOgBzKR5X1zNW4FXtMcC/7lEdPdH7lt4fG0Quchj9UMzMetD5fI0IvyxWlB+Fcpew7rop+h7uA+YzPUp+Fr8pa1OOzZcH0t4tnQCZg7yHTsGep2lp6yJo7h6CFB6pY8ZXGJkMyrCOqFuDxx6haCX6z2d0yZ9p7V2PKCvcqBINkKsxZxr2ZA4oJUDWdA6OmnQlAEbsaizL7yqFOmBVKNzt9WzGfCsJtLbu2THQr47iGYxvb29Pj29vb09vj0+vT28PD08PL29uz29uj69PTw8Pj29PT27PDy9vDo9Pry8vby9PL29PT28Pb28PD09vb09Pbw9Pb28Pb29vT28vT09vby+PT09PD68vT49PT29vby9PL49Pj29u7w8vb29PT2+vg==",
					"4zyPQZ4xlSrNUcCcrXmXh3PwHzGcjkHM/qz0XKSmMeaw4EX2dFTbKydxueMSZqn7Ue4no5y00/0k4xdUKD6r5HwGMla7owbRwsyTmH9x4EEwDyTeDDEgtDxCUK+DpmLq4/OIuSa75mo+4tztbNoRM2e34Oz7qJAphkYh93Z35iiD5aqIlxt5CvHv1x8l53BP0v0clN3GlTzjGpxRw9seh2VuOUOlwhAdqtKP5vQUtrjGK7jN+iqMdBUAlXaXfAA3qBec2UEHO3ZuGjUQdfMcz6+FDcjd3rAhhLl2LmG/ncvrSKXQoJaIXiHLS22wAY4HpniJBb4ympEKGZdaQiDu5riSLzoiTFowPSJoy4CG8txmMjRQOHQgcG8j3ebHV8UY1AKXB5US04g7OmIcH3ZTrehBInQoLoAQsTPgsr3KEuLE9jdJd8OWMaKXlIkOSoUR6PD4+vb29Pj27vLw9PT29PT09Pjw9PD09Ozy7vbw8u70+Pby9PT08PD28vbu9PL28vbw9vTw9PT29Or09PTu9Pby9Pbs9vbw+PL29Pb28Pb09Pr0+vb2+vT08Pb28u728Pb29vjw9PD09PTw9vb0+PQ==",
					"4m+eKto+KKq2QHu3y9DYJwi4kX8UFc1UOg9/phmpswBxT5CuB8qjG4SNUNtqsMjY0vJ+tTHLIKcYxTIvpVaEIaX3Fw5ISiCe+tNFFX2YUn8tcfvkGVCqPl234pnhjefuDTPNzOcvpihPBHqpIMNJDWTOt3sDnUOON7p5GZbxEfU1qGSjRSoN+p9l6K23p60b2mtaC1kyB+WioYOugYjSd8xbqi34+E3eADMO6wTxdBfumWrlFyaZKPs88UTLNJ+C2HjuLmoofgyfmW6GAOySoZqCFnI59cQVX2plF8Bd3BQlLtYe4JvDGIZ+olRmn7wtNut/9j0tuKirljD9t66htPxPbMGiMrpXXSAIV/NtF82X9iBXvwzS0H11fqgbOtqr3kMQ1ZYrRf5bPgZavph3CGJvo/cvH+F0mVdtWcDAQC/0p/7u1iXbf9t8ZknWQ/MH1Ob09vb28vD49PT2+uz0+vb26vL07vLu8Oz0+PLw9vT08PT29vT09uj68PDw9Pj08vD08PL29PTu8Pb29Pbw8PL28vr28PL28PDu8PT2+vT29vby9u709vb27vL08vT69Pb29Pbw9PD27vr09vT29vA==",
					"4c+i/P+3sznTCJ2m44BSjQT3UIFgaE2GJGgAV0vsgWaOiaX2acgI1Hb4mygrMrcALN1HjgtRrD1BUHshPk6ENaJrjAzbQgKL6dba5khoE8keAm7cdm8L7rXnrK2uAzE3ewzjRYUMvpPknDvjsfu5SuKyKD/hvMR/DFUh6SAQjmTKThVcGH6FXQp/BBfF515wL0Cgif4d4OhzQiHDEbLL3x6XQoUTWjv9R2Ht50iD+zFTjs40n3i6slIwRB74anoc11wbQeG4EZ0BbJGIRc+5jqS8W5KoorH6QxD4JzANSuvesTtO975yUpt7FlBQHhryMvX4WcSa2m/lmhMJUDdLJmUgfoV137u/RgVM6lQtrjScSRdYEOumYi1sgjFeF8446vqrV2YmvPlOap6uvcvwe/geYrnzHDXK9J+nALaHNzqcsGgYSrYFJl5R0GF0d6GjrPT69vb08Pbw7PD09Pb28PTs8Oz29PT27vT29vL49vb09vr29Oz09vD29PT0+uz09PT09vT07Pb08Pr09vDy9vj27PD09vD09vbw9Pb68u70+Pb29vT69PT49Oz29PL09PTw+Pj08vD28vr0+Pr26vQ==",
					"4eeqpwsbmCSAkQoM+0m+Y4SvdESoCpbQARs1481vV2+yDHRkpyNIrCjok0AG5Mnb+6dk+Fw9DlUeoHuN/aVX6j2lECkuaoG4ADvusC3LF060czLWkB+Ck/ET7ni9XEka5S/KUqtlH6kQjxD1blFdC7ibBL6rz9ryZgpHv1bTC8hm1cGTIJjO5G9NIQVLhJE13EP9ruP8KhMOeDV9/ak26mtnbFP89Vyrujm43ILr90WJC55ecpcJNWO+GW3cs9KfAY3b8UFCq5sv1UJOb2XVuXIqlOD2zonTRo0LRsSB9oXRE7BedVjO6+RZpmKbXZ8XcACw4i4odT82RGbW2KNIPXsNYRSSmndbyuCg1FyNbxSpGgPTAjBjlQyxPnwwr4Jp941b/YuNcG4N1aog587+2FVUWxQq+C7edpgcwCoCwNfmN/i+mAqudKIXgBiKK7RciPT25Pb28vby+PTw9O726Oj09PT28PT29vT26PT66PT28vLy8vb29vb0+Pr69vbu7Pb28O729ury9PT29vb29PL08PD09Oz09PD29u729vT09vL2+vTy8vb09vj29PD08Pb29Pb29vb69O72+vb29Pg==",
					"4cxlwqsKethRQN4nNa9bw/fOkFifS++JsmpTD81pE8eC5ztoqFwxj/f3Cr9vfJZn8lOeLsk63DxlL97/8V/XaplZD8xl8o4f0Sb9flYfj4v9Av9rB4xy8ERn+/WfVSWoI0jagk+GVQZJ1s7heAf4o7s0gIPTsbKr6eODNH5jmCqmrKn/2G7kCcGtpxGGKD/AID2p7bT4ltWDvP+hyEm+nBSwBoZ6tZ5GfEMrTe0qkDffCE8pwdX5IG+aVIwbBQn0RTGKEIbY/5sDjO+G85hXdJVZKMY4JZqmcYIL8dGpRXVIoxwtDPY0MHswP3QJJyI0HwBfgsKO0Acy3eq+KjMat8eASqD7YI+a0PWXWo48XlGNfmkST6QjKyBilD1gcwqbbj2hPRCfKlKS1MDoo2fFpdZxQtwB1Dsy2hJQYD0riHmfMjYWNesK/ACZv0e2cP13mvT08vT08vr29Pjy9Pb29vj09vb27PL28vb08vT09vD29PLw8PL07vT49vb29Pr08Pr28vby7PTw9vT68PTw9Pb09vb0+vT29Pby9vLw8vby9vjw+Oj29vb29vj47PT29vL29Pb09Pb0+Pj28PL0+vQ==",
					"4EZw2lb1UixhRZQslF+s8qINEq1IVW6r/GMy6odhpWFhMD+cLe2lmuUXJohsfXuSPofjdAB0ZvGG1XFd22fO60q7uGQkqy6fASIBVL5Bvkyjf2g9Ef9K2T2udbiJaJBpBLXwRpDH7wbl9PKCSaaoyFvwUoeDvf69D2ujgGO9sfHcBZ4skDxOBKLxfiN6s7R0QkSHwlIDl32ehcvhR7xgYebhgxaw33LuHuGaauX/NbewHYtYlhi97glMGbiTldQUYLpp3HkN0q5fn5ynfxz1bK36wtFmYUkrVcrBIWDIRXxEvciA233yKR13tK9CKrxTCIkYOrMuVraSQBjQLxSP5JTCCvIvDMZTdKhQEjAWY2EQbqrjUBBKsiRo5bwk9JBRJtouAgX3BPPg/l1ljUV8oimQAvRbQmtSX26wWyxMjiOxcMLHezol7e7iy4bPV6yWuvTu+vj09Pb29Pb49PTw+u7u+vT08PL29vL29PTw8Oz08PTw7PT28vb08Pj0+vbs9vbs9PL69vbw8Pb49PT09Pb09vb08vL09Pb29PT08Pb29vDy+vb08vb28vb09Pr48vj08PDw9Pb08PT08vbw9PQ==",
					"4YlLcfvmTb998g9YQMvuO0VgNAzYeXNtFrBu0J50ci6ZxU5inI0EJ/F//9BwhYPp7lhHMiqunuUVpVjTv8aSSN724h43fSpqwgyWGsYI6WGldVfY2H7tX4MrnXR54cKjucXBOpmo+ewFH+2nRUS0S0udq7R5qfOAccHPE70XIfoHDI5q8kF5E05NIubLyQgmDFswxKN4TFC8BSjvZyqlnzpht143i2enqT4ACJ6VvspqRyz+pu4mGhbioRot2OJOD4LsKqQkmvPmXTPNWhc7Z9F4Yk0D014W4sBsk+uRYO2jhj9mPLHu7mTDHPJwjDvQEdbEzc5t6mEU0XVqSezMm8wkXBorUOE+rTq6kWzLUg4YvQk1QWKk+g0hiOHxdvfbq96v8oCZ8DakhgC4vhIYA7DCLw+QOhNn3tqcNyT7pczaGafU1JXc2qlHV5xKzskI7vb09vT49PTy9vT69Pb09vjw9vbw9vb29vD27vTy+vDu+PL09PLy7vDw8vT28PD09vT29vT09vT09vT49Pb09vTw9PT08PT28Pj09vbw9u729vL09vTu9vD09vb09PD28vbw9vT29PD28vby+PT09vQ==",
					"46nEfeP/6lcaKHGSw9SnhUPr95p0Kdv7v+9oczA2V2Vi67PAWwumsqHzW/aGxIx9aTGS4sLn5YJRIThDFRZKauJM7/Gcnvhhej8KYhfHsIT/Nm7ejp6VLIQ51vaQLM71rTD/gTjklErYLeoHi5DjuFXbT4VjaixVGb9zhCjUR3da0PGPKGFQrD6kmuUhbyMWl1rFDaOZtIVEg8lVfFv4/alREMcTVVD1OEJgJ54xv92+WNMTxHVz226J+WYLoHmAYwKV+Rw4ZLCizzQrSv3TtruKiXCg2Okp++yoipxrSIot58Kg4/z2MOiyChROVtsssonzc3v/IWWWArJAH1OwhW5w8u9E/m4zcqpPvYQfU/uw2ZTOOHoIp0GvQgqFdA9JfdcJjfyI0VWmg6CXJPZvRrn2Fk8+8bmoUDoO78Nn1QqUsiUfFh846QWYRAzr80DPMvL07vTu9Pb26Pby9vbs9vT08vTw8O729vT09vLy7Pr09vr09Pb09PLy8Pbw9uzw7PD28vL29PTo+PL29PLw7PT69vT07PT28Pb09vLy9vT09PT29Pb29Pr29vLu8PL48vby8vbw8Pby9vr49vLw9vQ==",
					"4Yc5S+1ZKdhf1G+FxN1LXI8hqPL2ph8jkfCvD7WoVy/qUBBPVG+FH1nuz9sJFovYd3IBufEstg5F/TI8QhFT1s7vlNrClmZPxirz/daXQllntZvrbWHUPUdd7pYxE5VetLCMVLXoJrTXPv9dPK1RcPKtn3505w1UC4nDJ0LrPusOc1xSp065YOvh7LG/2HHfAD600AbhLcsF64sskdPCIpiulq9e7EzRMrHFyyhtPbWlNEJKtNkRBWbwU7YZVuHhV3rOURs9H56OQdOLXTpLlIHGXjMN7q/cX3vqTBbQW5armGi1bAFGN2i3nNoC20ovRlhzknMDHnBr2mjZLOHEl/MG7oo/5YxG97Edy8dU2WMaRoRRkhazwaT7bYTMXHsdwEsIvjcOSUBYhenERPPtZQp2IDovRHSzpLMrXgyQkOGoq0C7NeQNQiHgKDr6NF2UFPT0+Oz28uzs+vD28Pby9O729PD29PT29Pb29vL09vDw9PT09Pb09vbw+vbu9Pr28PL2+PT09PL07PLy9Pb29PT48vT07PT2+uz29vD09PT29vT08Pbo9vT09O729vT47Pb2+vb2+PT27vr68PD68vQ==",
					"4HPikjNIj1ZI0r1cToc7yc8E6Npg6hciqz6Or+gOkxl9kFHixWyArZXTPEXtKPxZbsJuZ6A4YtcXDL/QJzOtzGXIT/nGm4y+kE/izvgsLrjyWBtGS6dWHNsvTO74aT6lHmUw/wWuDuJf3jvetwPg4Ioxe3t8KQ8fAfW/Cd0etxBCDrZRd6GiRmpafpTdqSdKkpCcks+mfo3SVTiUhOvhvErd0OlcztHrQXDMW4Dk0c5XFAH9jUO1u4P2EM0NqaN51y8ii5gsg15a5RQHbzW3CPkTF7/tqICiK5f65Bh1FR41oBgONNb57KjXVjFe2LUi4FQX+0oO+7qqdg1Kn29A/rKijxH/yeLWdomqbz3L5O7uItPlWphQ1hbiiwse5yK4GGJ4qhckApifQkZEZPAA9T1aOl027C8NEoZfnx4TfACqANTJqlFMqru0EbcrAoSp3PLy9vD27PD68u729PLy9PL09PLy8uT28vb29vbw9Pb27Oz09uT28Pb28vLy7PT28PLw8Pb09vT68PD29Pb05vj29vjy8Pry8vbs9Pr6+vT49Pb08vT68Pb29vb09vL29PT29Pb08PT29Pr09vTy7PQ==",
					"4ifDBVMxuZ68XUAf0rvZI+t3LIDGk96IReDEoZf2oBZj+49CiLS/qncnpYoJXHdeRg+jKMtkmZLrsu9tUqiia5PILMnkREbkQgJLXuc4qj9VK/FhCN/vTeV1pASNgnex22ehqRF08pnF6NAmDg205+SxyDuWHdONFZ7GmNb5h+58U0JUXhH4Seq7CNL2ISQ3cXKc15r+eDunVdjZFHS/FnIja1ObpvJEDTRr+dz6IP0my4ujTLL/3/NuD+QuB+Zzn0TlNXzfx02c7AZn2TKoS/FXGd41DnfHmoHEbQcg/zCBzorLY5LNUJxnps2YuWnl7mT1aA+wZES4uFF4VV8IG4Sq5AiYAONQcCN2fn5an54fFb+CGmZve2VyBMZYiipyw7Mxfo1VoH15EoMR6iawX1tJb82u5eRB2zucJIzSa74y7eOEiXXBt23LNTZBZi3WmPT28vLu8Pb29vD29Pry9Pb09Pb09vr09vDy9Pb28PTw+vb09Pb28PLy9vb09Oz28vL69PDw9vby9PD08Pb29u7u8vT28Pr08Pby9vTu8vT29Pb28Pb09PT28Pj69vT28vTy9vT49Pj0+PT49vbs9PQ==",
					"4MdcxU7TxYqN6EJsB6fo2GNOSqVmpYEFXtToJTM7xWtzGhK22UKy7qtad+l2u8Q9mREeLDOOjme+sB7I0k5IpxHG3NXdZs1Ze6Xtp+GL57aKvQkA69YzoZYtbr3nnSB3ir3NJ82Jn3glfDyThZp+gpJMmrWnkGKBh4Q3IM2Bk8oMWuI95R359veX1XY5fSc02Z940OS0Z+GG6qxpbGvSj31o/skxfJDKC8ADJ45Kd91qJS2/XbRNmdF0QI0XMDqBBv6T4jb2PMWl8wiYPVjcU9oaS9hsWW+k8ZrUi6WAF/dUyiwdDdG/hpT0DsCKAOQY0AS+ikg2n3NlAaBch4zj2iwxTDa4WoStl56htIM2zo6iScRJaCwrM6IeuroUcnrdigRGyJRodDymVX8YHC3mJ8wEWxBkeJ+yLD6FGxIC6gLQoMyVXuZByoSAIFwGNg2z1vb0+vTs9PL08Pj2+vb6+vD29O7w9uz09OT28vb29u7w9PDu8vr0+vT28Pb27OT08vT09PDy9u729ub29vby7vb29PT4+PTy9Pb09PT69vDw8PL09vb29PT69Pb28PL29vr69O729vb09Pj0+Pb08PQ==",
					"4hAF5uKfXQVmgq3nPdnZIl2k9dkBPimgmijqLS5AkaLwJfPw98f5M7hDzZJCzjRNkbXnd2K1JlGTyDwy3wdWdTpvQH0XYd4lzrJOiKLQvPRoyPCxbKx/vIE145pCni0v0oAfw3mcfpq20VRwm6YLVMHkUbBdHlwuajWBryQ8y+oGIhiSFPhAbuVP7x05E4ht9/xV2AD4q5u7j5IiFokfEx8U/5tqceeYejmjzulc2Zz3M8e9TbfckRJ4brZ9CYXD+XgdQr3d7Ep232neag/FW1epY3MJzupyzcWufwhOq0Z5tGnODggLCGmuOEv2SEvudjDD/hUlyUJG87ZoIlxTJ1i6KkkWv3BwJLY8yC4oq0ecNjMOGY6UaJg2xt6ufDOhDiGrWLyDckZ+8ff00Kisai94j0WZ7MAeXDemVOt2PpQy7gzjRJNli/zDwn4IV1qBCPbw9Pbw9vb09vT09PTy8vT09PL07vL09vT09Pjy8uz08vbw9vb09Pj49Pj09PT08PD29Pb08Pbw9uD29PD48vT28vLw9vD28Pb29Pr09PLw8vjy9uz2+vTy9Oj09Pjw+PLq+OD69vTw9vb29vr29vg==",
					"4611+hhIuNKTzF3BXa6/fgSqXtv4mmTJ99bBNkRI9mC0uXA57CgimQs5qj0L6vIb76Rsvr7qpuudlbXNNOM889ClJlZbHfTBdkd208XRxbiMHQrSDzOe7eR4cPsscTd3tVxrw1CjYEDHvcsaUGrTKmjPDKZR+nbP1YITwCj21H6W+C9tIZ5YBs1JAOgMIbO3atUeZA7Sk9HLD+WiPWDcjtVQhEgadpQ/9wa43JturU35FQSupNGkylycVvOBfRqzzVMjkWIpMuDLkz3ERYMJxrZVzcjnGH1El3TX/mR0ZTAuhTDzno7YFECZioX5NV1XtKBAQJFgL39NGfVX9SEe8DGGnKkBPorJoVNBPYG4tJqR+z608my6Rz5qeKStzJ6+joeDmN4Dsa4uxMg8Iov2MFbna7+gW6ZS/SOFlGDGszraPyYjkgWG/ABJJRI+RKfCUPb09vTs9vjy9Pbw9PT2+PT09vb68vry7PTw9ur29uz29PD08vD09u7w8vT09uz08vTy8vb29PD29Pb09vL29vbq5PL49vb29PT4+Pj09Pb49vT09vTy9PTw9PT69vTy8PLw9vT09PT0+Pj48PT69vQ==",
					"4WxuQ1l40Jvl6Q0QNXRtAdqYsQSNPRe1Th1od2stG8BxOhc6URxCTTbYOgEQzMmPo+c7xWDVm1zQLS20OzPEyGOLhhdc0utLH9QT3D8A5rh+i/KfNBdtGhrpwb6oZ6OO2RHYFq2aKhdZKZ6PivmaexCq3GLVPEwvOFRwzBSwoP/F7woVI7tbKpe2ITwlqa2SwpbJtr69Xfx+D7g8iiLx5ikBa6pwT/JRB1TZhII+bPGF5GbD+TlrJzrgz+y9Bdw9sFbrrHrjTiXYtEH/ZDwboijhPE9bgMEGl5pEyoc9lm6i+5Kw2rKDKNd9q2aFMQOoK102EyOEMY9oZhuwpctwNQswRAct3PxxeRygCDyAchx5ZXqj2QaDWty8k5b9/kLmOjfkYdAOCulWQSgCJoZEZAJcgy2YKlAk0PyzdwyiqY4oShgIQpcy/+Ju8iKs1vuSavTy9PD09O708PLo6Pbw9Pr09vLy8Pj09vjg9vbk7Ozw9vjw9PTy9vb29Pb48vTy+Pb69O708PT08Ozu9vT28Pb28vb2+vD29vbs9vL29Pj48Pr29vD08PT09PTw9PT07vr08vr06Pb28PT29Pb09Pg==",
					"4phidJnvAfG53DAo3/dGfDoIuDoylL34Rv0fq+ajvImOanKjA/8fSP/nnXqqIOSS3/P6O2YmgLjM6WPysuAMOYZmO9JsT6XSSrZ/taMroZXQyBIWtsNLndcP60HfbFHrr5H+Mfi0KfRC4YxotG1xqw6/0O9HFYta+DwFFNYKwQPUt6ocrP6JZKK1o3CJfQ1w5mxzO8x30DUqdX5StXDJsOjnRT7Ma0tfve6y6uC4hLjaOVUZzHpSufpwJEav+9rtI3K5izreMhr9VdaWCZEpiQFR7jun2K88hUYW8r4WwwGu//9A3PpG4tZYgrITHDOMOKBV03qkHcqNim6HJkhkQOq9MA704zXy9lWybmus0sop9RP1P4o25B6Se+jeIkFwGhdG03pewZwFeJ8RcmKv9vs4+mrDcAA8xq5i0hcdT5cbbUmoSbZyZcNwHWCbSfNfqvbu9PL09vD09PT09u7s9vr28PT29vj09vr09PD08vb09PT69vju9PDu9PL29Pj09PLy8vT08vTu9Pby8vLy9PT09Pbs9PT28PT29Pby9vD28O709Pb6+Pr29vTy9vT09vT07PT29PD29PL6+vb29vA==",
					"4o5uzaXfLdHn9DVFeQtxOY+lmwN8ovUJGwRXh2bOlly1aLwofhg1IG+fYgALNJvO+Lo+dnDmEOtXSBJablvt0dOy7c1VbbJd9M9UK8hRJvPZO1Tz+VXdV28isTwirfTHbdftI94vSmozQFkFaAJU1CFZHYpJV9GvLiHoA6P6r8nkgG1g7KzOUwMTumbWuLvehtlY1XcJlgidJhU8nErUJS3fmNNZB2qszGaVU9/cw2MQm1rZv6NY9ivWAYOchD0Yrq/kqKq/BqA872eDhosEvtPXcxB/+hlkx0/40X2dS8uZ/L0J8AhBGBaJvBhbcHASc/NoaDv/UyRC0NSYRiaWldo/iqd4MVTt0ItNhQK2cBBlgxjO/LYiVgIw25fOV0Cp3V/yAM+wslCUmNF0wvp0xygDHDgIJ8e4rksyptcNWKwcKCZAPaTNFeywQf4vWPeIJvb2+vT69Pb08O70+u7u+vb09PT29Pb09vT27vb27Ob08PDy8vj09PD29Pb28Pb69u709PT29PD29Pb08PT29PL08PL09vL09PT08Pby9vDy9u76+Pr07vT08vbw9Pr48vr09Pj2+vT29Pbu9Pb09Pg==",
					"4mJ7FxaLXOLANqLsU0Awtbacv8GIvZzg65o8o71jxCfKXTq7+a9Nylluaknc1jLB7cFoql3N9ejtYbbxJVKeFW02+tILXGVFv7j86voJ+r2jah3LiFBHIoAfNvoW1wkq7lObN3XrJJXPhPw0P/x8wySElacVTkSNi1K5okxldc8stDcZQCZkmUqPEIIgNc8LqUDZcmS6ZpT10TxOTuxlvq80uCmYXR5jeVjDSLJz6tywruu0v4TEVYe/lYoI6idxmdw0YYOzY+Jqhuecl4ySdCa2mCliR/Z8XYYrffyGxV0xDnyiDChPxDvVWz54sHh+h6pmDxmz6HA+gfDdeGGtICAXWVoiyS8+PsZ5Kfr9ZkYuGgFcQTenW//SPvW5khBioziDFlhUDdcya5qqp4CXwgwRaGlvfV0/7VJTstWPuIkmyPgNA7wYrzb6KqlEFNiWTvb0+Pby7PT69Ojy8vD6+Pbu9vT09Or04Pb0+Pr08u729vTu9Ozs9Pb09PT09vL28vbs9PLw9PTy9PTw9vDu9PT29PTw7PT08vTu8vb06vL0+vb6+Pb2+O729vL09vT49vb49Pb2+PDs9vb2+vb0+Pg==",
					"40GpvxujyLfOnp5sEIBSGa4G9vMzvzo71wCMFxJNLMYq+OL48A3KzE//+sioIDl9RzlHq+Q+hJx62RDwzaAAs2wOHiMLXgmYHDTkc5zLQSZ5Qi5Yzk47cR6q5UnCGhUVMGRg51tVkWJ8m7etvM/AEOWrQ16bwx3xnEEQVmW6CnBaQYkbGhzcQUeS1NkR9O2JTPOIRSAEJseXisEHuoq5bmTMXXqtQcpgbMTDGXUIMlGPIh8V4nfOIozPidD5oVE9RjAzv/kb6xnG0/I614GH9fExzXAu6p4DwURZAZT3LZnIIUgTDdbGiak6rktBI1fONqzPmrr2PQDeEfbzhuNqDlucSxCvzsZM4XnuZgKgFSgArjtIpub7FWGWOE8UJ7b5DdzpbghBiPJUKFqnyTjOz+Pe0kCccgFEi6SmeuBv8jUYrHY2wu5d+plXzwjiKCXXqPr09vb28vbw7PT07Pb28PT09vLy9vL09PL27vDy9PLy8PDy9PDy9Pbw9Pb07vj29vb08PT29PT09PL29vTy9PT29PT09Pb09Pb69Pb09PLs8vby9vTy9Pj09PTy+vTw9Pj08vL28vT09PD28vT67PA==",
					"42AI6Na6S4AdH/roCE6p2t1ch1hSZEF36rxPi1mP8d3gAAOrnoi1Znbl6nXVETKu6WHgFiqTgcxLUrl4dsl6MJqF8heqakEjoBZaUyJHoZaXHRW8YVUWxIfA02lMOUn/kZDWcbDYNyGgl/+RhMjVJnAkqVpcgNtUtjSnSbIfMV5LuU/uZ3xxSi379hLe+p8WiEQQjobaiQ1S+yXhZlUa4A1pz+cejUK+hrYBR9RLIuHkWkNiuzxRl+Y8mkaeyhCY3/N1dYyZqXbKR7FXx4Pa/V2RCG4r5Dfcpw/hyzDZKjXtHGU+LiKkEIH1a29gax9sKv+AF1h6bBEmhpYPWxy1UvdxnhERzAo+BViUu4dK2pbuNKNsiyWiwkWth67r6s94kj/N+iScQnsXBM4pIrNleCDda8hSm40pkmYoTWk//5AGTGUxle0823JisFFFcjhn0vb69Pj09Ozw9Pj29Pby7vL29vr09vD49PL09vD2+PT26vb29PT48vbu+Pr29Pb09vD48Pr29Pbw9Pb09PDo8vT27vTu9PTu7vL29uj08Pb0+u709vT28vT29PT29vb29Pj49vb08vT09vL09vTu9uw==",
					"4339Q0PTZnzgqDd0GPWbvTiKEFGXlq8KegJThlWWp3wb72JgUOQ4uAC955DWEHXf7TcSN3xj6XC0psTBcOv6SkVoSqWNhtX25FaxCtqQuMojSsGtIkQsXE1RKX2DoPqO3Y8+4SWRO2x21f13omtwVli4TXkv7Am+NsBorfPqxRhgISFsEbPH3C3MRPcuC4/oiMSt45PThkOIP2FK8fDdmeXxa6A1nr5QlJmuwu4Tf0zTOnSLlAPV0ND5v/F6WJUiL2yAyvraCmNDnjwwv+umh63wxBfMBwAWJn7FydXRxOUyyeOJAUc4jA/atg5EiaKbkhZ0epmFMnYIfn17qz4Kqxl6S6EQ8qQtHFEsOavWmJxQbUhkmJh4GJQjtD/2tsc+Kgdr8+QDzBm3GPDIp/6NaJadGYRXTASFfohKMLRVKbemx8v5cw9OOHO+wzU8/XOtrPD47vTw8vb28vb29PT08vb28vrw9PT28vb29vb29PT29vTw7vT08vD29PTy9vT2+vL29vT6+vj0+O7y9vL07PT29PT28Pb29Oj08vbw8PD49Pj48PD67vTy+vLw+Ozy8vbw9Pb09vb69Pb28PT09vQ==",
					"45uavfpgCsMZDZgyKzMbz7SjDp5+anz7eztZScRsydhduZAcWcMSBpHOeB99+DbThjAYz+7EbevHGim/cSGit7jswG4JkAuJNqwA1qqqgIYoGHvHzuvdE4Km3jLuWyksQlVis+3H0r9Lc7UR3VAKjOS5ow/OLISLaHsPISWwiL91GIB06Cv2t4IEfT6F3t7zDtzGPxH+MYxLOFrhtEvEcYWyR8lpR7jNty5gnKIpvSMPyshH2KvRqeZ59ZEB3jm4VyZJaYz0SIOC0sYpy9izr7D3kPTIQRBStnb5i6bu0jQqcVU2QSTbjTcQo0gD8hIvfGsFx5HYULxgHhlXCHHQKUuvihMKOT+uemufLF7gfvxVuREex0GgmzALfLDKaPaVGFUCgGzJDhthDxsEWzzgO8z+hFoRWcXQffQfOK9L3E3M8XJ3WpI0HQ7YOs/h79ISTPT4+Pry7PDu8vbq+O729Pb28vby9Pr26Pj08vDu9PT08PLs8vb09vb08Pb29vb0+vTu8vT29Pry8vD09PTy8vT6+vT69vb28vTy8vTw8PTw+PT09vD29vTw8vbu9vT49vr09vT27Pj49vr07PT29PA==",
					"4e630r7qa9wWc6/Ri64A1WGo9okgOEC/z1xZzVfyamNrQrN8UgVHfffIgIWheZG77nTaEBT65K74+/3b2qHxr+AYmkCeUME5Kh3iLwQefFa620upPBV26r00WlRPcOHgiyILiGfPNtMGhJNyUYWd8jy9kpQRjKibUnddZtPCLTy+p+T9D7MWqH4XT5iU1uzaaxS2NiSnFFLYN9Y4Xpt2+7DH9KE/WZDAje6BtIjlQCDgfxOUFJrh9yCVCLMVKdbNGs9u2k/hMD0kNf0/hvG38dRS3JHw2s4bnPjR2EZecOLQPHsMT4QuHTBvdEhgqaAdXlZGWw79iOSKfLrUkhRlRFtsapvDpFMHa8u3f9A0msOQUvX/qGJcm2AKrQ7aFSj5/cQ4I+N54SOG3O9z0VK/eyjSLOzyXWVPe1fS7hqEdIKUVdIWnP9im3glGaamNJV7Avr69Pr0+PT2+PDw+vb28Pb07vT09vL09vT09vb2+PLy9PTo9vLw8Ojy9ury+vb08Pr29vb48vr28PTs9vL08PT28PT09vbs9vDy8vL29PL29O729vb29PDs8Pb09vr49vry8PDw9Pb28Prs9Pb48PQ==",
					"49JZBps2kJBSCjt78uK4sJ1NjO1BC6A9LVhMIGgj3yJ+fQYjULyODYuh9YSueq6aABYAgqUNcIj/VIF5/+uZkSRJq3dcNPiD58sM6lNh8Who67ctRgY7zudOP0V6G2nPiYABrTJjQAJlfAfVGuHK5GVBFrNEK3t+gxVqvK8T3msKrU+6++mnQIt9SZPKKfHvN9B9Mogwk5Os7IuRlJutbiB5Lp/k4aQcyb/Rjw4y+1/bQKfdNV3Q6vESvoqWaHLiCtGONRTQ7jH3xCcCS+unctzRDXYguZRbw2slMMt+Yzxx/95bA83zHqnG8BykLnwwrnQe43nuhX8raiZ/9o5bGRo2m8lFODK26JEGsUmV4jhdRljgrQOabViSxehUMWyuXxxCV11zTQ30EFbjjHyaQdB4J6GTqKguqqd6AlF4fnwZ3ytc05JXS8bB8CpcYtS2lvbw+PLy8Nzw8PT69O7y9Pj07PT29Pb27PL29Pb29O7y9PLw9PLy9vD28vbw8vL09PTy9vbw9PTy9PL09vb09vL09vbq8vTy9PT09Pb2+PLw9vj2+vb08PLw8Pb28uz0+vr29vb28Pb09PT69vT2+PQ==",
